{
  "version": "1.0",
  "truncation": null,
  "padding": null,
  "added_tokens": [
    {
      "id": 0,
      "content": "<pad>",
      "single_word": false,
      "lstrip": false,
      "rstrip": false,
      "normalized": false,
      "special": true
    },
    {
      "id": 1,
      "content": "<unk>",
      "single_word": false,
      "lstrip": false,
      "rstrip": false,
      "normalized": false,
      "special": true
    },
    {
      "id": 2,
      "content": "<s>",
      "single_word": false,
      "lstrip": false,
      "rstrip": false,
      "normalized": false,
      "special": true
    },
    {
      "id": 3,
      "content": "</s>",
      "single_word": false,
      "lstrip": false,
      "rstrip": false,
      "normalized": false,
      "special": true
    },
    {
      "id": 4,
      "content": "<mask>",
      "single_word": false,
      "lstrip": false,
      "rstrip": false,
      "normalized": false,
      "special": true
    }
  ],
  "normalizer": {
    "type": "NFC"
  },
  "pre_tokenizer": {
    "type": "Whitespace"
  },
  "post_processor": null,
  "decoder": null,
  "model": {
    "type": "BPE",
    "dropout": null,
    "unk_token": null,
    "continuing_subword_prefix": null,
    "end_of_word_suffix": null,
    "fuse_unk": false,
    "byte_fallback": false,
    "ignore_merges": false,
    "vocab": {
      "<pad>": 0,
      "<unk>": 1,
      "<s>": 2,
      "</s>": 3,
      "<mask>": 4,
      "\b": 5,
      "!": 6,
      "\"": 7,
      "#": 8,
      "$": 9,
      "%": 10,
      "&": 11,
      "'": 12,
      "(": 13,
      ")": 14,
      "*": 15,
      "+": 16,
      ",": 17,
      "-": 18,
      ".": 19,
      "/": 20,
      "0": 21,
      "1": 22,
      "2": 23,
      "3": 24,
      "4": 25,
      "5": 26,
      "6": 27,
      "7": 28,
      "8": 29,
      "9": 30,
      ":": 31,
      ";": 32,
      "<": 33,
      "=": 34,
      ">": 35,
      "?": 36,
      "@": 37,
      "A": 38,
      "B": 39,
      "C": 40,
      "D": 41,
      "E": 42,
      "F": 43,
      "G": 44,
      "H": 45,
      "I": 46,
      "J": 47,
      "K": 48,
      "L": 49,
      "M": 50,
      "N": 51,
      "O": 52,
      "P": 53,
      "Q": 54,
      "R": 55,
      "S": 56,
      "T": 57,
      "U": 58,
      "V": 59,
      "W": 60,
      "X": 61,
      "Y": 62,
      "Z": 63,
      "[": 64,
      "\\": 65,
      "]": 66,
      "^": 67,
      "_": 68,
      "`": 69,
      "a": 70,
      "b": 71,
      "c": 72,
      "d": 73,
      "e": 74,
      "f": 75,
      "g": 76,
      "h": 77,
      "i": 78,
      "j": 79,
      "k": 80,
      "l": 81,
      "m": 82,
      "n": 83,
      "o": 84,
      "p": 85,
      "q": 86,
      "r": 87,
      "s": 88,
      "t": 89,
      "u": 90,
      "v": 91,
      "w": 92,
      "x": 93,
      "y": 94,
      "z": 95,
      "{": 96,
      "|": 97,
      "}": 98,
      "~": 99,
      "": 100,
      "¢": 101,
      "§": 102,
      "©": 103,
      "­": 104,
      "®": 105,
      "°": 106,
      "±": 107,
      "²": 108,
      "³": 109,
      "µ": 110,
      "·": 111,
      "¼": 112,
      "½": 113,
      "¾": 114,
      "¿": 115,
      "À": 116,
      "Á": 117,
      "Â": 118,
      "Ã": 119,
      "Ä": 120,
      "Å": 121,
      "Æ": 122,
      "È": 123,
      "É": 124,
      "Ê": 125,
      "Ë": 126,
      "Ì": 127,
      "Í": 128,
      "Î": 129,
      "Ï": 130,
      "Ð": 131,
      "Ñ": 132,
      "Ò": 133,
      "Ó": 134,
      "Ô": 135,
      "Õ": 136,
      "Ö": 137,
      "×": 138,
      "Ø": 139,
      "Ù": 140,
      "Ú": 141,
      "Û": 142,
      "Ý": 143,
      "à": 144,
      "á": 145,
      "â": 146,
      "ã": 147,
      "ä": 148,
      "å": 149,
      "æ": 150,
      "ç": 151,
      "è": 152,
      "é": 153,
      "ê": 154,
      "ë": 155,
      "ì": 156,
      "í": 157,
      "î": 158,
      "ï": 159,
      "ñ": 160,
      "ò": 161,
      "ó": 162,
      "ô": 163,
      "õ": 164,
      "ö": 165,
      "÷": 166,
      "ø": 167,
      "ù": 168,
      "ú": 169,
      "û": 170,
      "ü": 171,
      "ý": 172,
      "ā": 173,
      "Ă": 174,
      "ă": 175,
      "ć": 176,
      "č": 177,
      "Đ": 178,
      "đ": 179,
      "ē": 180,
      "ę": 181,
      "ğ": 182,
      "Ĩ": 183,
      "ĩ": 184,
      "İ": 185,
      "ı": 186,
      "ł": 187,
      "ń": 188,
      "ō": 189,
      "ş": 190,
      "Š": 191,
      "š": 192,
      "Ũ": 193,
      "ũ": 194,
      "ū": 195,
      "ż": 196,
      "Ž": 197,
      "ž": 198,
      "Ơ": 199,
      "ơ": 200,
      "Ư": 201,
      "ư": 202,
      "ǎ": 203,
      "ɛ": 204,
      "̀": 205,
      "́": 206,
      "̃": 207,
      "̛": 208,
      "Δ": 209,
      "Η": 210,
      "Ν": 211,
      "Τ": 212,
      "μ": 213,
      "φ": 214,
      "В": 215,
      "С": 216,
      "Т": 217,
      "а": 218,
      "в": 219,
      "е": 220,
      "н": 221,
      "о": 222,
      "п": 223,
      "р": 224,
      "Ạ": 225,
      "ạ": 226,
      "Ả": 227,
      "ả": 228,
      "Ấ": 229,
      "ấ": 230,
      "Ầ": 231,
      "ầ": 232,
      "Ẩ": 233,
      "ẩ": 234,
      "Ẫ": 235,
      "ẫ": 236,
      "Ậ": 237,
      "ậ": 238,
      "Ắ": 239,
      "ắ": 240,
      "Ằ": 241,
      "ằ": 242,
      "Ẳ": 243,
      "ẳ": 244,
      "Ẵ": 245,
      "ẵ": 246,
      "Ặ": 247,
      "ặ": 248,
      "Ẹ": 249,
      "ẹ": 250,
      "Ẻ": 251,
      "ẻ": 252,
      "Ẽ": 253,
      "ẽ": 254,
      "Ế": 255,
      "ế": 256,
      "Ề": 257,
      "ề": 258,
      "Ể": 259,
      "ể": 260,
      "Ễ": 261,
      "ễ": 262,
      "Ệ": 263,
      "ệ": 264,
      "Ỉ": 265,
      "ỉ": 266,
      "Ị": 267,
      "ị": 268,
      "Ọ": 269,
      "ọ": 270,
      "Ỏ": 271,
      "ỏ": 272,
      "Ố": 273,
      "ố": 274,
      "Ồ": 275,
      "ồ": 276,
      "Ổ": 277,
      "ổ": 278,
      "Ỗ": 279,
      "ỗ": 280,
      "Ộ": 281,
      "ộ": 282,
      "Ớ": 283,
      "ớ": 284,
      "Ờ": 285,
      "ờ": 286,
      "Ở": 287,
      "ở": 288,
      "Ỡ": 289,
      "ỡ": 290,
      "Ợ": 291,
      "ợ": 292,
      "Ụ": 293,
      "ụ": 294,
      "Ủ": 295,
      "ủ": 296,
      "Ứ": 297,
      "ứ": 298,
      "Ừ": 299,
      "ừ": 300,
      "Ử": 301,
      "ử": 302,
      "Ữ": 303,
      "ữ": 304,
      "Ự": 305,
      "ự": 306,
      "Ỳ": 307,
      "ỳ": 308,
      "Ỵ": 309,
      "ỵ": 310,
      "Ỷ": 311,
      "ỷ": 312,
      "Ỹ": 313,
      "ỹ": 314,
      "​": 315,
      "‌": 316,
      "‎": 317,
      "‏": 318,
      "‐": 319,
      "–": 320,
      "—": 321,
      "‘": 322,
      "’": 323,
      "“": 324,
      "”": 325,
      "•": 326,
      "…": 327,
      "″": 328,
      "⁄": 329,
      "⁶": 330,
      "⁺": 331,
      "⁻": 332,
      "₂": 333,
      "₃": 334,
      "℠": 335,
      "™": 336,
      "⅓": 337,
      "⅔": 338,
      "→": 339,
      "⇒": 340,
      "−": 341,
      "∩": 342,
      "≤": 343,
      "≥": 344,
      "≦": 345,
      "▲": 346,
      "▼": 347,
      "▽": 348,
      "●": 349,
      "★": 350,
      "✔": 351,
      "✘": 352,
      "典": 353,
      "合": 354,
      "宇": 355,
      "宙": 356,
      "所": 357,
      "技": 358,
      "業": 359,
      "構": 360,
      "機": 361,
      "法": 362,
      "産": 363,
      "発": 364,
      "研": 365,
      "福": 366,
      "究": 367,
      "空": 368,
      "組": 369,
      "総": 370,
      "罗": 371,
      "航": 372,
      "莉": 373,
      "術": 374,
      "超": 375,
      "铜": 376,
      "開": 377,
      "青": 378,
      "️": 379,
      "﻿": 380,
      "�": 381,
      "📍": 382,
      "📞": 383,
      "🔹": 384,
      "ng": 385,
      "nh": 386,
      "th": 387,
      "ch": 388,
      "tr": 389,
      "iệ": 390,
      "kh": 391,
      "ph": 392,
      "gi": 393,
      "ông": 394,
      "và": 395,
      "qu": 396,
      "ác": 397,
      "ên": 398,
      "ới": 399,
      "ất": 400,
      "iế": 401,
      "các": 402,
      "ong": 403,
      "ượ": 404,
      "củ": 405,
      "của": 406,
      "ườ": 407,
      "ại": 408,
      "uy": 409,
      "hiệ": 410,
      "là": 411,
      "an": 412,
      "iề": 413,
      "ầu": 414,
      "hà": 415,
      "ân": 416,
      "20": 417,
      "có": 418,
      "anh": 419,
      "ản": 420,
      "ăng": 421,
      "với": 422,
      "trong": 423,
      "iể": 424,
      "Th": 425,
      "ướ": 426,
      "ực": 427,
      "ao": 428,
      "ăm": 429,
      "inh": 430,
      "ươ": 431,
      "án": 432,
      "ược": 433,
      "ương": 434,
      "ường": 435,
      "iên": 436,
      "cho": 437,
      "ày": 438,
      "ình": 439,
      "ần": 440,
      "am": 441,
      "ồng": 442,
      "công": 443,
      "độ": 444,
      "năm": 445,
      "202": 446,
      "ức": 447,
      "iều": 448,
      "được": 449,
      "do": 450,
      "thu": 451,
      "ung": 452,
      "iện": 453,
      "giá": 454,
      "ước": 455,
      "đầu": 456,
      "ính": 457,
      "ho": 458,
      "Tr": 459,
      "đị": 460,
      "iệt": 461,
      "ối": 462,
      "tăng": 463,
      "ải": 464,
      "đồng": 465,
      "hàng": 466,
      "phá": 467,
      "ai": 468,
      "ay": 469,
      "ài": 470,
      "ận": 471,
      "àn": 472,
      "nghiệ": 473,
      "đã": 474,
      "ến": 475,
      "ốc": 476,
      "ành": 477,
      "dự": 478,
      "từ": 479,
      "ách": 480,
      "ang": 481,
      "ơn": 482,
      "ột": 483,
      "động": 484,
      "sản": 485,
      "00": 486,
      "ti": 487,
      "doanh": 488,
      "nghiệp": 489,
      "số": 490,
      "ết": 491,
      "không": 492,
      "ội": 493,
      "tư": 494,
      "ục": 495,
      "Nam": 496,
      "eo": 497,
      "quy": 498,
      "ngh": 499,
      "ây": 500,
      "ững": 501,
      "uất": 502,
      "ập": 503,
      "Ch": 504,
      "một": 505,
      "đó": 506,
      "để": 507,
      "định": 508,
      "tại": 509,
      "iến": 510,
      "áng": 511,
      "Ng": 512,
      "Việt": 513,
      "trường": 514,
      "ạt": 515,
      "ười": 516,
      "về": 517,
      "nhà": 518,
      "này": 519,
      "iển": 520,
      "như": 521,
      "đến": 522,
      "ảm": 523,
      "người": 524,
      "iệc": 525,
      "ùng": 526,
      "ời": 527,
      "êu": 528,
      "thị": 529,
      "vào": 530,
      "iểm": 531,
      "ảo": 532,
      "ra": 533,
      "ịch": 534,
      "ấp": 535,
      "ượng": 536,
      "những": 537,
      "phát": 538,
      "iệu": 539,
      "ật": 540,
      "kho": 541,
      "sẽ": 542,
      "hơn": 543,
      "ũng": 544,
      "việc": 545,
      "hiện": 546,
      "ền": 547,
      "chính": 548,
      "triển": 549,
      "iết": 550,
      "thể": 551,
      "ạo": 552,
      "trên": 553,
      "quan": 554,
      "dụ": 555,
      "ạn": 556,
      "ảng": 557,
      "khi": 558,
      "2024": 559,
      "nước": 560,
      "thành": 561,
      "xuất": 562,
      "dụng": 563,
      "tế": 564,
      "to": 565,
      "cao": 566,
      "nhiều": 567,
      "hành": 568,
      "Ph": 569,
      "chỉ": 570,
      "cũng": 571,
      "kinh": 572,
      "tỷ": 573,
      "ăn": 574,
      "áo": 575,
      "Qu": 576,
      "gia": 577,
      "ởng": 578,
      "ứng": 579,
      "ợp": 580,
      "ổi": 581,
      "ạnh": 582,
      "hợp": 583,
      "lượng": 584,
      "ôi": 585,
      "ưởng": 586,
      "sự": 587,
      "thông": 588,
      "ống": 589,
      "iền": 590,
      "thực": 591,
      "ẫn": 592,
      "ty": 593,
      "giảm": 594,
      "cơ": 595,
      "mới": 596,
      "ích": 597,
      "so": 598,
      "ngày": 599,
      "nhân": 600,
      "thời": 601,
      "chuy": 602,
      "theo": 603,
      "tiế": 604,
      "tổ": 605,
      "tháng": 606,
      "au": 607,
      "lý": 608,
      "ái": 609,
      "òn": 610,
      "mức": 611,
      "mu": 612,
      "hội": 613,
      "ằng": 614,
      "on": 615,
      "tiêu": 616,
      "nhất": 617,
      "bán": 618,
      "ẩm": 619,
      "điện": 620,
      "bảo": 621,
      "họ": 622,
      "ốn": 623,
      "ặc": 624,
      "điều": 625,
      "in": 626,
      "tiếp": 627,
      "vụ": 628,
      "làm": 629,
      "ấn": 630,
      "cầu": 631,
      "lớ": 632,
      "đang": 633,
      "năng": 634,
      "Gi": 635,
      "đề": 636,
      "ặt": 637,
      "ọng": 638,
      "ưa": 639,
      "dịch": 640,
      "Nh": 641,
      "lại": 642,
      "cả": 643,
      "cấp": 644,
      "trình": 645,
      "lớn": 646,
      "đất": 647,
      "tạo": 648,
      "triệu": 649,
      "tài": 650,
      "òng": 651,
      "ộc": 652,
      "qua": 653,
      "chi": 654,
      "giao": 655,
      "ướng": 656,
      "đo": 657,
      "ạch": 658,
      "10": 659,
      "Công": 660,
      "óa": 661,
      "điểm": 662,
      "tiền": 663,
      "lực": 664,
      "thế": 665,
      "phải": 666,
      "đối": 667,
      "phẩm": 668,
      "nhận": 669,
      "âm": 670,
      "tỉ": 671,
      "úc": 672,
      "tác": 673,
      "ễn": 674,
      "lo": 675,
      "ắc": 676,
      "còn": 677,
      "thương": 678,
      "sử": 679,
      "kết": 680,
      "mua": 681,
      "Theo": 682,
      "tin": 683,
      "ồn": 684,
      "toàn": 685,
      "khu": 686,
      "hiệu": 687,
      "ợi": 688,
      "át": 689,
      "chủ": 690,
      "ánh": 691,
      "trước": 692,
      "vực": 693,
      "đổi": 694,
      "quốc": 695,
      "kỳ": 696,
      "SD": 697,
      "pháp": 698,
      "đạt": 699,
      "Quốc": 700,
      "2025": 701,
      "khách": 702,
      "áp": 703,
      "USD": 704,
      "ếu": 705,
      "hoạt": 706,
      "chức": 707,
      "en": 708,
      "phần": 709,
      "àng": 710,
      "ấy": 711,
      "mạnh": 712,
      "lu": 713,
      "âu": 714,
      "ào": 715,
      "trưởng": 716,
      "uyên": 717,
      "ắt": 718,
      "cu": 719,
      "cùng": 720,
      "er": 721,
      "khẩ": 722,
      "ngân": 723,
      "dựng": 724,
      "bị": 725,
      "tục": 726,
      "lên": 727,
      "lã": 728,
      "ển": 729,
      "giới": 730,
      "nay": 731,
      "dân": 732,
      "ngành": 733,
      "êm": 734,
      "tu": 735,
      "Kh": 736,
      "vốn": 737,
      "liên": 738,
      "trung": 739,
      "hóa": 740,
      "Mỹ": 741,
      "sau": 742,
      "ngo": 743,
      "báo": 744,
      "thuế": 745,
      "hình": 746,
      "nghệ": 747,
      "Bộ": 748,
      "úng": 749,
      "ạng": 750,
      "sách": 751,
      "Trong": 752,
      "khẩu": 753,
      "..": 754,
      "ar": 755,
      "trị": 756,
      "lợi": 757,
      "gian": 758,
      "Trung": 759,
      "khai": 760,
      "iếu": 761,
      "vàng": 762,
      "000": 763,
      "giải": 764,
      "thống": 765,
      "biết": 766,
      "ạm": 767,
      "TP": 768,
      "uồn": 769,
      "xây": 770,
      "es": 771,
      "địa": 772,
      "mà": 773,
      "phí": 774,
      "hệ": 775,
      "cần": 776,
      "trọng": 777,
      "chuyển": 778,
      "ộng": 779,
      "ốt": 780,
      "khoảng": 781,
      "tích": 782,
      "tới": 783,
      "khác": 784,
      "bất": 785,
      "nhu": 786,
      "quả": 787,
      "hạn": 788,
      "ưu": 789,
      "nhập": 790,
      "tâm": 791,
      "11": 792,
      "iệm": 793,
      "vị": 794,
      "nguồn": 795,
      "ấu": 796,
      "liệu": 797,
      "vẫn": 798,
      "gần": 799,
      "quyết": 800,
      "bộ": 801,
      "sở": 802,
      "viên": 803,
      "xe": 804,
      "mại": 805,
      "xã": 806,
      "di": 807,
      "phương": 808,
      "cung": 809,
      "tổng": 810,
      "suất": 811,
      "giữ": 812,
      "nhưng": 813,
      "cổ": 814,
      "học": 815,
      "ban": 816,
      "trợ": 817,
      "hướng": 818,
      "al": 819,
      "vi": 820,
      "Hà": 821,
      "ừa": 822,
      "tỉnh": 823,
      "tính": 824,
      "ồi": 825,
      "hoạch": 826,
      "thức": 827,
      "kiến": 828,
      "Tổ": 829,
      "quản": 830,
      "trở": 831,
      "bằng": 832,
      "mặt": 833,
      "Chính": 834,
      "tập": 835,
      "kế": 836,
      "2023": 837,
      "chế": 838,
      "sinh": 839,
      "đây": 840,
      "đường": 841,
      "ói": 842,
      "ởi": 843,
      "iểu": 844,
      "đại": 845,
      "nhiên": 846,
      "ro": 847,
      "áy": 848,
      "30": 849,
      "ôn": 850,
      "hoàn": 851,
      "quyền": 852,
      "),": 853,
      "12": 854,
      "rất": 855,
      "mục": 856,
      "ỗi": 857,
      "chu": 858,
      "dùng": 859,
      "dẫn": 860,
      "biệt": 861,
      "tự": 862,
      "ẩy": 863,
      "tôi": 864,
      "rằng": 865,
      "diện": 866,
      "phân": 867,
      "đi": 868,
      "đơn": 869,
      "chưa": 870,
      "et": 871,
      "Ho": 872,
      "bản": 873,
      "Tổng": 874,
      "chất": 875,
      "ri": 876,
      "cách": 877,
      "ĩnh": 878,
      "Giá": 879,
      "đẩy": 880,
      "ép": 881,
      "thì": 882,
      "ửa": 883,
      "thiết": 884,
      "hai": 885,
      "phủ": 886,
      "lãi": 887,
      "ín": 888,
      "ằm": 889,
      "biến": 890,
      "lập": 891,
      "CM": 892,
      "phiếu": 893,
      "hỗ": 894,
      "úp": 895,
      ").": 896,
      "con": 897,
      "uyệ": 898,
      "lần": 899,
      "đảm": 900,
      "chứng": 901,
      "tham": 902,
      "giúp": 903,
      "Nội": 904,
      "iếm": 905,
      "hiểm": 906,
      "đô": 907,
      "uyến": 908,
      "tầ": 909,
      "mở": 910,
      "19": 911,
      "mô": 912,
      "nền": 913,
      "sáng": 914,
      "ngoài": 915,
      "thủ": 916,
      "hoặc": 917,
      "15": 918,
      "lệ": 919,
      "nên": 920,
      "khoản": 921,
      "máy": 922,
      "co": 923,
      "Nguy": 924,
      "út": 925,
      "Các": 926,
      "khó": 927,
      "đoàn": 928,
      "Nguyễn": 929,
      "phố": 930,
      "cạnh": 931,
      "thường": 932,
      "xu": 933,
      "óng": 934,
      "cáo": 935,
      "tương": 936,
      "ơi": 937,
      "HCM": 938,
      "cứ": 939,
      "gó": 940,
      "kiện": 941,
      "đặc": 942,
      "Ảnh": 943,
      "or": 944,
      "thấy": 945,
      "phục": 946,
      "cá": 947,
      "yếu": 948,
      "uyền": 949,
      "Nhà": 950,
      "đoạn": 951,
      "ký": 952,
      "nhiệm": 953,
      "Chủ": 954,
      "lĩnh": 955,
      "ảnh": 956,
      "chuyên": 957,
      "tín": 958,
      "đưa": 959,
      "vấn": 960,
      "dư": 961,
      "hộ": 962,
      "tiến": 963,
      "Tuy": 964,
      "đạo": 965,
      "ồm": 966,
      "tiên": 967,
      "ượt": 968,
      "gồm": 969,
      "luật": 970,
      "vì": 971,
      "nói": 972,
      "trí": 973,
      "loại": 974,
      "ắn": 975,
      "chung": 976,
      "mình": 977,
      "phòng": 978,
      "nghị": 979,
      "VN": 980,
      "thứ": 981,
      "toán": 982,
      "thuộc": 983,
      "góp": 984,
      "Thủ": 985,
      "thêm": 986,
      "ậy": 987,
      "òa": 988,
      "nội": 989,
      "Vi": 990,
      "tra": 991,
      "vừa": 992,
      "cuộc": 993,
      "50": 994,
      "nguyên": 995,
      "hi": 996,
      "âng": 997,
      "Ông": 998,
      "quý": 999,
      "bình": 1000,
      "quá": 1001,
      "tốt": 1002,
      "Bình": 1003,
      "im": 1004,
      "cuối": 1005,
      "ẩn": 1006,
      "la": 1007,
      "ta": 1008,
      "đánh": 1009,
      "rộng": 1010,
      "tử": 1011,
      "óm": 1012,
      "...": 1013,
      "bao": 1014,
      "hưởng": 1015,
      "ìn": 1016,
      "chúng": 1017,
      "đốc": 1018,
      "kiểm": 1019,
      "tình": 1020,
      "cảnh": 1021,
      "hay": 1022,
      "thay": 1023,
      "phiên": 1024,
      "nâng": 1025,
      "vận": 1026,
      "ọn": 1027,
      "el": 1028,
      "nông": 1029,
      "tịch": 1030,
      "Minh": 1031,
      "thúc": 1032,
      "cứu": 1033,
      "ữu": 1034,
      "nào": 1035,
      "minh": 1036,
      "ọi": 1037,
      "yêu": 1038,
      "căn": 1039,
      "Lu": 1040,
      "Ban": 1041,
      "khả": 1042,
      "thanh": 1043,
      "giữa": 1044,
      "TT": 1045,
      "êng": 1046,
      "bố": 1047,
      "văn": 1048,
      "cư": 1049,
      "tranh": 1050,
      "AI": 1051,
      "tầng": 1052,
      "mang": 1053,
      "đóng": 1054,
      "18": 1055,
      "★★": 1056,
      "chiến": 1057,
      "lịch": 1058,
      "trực": 1059,
      "du": 1060,
      "tiết": 1061,
      "dài": 1062,
      "nhằm": 1063,
      "vững": 1064,
      "lin": 1065,
      "hồi": 1066,
      "uyện": 1067,
      "Thương": 1068,
      "hữu": 1069,
      "thấp": 1070,
      "25": 1071,
      "lao": 1072,
      "16": 1073,
      "thiện": 1074,
      "đặt": 1075,
      "13": 1076,
      "vậy": 1077,
      "ạc": 1078,
      "ìm": 1079,
      "môi": 1080,
      "BN": 1081,
      "ôm": 1082,
      "Ngh": 1083,
      "Đồng": 1084,
      "vọng": 1085,
      "chia": 1086,
      "14": 1087,
      "thi": 1088,
      "Do": 1089,
      "cực": 1090,
      "ừng": 1091,
      "Luật": 1092,
      "nhóm": 1093,
      "xanh": 1094,
      "đa": 1095,
      "kể": 1096,
      "xác": 1097,
      "khoán": 1098,
      "%,": 1099,
      "đều": 1100,
      "Thành": 1101,
      "Điều": 1102,
      "em": 1103,
      "hạ": 1104,
      "kỹ": 1105,
      "vay": 1106,
      "In": 1107,
      "07": 1108,
      "bu": 1109,
      "giai": 1110,
      "sức": 1111,
      "khí": 1112,
      "bắt": 1113,
      "khăn": 1114,
      "phê": 1115,
      "sát": 1116,
      "”,": 1117,
      "đủ": 1118,
      "sang": 1119,
      "chỉnh": 1120,
      "Thị": 1121,
      "tốc": 1122,
      "iêm": 1123,
      "diễn": 1124,
      "nghiệm": 1125,
      "NH": 1126,
      "tìm": 1127,
      "ỏi": 1128,
      "%.": 1129,
      "khởi": 1130,
      "ắm": 1131,
      "thuận": 1132,
      "mã": 1133,
      "từng": 1134,
      "tuyến": 1135,
      "nhanh": 1136,
      "bên": 1137,
      "ẳng": 1138,
      "cửa": 1139,
      "riêng": 1140,
      "chí": 1141,
      "Kinh": 1142,
      "ia": 1143,
      "17": 1144,
      "trả": 1145,
      "Dự": 1146,
      "ưng": 1147,
      "xử": 1148,
      "dầu": 1149,
      "um": 1150,
      "bền": 1151,
      "chuẩn": 1152,
      "ậm": 1153,
      "truyền": 1154,
      "ọc": 1155,
      "ghi": 1156,
      "chọn": 1157,
      "đăng": 1158,
      "dữ": 1159,
      "02": 1160,
      "chiếm": 1161,
      "ét": 1162,
      "ổn": 1163,
      "nhuận": 1164,
      "tướng": 1165,
      "Với": 1166,
      "nếu": 1167,
      "Ngân": 1168,
      "kê": 1169,
      "Anh": 1170,
      "nối": 1171,
      "vệ": 1172,
      "phạm": 1173,
      "sống": 1174,
      "khiến": 1175,
      "nghiên": 1176,
      "ce": 1177,
      "ữa": 1178,
      "as": 1179,
      "line": 1180,
      "rõ": 1181,
      "ắng": 1182,
      "chương": 1183,
      "ắp": 1184,
      "NG": 1185,
      "tối": 1186,
      "thuật": 1187,
      "trì": 1188,
      "sẻ": 1189,
      "duy": 1190,
      "nghĩ": 1191,
      "thuê": 1192,
      "mỗi": 1193,
      "tấn": 1194,
      "Ngo": 1195,
      "chị": 1196,
      "vùng": 1197,
      "trang": 1198,
      "Từ": 1199,
      "bà": 1200,
      "phối": 1201,
      "lược": 1202,
      "danh": 1203,
      "nợ": 1204,
      "Bắc": 1205,
      "hút": 1206,
      "iềm": 1207,
      "giờ": 1208,
      "cụ": 1209,
      "Văn": 1210,
      "vượt": 1211,
      "Thu": 1212,
      "Thanh": 1213,
      "An": 1214,
      "ba": 1215,
      "phép": 1216,
      "tố": 1217,
      "àu": 1218,
      "bạn": 1219,
      "Tài": 1220,
      "phù": 1221,
      "tuần": 1222,
      "Đây": 1223,
      "mạng": 1224,
      "huyện": 1225,
      "Phó": 1226,
      "trái": 1227,
      "càng": 1228,
      "24": 1229,
      "Tết": 1230,
      "BND": 1231,
      "UBND": 1232,
      "chiều": 1233,
      "bổ": 1234,
      "Viet": 1235,
      "ịp": 1236,
      "Một": 1237,
      "cải": 1238,
      "đấu": 1239,
      "ít": 1240,
      "Long": 1241,
      "Tập": 1242,
      "biểu": 1243,
      "Ngoài": 1244,
      "lưu": 1245,
      "hết": 1246,
      "ửi": 1247,
      "muốn": 1248,
      "giám": 1249,
      "100": 1250,
      "huy": 1251,
      "bàn": 1252,
      "tượng": 1253,
      "vật": 1254,
      "dung": 1255,
      "soát": 1256,
      "it": 1257,
      "CP": 1258,
      "gây": 1259,
      "On": 1260,
      "Hội": 1261,
      "il": 1262,
      "đáp": 1263,
      "Quy": 1264,
      "m2": 1265,
      "tải": 1266,
      "gửi": 1267,
      "hôm": 1268,
      "đáng": 1269,
      "ầy": 1270,
      "nhỏ": 1271,
      "sàn": 1272,
      "Đông": 1273,
      "ậu": 1274,
      "cộng": 1275,
      "tái": 1276,
      "lãnh": 1277,
      "Tại": 1278,
      "đình": 1279,
      "tho": 1280,
      "õi": 1281,
      "un": 1282,
      "Hải": 1283,
      "thảo": 1284,
      "dù": 1285,
      "Giám": 1286,
      "Nhật": 1287,
      "\",": 1288,
      "Nghị": 1289,
      "ump": 1290,
      "II": 1291,
      "ựa": 1292,
      "Trump": 1293,
      "Bên": 1294,
      "TPHCM": 1295,
      "ex": 1296,
      "xem": 1297,
      "bay": 1298,
      "200": 1299,
      "Đại": 1300,
      "châu": 1301,
      "Online": 1302,
      "om": 1303,
      "ặng": 1304,
      "ặp": 1305,
      "trạng": 1306,
      "Thứ": 1307,
      "phụ": 1308,
      "xuống": 1309,
      "500": 1310,
      "Cục": 1311,
      "sung": 1312,
      "up": 1313,
      "nơi": 1314,
      "kỷ": 1315,
      "quỹ": 1316,
      "01": 1317,
      "ngay": 1318,
      "Sau": 1319,
      "ap": 1320,
      "trách": 1321,
      "thác": 1322,
      "Thông": 1323,
      "bước": 1324,
      "sơ": 1325,
      "bởi": 1326,
      "”.": 1327,
      "ew": 1328,
      "ệnh": 1329,
      "mọi": 1330,
      "Trần": 1331,
      "khá": 1332,
      "ỡng": 1333,
      "Phát": 1334,
      "ủi": 1335,
      "bỏ": 1336,
      "cận": 1337,
      "Tu": 1338,
      "Việc": 1339,
      "dưới": 1340,
      "29": 1341,
      "ké": 1342,
      "hồ": 1343,
      "cường": 1344,
      "cà": 1345,
      "ấm": 1346,
      "tảng": 1347,
      "trò": 1348,
      "22": 1349,
      "ngoại": 1350,
      "Đức": 1351,
      "giả": 1352,
      "tuổi": 1353,
      "rủi": 1354,
      "đúng": 1355,
      "biển": 1356,
      "TS": 1357,
      "23": 1358,
      "Thái": 1359,
      "40": 1360,
      "le": 1361,
      "nhau": 1362,
      "nhìn": 1363,
      "iệp": 1364,
      "Bank": 1365,
      "Hiện": 1366,
      "iêu": 1367,
      "Sở": 1368,
      "28": 1369,
      "cây": 1370,
      "Năm": 1371,
      "dòng": 1372,
      "nổi": 1373,
      "da": 1374,
      "đầy": 1375,
      "dõi": 1376,
      "phía": 1377,
      "Dương": 1378,
      "ter": 1379,
      "gặp": 1380,
      "nghĩa": 1381,
      "tiện": 1382,
      "ha": 1383,
      "tất": 1384,
      "Những": 1385,
      "trải": 1386,
      "ếp": 1387,
      "cố": 1388,
      "ộp": 1389,
      "2022": 1390,
      "bài": 1391,
      "độc": 1392,
      "tinh": 1393,
      "21": 1394,
      "Khu": 1395,
      "vn": 1396,
      "chú": 1397,
      "miền": 1398,
      "ảy": 1399,
      "bank": 1400,
      "2021": 1401,
      "uyệt": 1402,
      "chấp": 1403,
      "lẻ": 1404,
      "To": 1405,
      "chuỗi": 1406,
      "ing": 1407,
      "ầm": 1408,
      "\".": 1409,
      "bối": 1410,
      "xét": 1411,
      "tiềm": 1412,
      "Đầu": 1413,
      "thân": 1414,
      "thích": 1415,
      "trẻ": 1416,
      "đông": 1417,
      "us": 1418,
      "oo": 1419,
      "ed": 1420,
      "óc": 1421,
      "chịu": 1422,
      "Bản": 1423,
      "com": 1424,
      "luôn": 1425,
      "Phú": 1426,
      "thư": 1427,
      "vai": 1428,
      "ãi": 1429,
      "sửa": 1430,
      "thái": 1431,
      "Hồ": 1432,
      "cảm": 1433,
      "lời": 1434,
      "hoa": 1435,
      "26": 1436,
      "Nếu": 1437,
      "cập": 1438,
      "PT": 1439,
      "biên": 1440,
      "nghỉ": 1441,
      "Nguyên": 1442,
      "Cụ": 1443,
      "Lê": 1444,
      "hỏi": 1445,
      "31": 1446,
      "khuyến": 1447,
      "thụ": 1448,
      "ỏa": 1449,
      "CT": 1450,
      "khối": 1451,
      "mẽ": 1452,
      "Trước": 1453,
      "su": 1454,
      "thẩm": 1455,
      "lựa": 1456,
      "quận": 1457,
      "nhờ": 1458,
      "mất": 1459,
      "Sài": 1460,
      "Gòn": 1461,
      "sắc": 1462,
      "st": 1463,
      "thải": 1464,
      "đà": 1465,
      "ãng": 1466,
      "đảo": 1467,
      "Quảng": 1468,
      "nộp": 1469,
      "nghề": 1470,
      "luận": 1471,
      "ớm": 1472,
      "at": 1473,
      "Ninh": 1474,
      "08": 1475,
      "27": 1476,
      "hạng": 1477,
      "tên": 1478,
      "lương": 1479,
      "Để": 1480,
      "quân": 1481,
      "TV": 1482,
      "kiệm": 1483,
      "gì": 1484,
      "lộ": 1485,
      "Lan": 1486,
      "Kỳ": 1487,
      "sớm": 1488,
      "ck": 1489,
      "lai": 1490,
      "cấu": 1491,
      "họp": 1492,
      "Về": 1493,
      "Phạm": 1494,
      "dạng": 1495,
      "li": 1496,
      "Bà": 1497,
      "khoa": 1498,
      "60": 1499,
      "Sơn": 1500,
      "nữa": 1501,
      "tầm": 1502,
      "CB": 1503,
      "thách": 1504,
      "Liên": 1505,
      "Hòa": 1506,
      "nghìn": 1507,
      "09": 1508,
      "gọi": 1509,
      "thiếu": 1510,
      "tiếng": 1511,
      "Tây": 1512,
      "trương": 1513,
      "ạp": 1514,
      "ark": 1515,
      "sao": 1516,
      "hiểu": 1517,
      "dễ": 1518,
      "lượt": 1519,
      "ẹp": 1520,
      "cam": 1521,
      "Không": 1522,
      "dành": 1523,
      "sâu": 1524,
      "nằm": 1525,
      "đào": 1526,
      "tay": 1527,
      "Hoàng": 1528,
      "kg": 1529,
      "lúc": 1530,
      "Phòng": 1531,
      "Hoa": 1532,
      "35": 1533,
      "phản": 1534,
      "gạo": 1535,
      "Đà": 1536,
      "Co": 1537,
      "đương": 1538,
      "đai": 1539,
      "Ngày": 1540,
      "ee": 1541,
      "đứng": 1542,
      "hậu": 1543,
      "kiếm": 1544,
      "khóa": 1545,
      "cân": 1546,
      "chậm": 1547,
      "ùa": 1548,
      "Khi": 1549,
      "ứa": 1550,
      "tệ": 1551,
      "kim": 1552,
      "đồ": 1553,
      "ủy": 1554,
      "Bảo": 1555,
      "kéo": 1556,
      "bệnh": 1557,
      "nhấn": 1558,
      "Châu": 1559,
      "xăng": 1560,
      "chống": 1561,
      "niêm": 1562,
      "yết": 1563,
      "99": 1564,
      "iễn": 1565,
      "Vin": 1566,
      "ẫu": 1567,
      "HĐ": 1568,
      "45": 1569,
      "re": 1570,
      "tuy": 1571,
      "ện": 1572,
      "thưởng": 1573,
      "Tân": 1574,
      "cắt": 1575,
      "kênh": 1576,
      "Xu": 1577,
      "trữ": 1578,
      "giấy": 1579,
      "70": 1580,
      "Hiệp": 1581,
      "câu": 1582,
      "NN": 1583,
      "trồng": 1584,
      "and": 1585,
      "xếp": 1586,
      "ne": 1587,
      "sắt": 1588,
      "nam": 1589,
      "ic": 1590,
      "chuyện": 1591,
      "duyệt": 1592,
      "đội": 1593,
      "Ủy": 1594,
      "SE": 1595,
      "giáo": 1596,
      "80": 1597,
      "roup": 1598,
      "2030": 1599,
      "Độ": 1600,
      "Doanh": 1601,
      "biện": 1602,
      "đãi": 1603,
      "ent": 1604,
      "lư": 1605,
      "Chí": 1606,
      "Hồng": 1607,
      "Ấn": 1608,
      "tàu": 1609,
      "nỗ": 1610,
      "gắn": 1611,
      "Lo": 1612,
      "thất": 1613,
      "Đối": 1614,
      "SJ": 1615,
      "Giang": 1616,
      "mắt": 1617,
      "uôi": 1618,
      "ròng": 1619,
      "Te": 1620,
      "lạm": 1621,
      "khẳng": 1622,
      "Nhiều": 1623,
      "thầu": 1624,
      "Chúng": 1625,
      "cử": 1626,
      "dấu": 1627,
      "thủy": 1628,
      "đời": 1629,
      "te": 1630,
      "sân": 1631,
      "New": 1632,
      "SJC": 1633,
      "%/": 1634,
      "gấp": 1635,
      "đột": 1636,
      "Đảng": 1637,
      "tưởng": 1638,
      "khúc": 1639,
      "phong": 1640,
      "ãn": 1641,
      "ỉnh": 1642,
      "buộc": 1643,
      "Âu": 1644,
      "nuôi": 1645,
      "ngắn": 1646,
      "Tôi": 1647,
      "thiểu": 1648,
      "dần": 1649,
      "loạt": 1650,
      "ẵn": 1651,
      "ám": 1652,
      "ạy": 1653,
      "Người": 1654,
      "trừ": 1655,
      "hãng": 1656,
      "90": 1657,
      "xuyên": 1658,
      "Hàn": 1659,
      "đích": 1660,
      "DI": 1661,
      "Hu": 1662,
      "tô": 1663,
      "sẵn": 1664,
      "mắc": 1665,
      "ỏe": 1666,
      "ngại": 1667,
      "MT": 1668,
      "Có": 1669,
      "36": 1670,
      "is": 1671,
      "khỏe": 1672,
      "nêu": 1673,
      "Quyết": 1674,
      "mong": 1675,
      "nắm": 1676,
      "may": 1677,
      "gỡ": 1678,
      "gói": 1679,
      "ẵng": 1680,
      "tồn": 1681,
      "38": 1682,
      "Xuân": 1683,
      "hòa": 1684,
      "TH": 1685,
      "Cơ": 1686,
      "XVN": 1687,
      "TTXVN": 1688,
      "lục": 1689,
      "Nẵng": 1690,
      "xa": 1691,
      "chặt": 1692,
      "lấy": 1693,
      "trao": 1694,
      "DP": 1695,
      "thép": 1696,
      "iếng": 1697,
      "Đị": 1698,
      "tup": 1699,
      "ụt": 1700,
      "hấp": 1701,
      "Sh": 1702,
      "tận": 1703,
      "Điện": 1704,
      "nữ": 1705,
      "Nga": 1706,
      "2020": 1707,
      "viết": 1708,
      "mối": 1709,
      "Trường": 1710,
      "quảng": 1711,
      "artup": 1712,
      "cảng": 1713,
      "Chỉ": 1714,
      "nửa": 1715,
      "kịp": 1716,
      "sĩ": 1717,
      "06": 1718,
      "Đặc": 1719,
      "lâu": 1720,
      "CE": 1721,
      "300": 1722,
      "%;": 1723,
      "Xây": 1724,
      "bảng": 1725,
      "ol": 1726,
      "mùa": 1727,
      "cục": 1728,
      "ngoái": 1729,
      "chóng": 1730,
      "Vì": 1731,
      "Nhưng": 1732,
      "tạm": 1733,
      "thần": 1734,
      "VI": 1735,
      "siêu": 1736,
      "vướng": 1737,
      "nhật": 1738,
      "km": 1739,
      "ệt": 1740,
      "sóng": 1741,
      "Như": 1742,
      "vòng": 1743,
      "For": 1744,
      "pp": 1745,
      "thôn": 1746,
      "tức": 1747,
      "Sự": 1748,
      "ứt": 1749,
      "ninh": 1750,
      "linh": 1751,
      "dưỡng": 1752,
      "khảo": 1753,
      "CO": 1754,
      "tòa": 1755,
      "tránh": 1756,
      "Fed": 1757,
      "mẫu": 1758,
      "song": 1759,
      "chốt": 1760,
      "dục": 1761,
      "Ngọc": 1762,
      "hại": 1763,
      "ui": 1764,
      "iếc": 1765,
      "Quản": 1766,
      "nhẹ": 1767,
      "đón": 1768,
      "combank": 1769,
      "viện": 1770,
      "Báo": 1771,
      "Đến": 1772,
      "lưới": 1773,
      "họa": 1774,
      "lễ": 1775,
      "đẹp": 1776,
      "dex": 1777,
      "Cùng": 1778,
      "vài": 1779,
      "dựa": 1780,
      "miếng": 1781,
      "ur": 1782,
      "Cổ": 1783,
      "phạt": 1784,
      "rút": 1785,
      "eb": 1786,
      "gió": 1787,
      "phú": 1788,
      "bạc": 1789,
      "Quang": 1790,
      "nguy": 1791,
      "Index": 1792,
      "ore": 1793,
      "onal": 1794,
      "ràng": 1795,
      "cán": 1796,
      "ngạch": 1797,
      "Còn": 1798,
      "oun": 1799,
      "trụ": 1800,
      "Thời": 1801,
      "nhẫn": 1802,
      "ão": 1803,
      "trời": 1804,
      "dịp": 1805,
      "áu": 1806,
      "xảy": 1807,
      "thoại": 1808,
      "QT": 1809,
      "KTS": 1810,
      "ik": 1811,
      "TI": 1812,
      "CN": 1813,
      "sông": 1814,
      "nghiêm": 1815,
      "startup": 1816,
      "Gia": 1817,
      "GP": 1818,
      "bật": 1819,
      "sư": 1820,
      "GMT": 1821,
      "rồi": 1822,
      "chơi": 1823,
      "chờ": 1824,
      "suy": 1825,
      "quay": 1826,
      "úa": 1827,
      "tháo": 1828,
      "Trên": 1829,
      "KTSG": 1830,
      "chợ": 1831,
      "lòng": 1832,
      "ủng": 1833,
      "nhiệt": 1834,
      "05": 1835,
      "mốc": 1836,
      "HĐQT": 1837,
      "liền": 1838,
      "sắp": 1839,
      "Group": 1840,
      "bồi": 1841,
      "chiếc": 1842,
      "TNH": 1843,
      "sắm": 1844,
      "phóng": 1845,
      "Sao": 1846,
      "cái": 1847,
      "gốc": 1848,
      "rà": 1849,
      "ọt": 1850,
      "TNHH": 1851,
      "34": 1852,
      "Phương": 1853,
      "thuốc": 1854,
      "ẹn": 1855,
      "cũ": 1856,
      "Kế": 1857,
      "hạt": 1858,
      "trăm": 1859,
      "thiên": 1860,
      "miễn": 1861,
      "Thuận": 1862,
      "Kết": 1863,
      "tuệ": 1864,
      "bày": 1865,
      "quanh": 1866,
      "thỏa": 1867,
      "Lâm": 1868,
      "lỗ": 1869,
      "Số": 1870,
      "Nông": 1871,
      "Giao": 1872,
      "ana": 1873,
      "buổi": 1874,
      "no": 1875,
      "bạch": 1876,
      "TM": 1877,
      "hoá": 1878,
      "niên": 1879,
      "39": 1880,
      "AN": 1881,
      "chắc": 1882,
      "lô": 1883,
      "úi": 1884,
      "phổ": 1885,
      "mật": 1886,
      "khắc": 1887,
      "cô": 1888,
      "Truyền": 1889,
      "Thế": 1890,
      "bes": 1891,
      "sàng": 1892,
      "Bạn": 1893,
      "NHNN": 1894,
      "khích": 1895,
      "mẹ": 1896,
      "nóng": 1897,
      "tắc": 1898,
      "ón": 1899,
      "75": 1900,
      "Sing": 1901,
      "Hưng": 1902,
      "ênh": 1903,
      "84": 1904,
      "dừng": 1905,
      "thậm": 1906,
      "Bí": 1907,
      "tuyên": 1908,
      "tai": 1909,
      "chăm": 1910,
      "GDP": 1911,
      "tre": 1912,
      "apore": 1913,
      "Singapore": 1914,
      "ma": 1915,
      "tic": 1916,
      "ĐT": 1917,
      "xúc": 1918,
      "Chứng": 1919,
      "ir": 1920,
      "thử": 1921,
      "FDI": 1922,
      "400": 1923,
      "FPT": 1924,
      "Đất": 1925,
      "uống": 1926,
      "TC": 1927,
      "tuyển": 1928,
      "ỏng": 1929,
      "trúc": 1930,
      "ví": 1931,
      "bão": 1932,
      "nhắc": 1933,
      "khỏi": 1934,
      "web": 1935,
      ");": 1936,
      "vid": 1937,
      "ID": 1938,
      "ợt": 1939,
      "Yên": 1940,
      "etr": 1941,
      "lúa": 1942,
      "55": 1943,
      "ga": 1944,
      "ua": 1945,
      "onald": 1946,
      "ngũ": 1947,
      "gh": 1948,
      "thiệu": 1949,
      "khổ": 1950,
      "chẽ": 1951,
      "Donald": 1952,
      "Vàng": 1953,
      "Sa": 1954,
      "ngôi": 1955,
      "Dù": 1956,
      "CEO": 1957,
      "vô": 1958,
      "ềm": 1959,
      "Dũng": 1960,
      "SG": 1961,
      "lũ": 1962,
      "phi": 1963,
      "Mo": 1964,
      "thập": 1965,
      "Ba": 1966,
      "lừa": 1967,
      "ca": 1968,
      "Tính": 1969,
      "phường": 1970,
      "★★★": 1971,
      "Tuổi": 1972,
      "de": 1973,
      "37": 1974,
      "Cần": 1975,
      "giống": 1976,
      "ùi": 1977,
      "Cam": 1978,
      "òi": 1979,
      "tel": 1980,
      "WS": 1981,
      "don": 1982,
      "nhượng": 1983,
      "CH": 1984,
      "Đài": 1985,
      "rẻ": 1986,
      "33": 1987,
      "Trẻ": 1988,
      "Vũ": 1989,
      "Kim": 1990,
      "hẹn": 1991,
      "Nguồn": 1992,
      "sai": 1993,
      "So": 1994,
      "tuân": 1995,
      "giàu": 1996,
      "dây": 1997,
      "Hai": 1998,
      "bo": 1999,
      "News": 2000,
      "Cũng": 2001,
      "2019": 2002,
      "ngừng": 2003,
      "48": 2004,
      "Thực": 2005,
      "đợt": 2006,
      "ounce": 2007,
      "màu": 2008,
      "03": 2009,
      "đá": 2010,
      "Chương": 2011,
      "nó": 2012,
      "Khánh": 2013,
      "EVN": 2014,
      "lan": 2015,
      "Tuấn": 2016,
      "mềm": 2017,
      "đỉnh": 2018,
      "lạc": 2019,
      "Cu": 2020,
      "Thống": 2021,
      "BC": 2022,
      "vui": 2023,
      "Forbes": 2024,
      "Re": 2025,
      "Trang": 2026,
      "lắp": 2027,
      "ail": 2028,
      "ặn": 2029,
      "kích": 2030,
      "tion": 2031,
      "niềm": 2032,
      "III": 2033,
      "ỚI": 2034,
      "xấu": 2035,
      "EU": 2036,
      "mặc": 2037,
      "xin": 2038,
      "TR": 2039,
      "trú": 2040,
      "quán": 2041,
      "95": 2042,
      "giản": 2043,
      "Tiến": 2044,
      "thẻ": 2045,
      "Linh": 2046,
      "tics": 2047,
      "đỏ": 2048,
      "EWS": 2049,
      "dàng": 2050,
      "Lào": 2051,
      "chuyến": 2052,
      "BNEWS": 2053,
      "Tech": 2054,
      "Ri": 2055,
      "tặng": 2056,
      "đôi": 2057,
      "65": 2058,
      "Nhân": 2059,
      "chào": 2060,
      "Vinh": 2061,
      "Mặc": 2062,
      "soạn": 2063,
      "liệt": 2064,
      "chạy": 2065,
      "Đề": 2066,
      "Vietnam": 2067,
      "CC": 2068,
      "Hàng": 2069,
      "ùy": 2070,
      "Chi": 2071,
      "Viện": 2072,
      "mảng": 2073,
      "sóc": 2074,
      "lệch": 2075,
      "thao": 2076,
      "Định": 2077,
      "47": 2078,
      "ity": 2079,
      "sạch": 2080,
      "thừa": 2081,
      "pin": 2082,
      "dệt": 2083,
      "600": 2084,
      "chip": 2085,
      "Môi": 2086,
      "thọ": 2087,
      "La": 2088,
      "tờ": 2089,
      "88": 2090,
      "đàm": 2091,
      "Bất": 2092,
      "04": 2093,
      "bang": 2094,
      "thí": 2095,
      "800": 2096,
      "khung": 2097,
      "chân": 2098,
      "Du": 2099,
      "Hùng": 2100,
      "thiệt": 2101,
      "suốt": 2102,
      "TIN": 2103,
      "môn": 2104,
      "Giấy": 2105,
      "èo": 2106,
      "tạp": 2107,
      "den": 2108,
      "dia": 2109,
      "32": 2110,
      "os": 2111,
      "car": 2112,
      "hy": 2113,
      "lệnh": 2114,
      "Con": 2115,
      "đoán": 2116,
      "đàn": 2117,
      "etro": 2118,
      "Mai": 2119,
      "85": 2120,
      "thật": 2121,
      "Kho": 2122,
      "bầu": 2123,
      "Hóa": 2124,
      "Li": 2125,
      "MỚI": 2126,
      "sổ": 2127,
      "46": 2128,
      "vé": 2129,
      "gis": 2130,
      "phó": 2131,
      "lái": 2132,
      "hiếm": 2133,
      "ắk": 2134,
      "itco": 2135,
      "MB": 2136,
      "700": 2137,
      "AM": 2138,
      "mạch": 2139,
      "gỗ": 2140,
      "PH": 2141,
      "mạo": 2142,
      "niệm": 2143,
      "hầu": 2144,
      "xung": 2145,
      "art": 2146,
      "trúng": 2147,
      "nghi": 2148,
      "bon": 2149,
      "ườn": 2150,
      "Loan": 2151,
      "nặng": 2152,
      "Lai": 2153,
      "ngư": 2154,
      "Air": 2155,
      "đòi": 2156,
      "thăm": 2157,
      "CTCP": 2158,
      "The": 2159,
      "Biên": 2160,
      "Phong": 2161,
      "coi": 2162,
      "gistics": 2163,
      "Yo": 2164,
      "ngờ": 2165,
      "ngược": 2166,
      "ọa": 2167,
      "Tiền": 2168,
      "NĐ": 2169,
      "ner": 2170,
      "2026": 2171,
      "ươi": 2172,
      "Tư": 2173,
      "Đo": 2174,
      "phức": 2175,
      "ast": 2176,
      "Ma": 2177,
      "VTV": 2178,
      "Nai": 2179,
      "Quý": 2180,
      "ber": 2181,
      "ven": 2182,
      "XH": 2183,
      "44": 2184,
      "nhãn": 2185,
      "Phan": 2186,
      "iếp": 2187,
      "làng": 2188,
      "rừng": 2189,
      "2018": 2190,
      "thẳng": 2191,
      "Đó": 2192,
      "truy": 2193,
      "lãm": 2194,
      "esia": 2195,
      "chữa": 2196,
      "lớp": 2197,
      "ves": 2198,
      "chục": 2199,
      "sia": 2200,
      "Indon": 2201,
      "43": 2202,
      "đán": 2203,
      "ve": 2204,
      "Indonesia": 2205,
      "mưa": 2206,
      "đổ": 2207,
      "Thường": 2208,
      "tươi": 2209,
      "chồng": 2210,
      "Thuế": 2211,
      "TPO": 2212,
      "Họ": 2213,
      "Me": 2214,
      "Đáng": 2215,
      "HO": 2216,
      "quí": 2217,
      "ngàn": 2218,
      "ort": 2219,
      "ỳnh": 2220,
      "pu": 2221,
      "nhánh": 2222,
      "Là": 2223,
      "thắng": 2224,
      "ngăn": 2225,
      "góc": 2226,
      "ươn": 2227,
      "Shark": 2228,
      "SI": 2229,
      "gon": 2230,
      "Mức": 2231,
      "sạn": 2232,
      "mái": 2233,
      "42": 2234,
      "phim": 2235,
      "ãy": 2236,
      "thuần": 2237,
      "Tỷ": 2238,
      "77": 2239,
      "86": 2240,
      "khẩn": 2241,
      "ak": 2242,
      "Ag": 2243,
      "59": 2244,
      "Di": 2245,
      "Giải": 2246,
      "Chiến": 2247,
      "phận": 2248,
      "49": 2249,
      "Thủy": 2250,
      "ran": 2251,
      "đáo": 2252,
      "ngang": 2253,
      "Fa": 2254,
      "chênh": 2255,
      "%),": 2256,
      "Cap": 2257,
      "nhớ": 2258,
      "Và": 2259,
      "chắn": 2260,
      "dao": 2261,
      "hải": 2262,
      "mỹ": 2263,
      "Po": 2264,
      "đọc": 2265,
      "MW": 2266,
      "Tỵ": 2267,
      "BH": 2268,
      "Cana": 2269,
      "kém": 2270,
      "ff": 2271,
      "carbon": 2272,
      "èm": 2273,
      "phán": 2274,
      "Đình": 2275,
      "ili": 2276,
      "logistics": 2277,
      "Canada": 2278,
      "va": 2279,
      "chỗ": 2280,
      "the": 2281,
      "57": 2282,
      "vườn": 2283,
      "itcoin": 2284,
      "cấm": 2285,
      "Vĩnh": 2286,
      "port": 2287,
      "res": 2288,
      "chép": 2289,
      "ser": 2290,
      "VP": 2291,
      "rai": 2292,
      "ngưỡng": 2293,
      "Đoàn": 2294,
      "boo": 2295,
      "cản": 2296,
      "row": 2297,
      "Hương": 2298,
      "quen": 2299,
      "Khoa": 2300,
      "kính": 2301,
      "thửa": 2302,
      "chiếu": 2303,
      "nạn": 2304,
      "vĩ": 2305,
      "Khách": 2306,
      "vươn": 2307,
      "Quận": 2308,
      "ite": 2309,
      "quà": 2310,
      "đêm": 2311,
      "thù": 2312,
      "than": 2313,
      "Ất": 2314,
      "bánh": 2315,
      "ớt": 2316,
      "Bến": 2317,
      "tỏ": 2318,
      "Pháp": 2319,
      "đợi": 2320,
      "SC": 2321,
      "yên": 2322,
      "phấn": 2323,
      "Mal": 2324,
      "for": 2325,
      "Phúc": 2326,
      "PV": 2327,
      "khắp": 2328,
      "ell": 2329,
      "Đào": 2330,
      "ement": 2331,
      "nổ": 2332,
      "QĐ": 2333,
      "Tiếp": 2334,
      "Al": 2335,
      "ĩa": 2336,
      "Ro": 2337,
      "VA": 2338,
      "trạm": 2339,
      "tùy": 2340,
      "56": 2341,
      "nhi": 2342,
      "App": 2343,
      "KH": 2344,
      "87": 2345,
      "RE": 2346,
      "kèm": 2347,
      "lít": 2348,
      "giác": 2349,
      "tern": 2350,
      "Tok": 2351,
      "Tương": 2352,
      "Rất": 2353,
      "Sản": 2354,
      "DN": 2355,
      "Cao": 2356,
      "đâu": 2357,
      "ital": 2358,
      "cột": 2359,
      "chứ": 2360,
      "Xuất": 2361,
      "khám": 2362,
      "Campu": 2363,
      "Cường": 2364,
      "Se": 2365,
      "Campuchia": 2366,
      "ót": 2367,
      "lẫn": 2368,
      "hưu": 2369,
      "Go": 2370,
      "hủy": 2371,
      "89": 2372,
      "ver": 2373,
      "——": 2374,
      "Jo": 2375,
      ".”": 2376,
      "%)": 2377,
      "41": 2378,
      "Huy": 2379,
      "ico": 2380,
      "trưng": 2381,
      "Lợi": 2382,
      "bóng": 2383,
      "kV": 2384,
      "hối": 2385,
      "ines": 2386,
      "Trưởng": 2387,
      "Chu": 2388,
      "Phước": 2389,
      "Quỹ": 2390,
      "Tạp": 2391,
      "Bi": 2392,
      "sứ": 2393,
      "hiệp": 2394,
      "kịch": 2395,
      "tộc": 2396,
      "Duy": 2397,
      "fe": 2398,
      "Hệ": 2399,
      "vinh": 2400,
      "uyết": 2401,
      "lân": 2402,
      "tội": 2403,
      "mời": 2404,
      "lũy": 2405,
      "Tàu": 2406,
      "dược": 2407,
      "tri": 2408,
      "vidia": 2409,
      "Vũng": 2410,
      "Vietcombank": 2411,
      "phút": 2412,
      "Trọng": 2413,
      "sụt": 2414,
      "Vụ": 2415,
      "éo": 2416,
      "Nghĩa": 2417,
      "Nvidia": 2418,
      "Hạ": 2419,
      "cự": 2420,
      "76": 2421,
      "cháy": 2422,
      "Vân": 2423,
      "Mặt": 2424,
      "online": 2425,
      "PG": 2426,
      "Sun": 2427,
      "ãnh": 2428,
      "Tín": 2429,
      "hài": 2430,
      "Trị": 2431,
      "Hơn": 2432,
      "dio": 2433,
      "sầu": 2434,
      "Agri": 2435,
      "hơi": 2436,
      "tỏa": 2437,
      "VinF": 2438,
      "Bởi": 2439,
      "Goo": 2440,
      "son": 2441,
      "dứt": 2442,
      "mỏ": 2443,
      "Capital": 2444,
      "Vào": 2445,
      "khuôn": 2446,
      "El": 2447,
      "ard": 2448,
      "gle": 2449,
      "ộn": 2450,
      "chữ": 2451,
      "vợ": 2452,
      "Tik": 2453,
      "Thơ": 2454,
      "AS": 2455,
      "Nghiên": 2456,
      "đua": 2457,
      "St": 2458,
      "thô": 2459,
      "hụt": 2460,
      "se": 2461,
      "can": 2462,
      "bức": 2463,
      "ậc": 2464,
      "đốt": 2465,
      "Cộng": 2466,
      "nghèo": 2467,
      "Mas": 2468,
      "MI": 2469,
      "si": 2470,
      "Bo": 2471,
      "150": 2472,
      "Diễn": 2473,
      "Nhóm": 2474,
      "Mus": 2475,
      "ru": 2476,
      "Đường": 2477,
      "52": 2478,
      "BID": 2479,
      "ton": 2480,
      "Temu": 2481,
      "98": 2482,
      "Bitcoin": 2483,
      "rác": 2484,
      "2015": 2485,
      "món": 2486,
      "bốn": 2487,
      "thùng": 2488,
      "xo": 2489,
      "trai": 2490,
      "Mar": 2491,
      "lành": 2492,
      "ASE": 2493,
      "băng": 2494,
      "ngủ": 2495,
      "bậc": 2496,
      "VinFast": 2497,
      "City": 2498,
      "Cảng": 2499,
      "tụ": 2500,
      "ém": 2501,
      "Lãnh": 2502,
      "bãi": 2503,
      "Sáng": 2504,
      "ork": 2505,
      "khơi": 2506,
      "tral": 2507,
      "IV": 2508,
      "thận": 2509,
      "58": 2510,
      "Uk": 2511,
      "EC": 2512,
      "Sho": 2513,
      "Ukrai": 2514,
      "Địa": 2515,
      "Ukraine": 2516,
      "cánh": 2517,
      "tream": 2518,
      "ASEAN": 2519,
      "Tốt": 2520,
      "san": 2521,
      "gy": 2522,
      "nhạc": 2523,
      "Google": 2524,
      "tấm": 2525,
      "Tin": 2526,
      "nhiễ": 2527,
      "lắng": 2528,
      "rào": 2529,
      "bù": 2530,
      "po": 2531,
      "conom": 2532,
      "Mi": 2533,
      "ews": 2534,
      "Mục": 2535,
      "núi": 2536,
      "2017": 2537,
      "ting": 2538,
      "man": 2539,
      "thú": 2540,
      "xứ": 2541,
      "Musk": 2542,
      "hứng": 2543,
      "chặn": 2544,
      "Toàn": 2545,
      "khủng": 2546,
      "66": 2547,
      "ine": 2548,
      "Lý": 2549,
      "tt": 2550,
      "VF": 2551,
      "thoát": 2552,
      "ry": 2553,
      "Đắk": 2554,
      "2050": 2555,
      "VND": 2556,
      "51": 2557,
      "làn": 2558,
      "trục": 2559,
      "120": 2560,
      "chứa": 2561,
      "chăn": 2562,
      "DO": 2563,
      "gián": 2564,
      "lọc": 2565,
      "news": 2566,
      "Bài": 2567,
      "Lễ": 2568,
      "Mỗi": 2569,
      "Trà": 2570,
      "Net": 2571,
      "hu": 2572,
      "thự": 2573,
      "sa": 2574,
      "khoáng": 2575,
      "54": 2576,
      "ND": 2577,
      "cốt": 2578,
      "rơi": 2579,
      "tôm": 2580,
      "Da": 2581,
      "tiễn": 2582,
      "Hứa": 2583,
      "rau": 2584,
      "ding": 2585,
      "92": 2586,
      "Hợp": 2587,
      "Mex": 2588,
      "Dầu": 2589,
      "ly": 2590,
      "dừa": 2591,
      "TA": 2592,
      "Tòa": 2593,
      "Mexico": 2594,
      "900": 2595,
      "Thắng": 2596,
      "hẹp": 2597,
      "eep": 2598,
      "Đỗ": 2599,
      "nét": 2600,
      "Tim": 2601,
      "tôn": 2602,
      "Nhờ": 2603,
      "lạnh": 2604,
      "hào": 2605,
      "thịt": 2606,
      "tách": 2607,
      "căng": 2608,
      "bi": 2609,
      "sen": 2610,
      "thổ": 2611,
      "lồ": 2612,
      "No": 2613,
      "Em": 2614,
      "củng": 2615,
      "bal": 2616,
      "khổng": 2617,
      "der": 2618,
      "Ngành": 2619,
      "lang": 2620,
      "lõi": 2621,
      "sôi": 2622,
      "nhựa": 2623,
      "%).": 2624,
      "nghe": 2625,
      "kiêm": 2626,
      "Bùi": 2627,
      "72": 2628,
      "gen": 2629,
      "lá": 2630,
      "èn": 2631,
      "lâm": 2632,
      "one": 2633,
      "Kém": 2634,
      "lẽ": 2635,
      "★★★★": 2636,
      "★★★★★": 2637,
      "gọn": 2638,
      "Tâm": 2639,
      "pa": 2640,
      "Bnews": 2641,
      "Ex": 2642,
      "phúc": 2643,
      "Song": 2644,
      "79": 2645,
      ",”": 2646,
      "SM": 2647,
      "Tăng": 2648,
      "Malay": 2649,
      "Malaysia": 2650,
      "lụ": 2651,
      "2014": 2652,
      "cụm": 2653,
      "lối": 2654,
      "video": 2655,
      "PN": 2656,
      "vestream": 2657,
      "Tỉnh": 2658,
      "me": 2659,
      "Chia": 2660,
      "Agribank": 2661,
      "cha": 2662,
      "RO": 2663,
      "ACB": 2664,
      "Fin": 2665,
      "Lương": 2666,
      "Cong": 2667,
      "chấm": 2668,
      "vẻ": 2669,
      "thuong": 2670,
      "đem": 2671,
      "Apple": 2672,
      "Ngay": 2673,
      "Thảo": 2674,
      "Nữ": 2675,
      "sup": 2676,
      "Cầu": 2677,
      "Triển": 2678,
      "Cuối": 2679,
      "bùng": 2680,
      "53": 2681,
      "68": 2682,
      "aigon": 2683,
      "lỗi": 2684,
      "Được": 2685,
      "Nghệ": 2686,
      "Thiên": 2687,
      "Your": 2688,
      "Võ": 2689,
      "tốn": 2690,
      "TN": 2691,
      "63": 2692,
      "vọt": 2693,
      "Qua": 2694,
      "Xanh": 2695,
      "vũ": 2696,
      "chẳng": 2697,
      "đẳng": 2698,
      "Congthuong": 2699,
      "250": 2700,
      "thang": 2701,
      "Năng": 2702,
      "cơn": 2703,
      "Phili": 2704,
      "top": 2705,
      "Su": 2706,
      "mừng": 2707,
      "2016": 2708,
      "tuyệt": 2709,
      "ni": 2710,
      "78": 2711,
      "ge": 2712,
      "yo": 2713,
      "Riêng": 2714,
      "gắng": 2715,
      "quê": 2716,
      "NT": 2717,
      "ps": 2718,
      "go": 2719,
      "ood": 2720,
      "Ví": 2721,
      "BIDV": 2722,
      "livestream": 2723,
      "audio": 2724,
      "CS": 2725,
      "nhiễm": 2726,
      "trội": 2727,
      "Tháng": 2728,
      "Ving": 2729,
      "not": 2730,
      "cựu": 2731,
      "GI": 2732,
      "trắng": 2733,
      "Nha": 2734,
      "support": 2735,
      "sữa": 2736,
      "khấu": 2737,
      "bứt": 2738,
      "màn": 2739,
      "dắt": 2740,
      "Vingroup": 2741,
      "rowser": 2742,
      "browser": 2743,
      "does": 2744,
      "Philipp": 2745,
      "element": 2746,
      "BHXH": 2747,
      "sta": 2748,
      "Le": 2749,
      "đắt": 2750,
      "Viettel": 2751,
      "ris": 2752,
      "PNJ": 2753,
      "ngữ": 2754,
      "hương": 2755,
      "hứa": 2756,
      "conomy": 2757,
      "Pro": 2758,
      "Tiên": 2759,
      "gái": 2760,
      "heo": 2761,
      "đen": 2762,
      "Intern": 2763,
      "móc": 2764,
      "sáu": 2765,
      "bá": 2766,
      "are": 2767,
      "ft": 2768,
      "ld": 2769,
      "Deep": 2770,
      "pha": 2771,
      "lỏng": 2772,
      "SH": 2773,
      "Cen": 2774,
      "Dịch": 2775,
      "chạm": 2776,
      "Cà": 2777,
      "Hữu": 2778,
      "per": 2779,
      "lãng": 2780,
      "uro": 2781,
      "xưởng": 2782,
      "trích": 2783,
      "site": 2784,
      "ụp": 2785,
      "Man": 2786,
      "xi": 2787,
      "5G": 2788,
      "UY": 2789,
      "bia": 2790,
      "Phân": 2791,
      "67": 2792,
      "Philippines": 2793,
      "Bằng": 2794,
      "ngập": 2795,
      "nút": 2796,
      "Techcombank": 2797,
      "trắc": 2798,
      "Nhìn": 2799,
      "Top": 2800,
      "đu": 2801,
      "Bra": 2802,
      "bớt": 2803,
      "ùm": 2804,
      "Hoài": 2805,
      "TikTok": 2806,
      "ci": 2807,
      "mãi": 2808,
      "Sam": 2809,
      "Thiết": 2810,
      "ĐS": 2811,
      "Đơn": 2812,
      "AP": 2813,
      "đắc": 2814,
      "túi": 2815,
      "Mark": 2816,
      "thuyết": 2817,
      "eek": 2818,
      "Mạnh": 2819,
      "ance": 2820,
      "viễn": 2821,
      "giày": 2822,
      "chai": 2823,
      "ơm": 2824,
      "nguyện": 2825,
      "khâu": 2826,
      "91": 2827,
      "Trương": 2828,
      "Khối": 2829,
      "kêu": 2830,
      "hồng": 2831,
      "trần": 2832,
      "Thư": 2833,
      "buôn": 2834,
      "ters": 2835,
      "Ra": 2836,
      "Glo": 2837,
      "Phần": 2838,
      "za": 2839,
      "Phi": 2840,
      "Vương": 2841,
      "TMĐT": 2842,
      "Tất": 2843,
      "HOSE": 2844,
      "Gen": 2845,
      "nhịp": 2846,
      "giành": 2847,
      "Com": 2848,
      "--": 2849,
      "rời": 2850,
      "Quỳnh": 2851,
      "Braz": 2852,
      "Op": 2853,
      "Điểm": 2854,
      "đảng": 2855,
      "Ar": 2856,
      "cầm": 2857,
      "Mời": 2858,
      "PC": 2859,
      "Shop": 2860,
      "Thay": 2861,
      "Tes": 2862,
      "mưu": 2863,
      "83": 2864,
      "Brazil": 2865,
      "HN": 2866,
      "rãi": 2867,
      "97": 2868,
      "82": 2869,
      "bón": 2870,
      "hằng": 2871,
      "Lộc": 2872,
      "Chuyên": 2873,
      "đoạt": 2874,
      "Bu": 2875,
      "website": 2876,
      "Mới": 2877,
      "mệnh": 2878,
      "Covid": 2879,
      "Đăng": 2880,
      "maz": 2881,
      "ngồi": 2882,
      "HD": 2883,
      "IM": 2884,
      "Động": 2885,
      "bác": 2886,
      "TO": 2887,
      "book": 2888,
      "Global": 2889,
      "62": 2890,
      "Quân": 2891,
      "AC": 2892,
      "sto": 2893,
      "tơ": 2894,
      "era": 2895,
      "Seek": 2896,
      "đáy": 2897,
      "ũi": 2898,
      "BĐS": 2899,
      "Vị": 2900,
      "Be": 2901,
      "DeepSeek": 2902,
      "tiểu": 2903,
      "est": 2904,
      "bếp": 2905,
      "xuân": 2906,
      "Hoàn": 2907,
      "SA": 2908,
      "ốm": 2909,
      "ngôn": 2910,
      "Tesla": 2911,
      "Khởi": 2912,
      "81": 2913,
      "CK": 2914,
      "trà": 2915,
      "Thọ": 2916,
      "thâm": 2917,
      "cậy": 2918,
      "hoãn": 2919,
      "mắn": 2920,
      "ki": 2921,
      "ịa": 2922,
      "VTVGo": 2923,
      "Dân": 2924,
      "kề": 2925,
      "mùng": 2926,
      "MS": 2927,
      "CA": 2928,
      "Cai": 2929,
      "Lao": 2930,
      "ica": 2931,
      "Vận": 2932,
      "Cách": 2933,
      "dạy": 2934,
      "tech": 2935,
      "khô": 2936,
      "mì": 2937,
      "Tan": 2938,
      "đám": 2939,
      "Thịnh": 2940,
      "gam": 2941,
      "lụa": 2942,
      "64": 2943,
      "Mã": 2944,
      "Rịa": 2945,
      "mart": 2946,
      "Úc": 2947,
      "trận": 2948,
      "Huế": 2949,
      "kW": 2950,
      "hoảng": 2951,
      "Hiếu": 2952,
      "omes": 2953,
      "hầm": 2954,
      "Thêm": 2955,
      "Face": 2956,
      "kiên": 2957,
      "xong": 2958,
      "berg": 2959,
      "Thần": 2960,
      "tim": 2961,
      "Ngô": 2962,
      "mát": 2963,
      "73": 2964,
      "SGGP": 2965,
      ",...": 2966,
      "PP": 2967,
      "Vinhomes": 2968,
      "canh": 2969,
      "xóa": 2970,
      "ớp": 2971,
      "Cho": 2972,
      "Pho": 2973,
      "nhiêu": 2974,
      "dồi": 2975,
      "bí": 2976,
      "93": 2977,
      "96": 2978,
      "TTg": 2979,
      "cú": 2980,
      "trại": 2981,
      "sốt": 2982,
      "sho": 2983,
      "lửa": 2984,
      "Vie": 2985,
      "Aus": 2986,
      "Lãi": 2987,
      "dốc": 2988,
      "BO": 2989,
      "ll": 2990,
      "đe": 2991,
      "amil": 2992,
      "VTC": 2993,
      "thoái": 2994,
      "Dữ": 2995,
      "Chẳng": 2996,
      "tổn": 2997,
      "8428": 2998,
      ":(": 2999,
      "Nhơn": 3000,
      "uters": 3001,
      "3829": 3002,
      "Reuters": 3003,
      "Quan": 3004,
      "Nhu": 3005,
      "Giáo": 3006,
      "Blo": 3007,
      "ESG": 3008,
      "Chị": 3009,
      "ile": 3010,
      "Times": 3011,
      "icro": 3012,
      "bó": 3013,
      "lines": 3014,
      "mạc": 3015,
      "Open": 3016,
      "lường": 3017,
      "luyện": 3018,
      "metro": 3019,
      "Res": 3020,
      "eta": 3021,
      "ngõ": 3022,
      "2013": 3023,
      "thoáng": 3024,
      "Gol": 3025,
      "COP": 3026,
      "Park": 3027,
      "Airlines": 3028,
      "tọa": 3029,
      "tràn": 3030,
      "94": 3031,
      "nắng": 3032,
      "Cuộc": 3033,
      "leo": 3034,
      "mê": 3035,
      "sk": 3036,
      "pe": 3037,
      "ina": 3038,
      "bot": 3039,
      "bến": 3040,
      "tor": 3041,
      "of": 3042,
      "orld": 3043,
      "LNG": 3044,
      "sợi": 3045,
      "LC": 3046,
      "chảy": 3047,
      "lưỡng": 3048,
      "cát": 3049,
      "Phụ": 3050,
      "đuổi": 3051,
      "Cả": 3052,
      "Facebook": 3053,
      "VCC": 3054,
      "xỉ": 3055,
      "dương": 3056,
      "Đa": 3057,
      "Elon": 3058,
      "ano": 3059,
      "LĐ": 3060,
      "viet": 3061,
      "Trịnh": 3062,
      "bờ": 3063,
      "Ngược": 3064,
      "mm": 3065,
      "Hy": 3066,
      "lạ": 3067,
      "294": 3068,
      "Thượng": 3069,
      "Tô": 3070,
      "Lưu": 3071,
      "Chiều": 3072,
      "quần": 3073,
      "Na": 3074,
      "mắm": 3075,
      "ct": 3076,
      "thôi": 3077,
      "chụp": 3078,
      "nới": 3079,
      "Tình": 3080,
      "110": 3081,
      "binh": 3082,
      "giáp": 3083,
      "khoá": 3084,
      "rao": 3085,
      "thua": 3086,
      "úy": 3087,
      "61": 3088,
      "Xem": 3089,
      "đắp": 3090,
      "71": 3091,
      "Gần": 3092,
      "TB": 3093,
      "74": 3094,
      "khiển": 3095,
      "Vina": 3096,
      "mơ": 3097,
      "tán": 3098,
      "JI": 3099,
      "bại": 3100,
      "cọc": 3101,
      "Austral": 3102,
      "hoang": 3103,
      "rab": 3104,
      "Phone": 3105,
      "gốm": 3106,
      "kWh": 3107,
      "Tham": 3108,
      "lay": 3109,
      "Tháp": 3110,
      "Ngãi": 3111,
      "Vượng": 3112,
      "ẽn": 3113,
      "nghẽn": 3114,
      "Hậu": 3115,
      "khát": 3116,
      "ke": 3117,
      "Samsung": 3118,
      "điển": 3119,
      "ửu": 3120,
      "PM": 3121,
      "dào": 3122,
      "Thụ": 3123,
      "Pow": 3124,
      "Ser": 3125,
      "dọa": 3126,
      "chối": 3127,
      "York": 3128,
      "ED": 3129,
      "TTTT": 3130,
      "bì": 3131,
      "ini": 3132,
      "World": 3133,
      "Tuyên": 3134,
      "tựu": 3135,
      "De": 3136,
      "Amaz": 3137,
      "Br": 3138,
      "Đặng": 3139,
      "tures": 3140,
      "Làm": 3141,
      "Danh": 3142,
      "sh": 3143,
      "kiểu": 3144,
      "PO": 3145,
      "Micro": 3146,
      "uyển": 3147,
      "Cảnh": 3148,
      "Hon": 3149,
      "Bước": 3150,
      "2027": 3151,
      "Nghi": 3152,
      "ate": 3153,
      "Sy": 3154,
      "ces": 3155,
      "mer": 3156,
      "RS": 3157,
      "lấp": 3158,
      "phỏng": 3159,
      "Pa": 3160,
      "all": 3161,
      "đèn": 3162,
      "mây": 3163,
      "Amazon": 3164,
      "lding": 3165,
      "huống": 3166,
      "Giai": 3167,
      "neo": 3168,
      "jet": 3169,
      "ko": 3170,
      "iPhone": 3171,
      "đỡ": 3172,
      "nhôm": 3173,
      "Vậy": 3174,
      "thuyền": 3175,
      "Is": 3176,
      "kín": 3177,
      "Si": 3178,
      "sáp": 3179,
      "ani": 3180,
      "Australia": 3181,
      "trấn": 3182,
      "cước": 3183,
      "HNX": 3184,
      "Ngoại": 3185,
      "Bệnh": 3186,
      "ss": 3187,
      "69": 3188,
      "gánh": 3189,
      "TVT": 3190,
      "AB": 3191,
      "ill": 3192,
      "GTVT": 3193,
      "val": 3194,
      "Har": 3195,
      "vải": 3196,
      "Hạnh": 3197,
      "giảng": 3198,
      "TMCP": 3199,
      "sợ": 3200,
      "Đinh": 3201,
      "ngừa": 3202,
      "Chat": 3203,
      "hạnh": 3204,
      "hãy": 3205,
      "Chánh": 3206,
      "na": 3207,
      "đậu": 3208,
      "Đô": 3209,
      "Phường": 3210,
      "sánh": 3211,
      "gom": 3212,
      "op": 3213,
      "Tra": 3214,
      "Hành": 3215,
      "ala": 3216,
      "Vietjet": 3217,
      "Sinh": 3218,
      "Petro": 3219,
      "Tp": 3220,
      "Căn": 3221,
      "Chuyển": 3222,
      "Thụy": 3223,
      "Ener": 3224,
      "Tiêu": 3225,
      "Ven": 3226,
      "hè": 3227,
      "Vui": 3228,
      "Nhất": 3229,
      "9999": 3230,
      "Lúc": 3231,
      "nhắn": 3232,
      "OpenAI": 3233,
      "bào": 3234,
      "VPBank": 3235,
      "Plu": 3236,
      "bám": 3237,
      "tường": 3238,
      "Vietin": 3239,
      "mo": 3240,
      "mực": 3241,
      "Cửu": 3242,
      "che": 3243,
      "2010": 3244,
      "LP": 3245,
      "Saigon": 3246,
      "gà": 3247,
      "mai": 3248,
      "Bảng": 3249,
      "tả": 3250,
      "tiệm": 3251,
      "Kiên": 3252,
      "tết": 3253,
      "2012": 3254,
      "SSI": 3255,
      "Trí": 3256,
      "sạc": 3257,
      "tal": 3258,
      "220": 3259,
      "thắt": 3260,
      "mấy": 3261,
      "(*": 3262,
      "OCOP": 3263,
      "GE": 3264,
      "Energy": 3265,
      "ngon": 3266,
      "rid": 3267,
      "khan": 3268,
      "Giới": 3269,
      "huấn": 3270,
      "kháng": 3271,
      "soft": 3272,
      "chút": 3273,
      "bé": 3274,
      "DOJI": 3275,
      ",…": 3276,
      "thói": 3277,
      "vỏ": 3278,
      "Phiên": 3279,
      "Xã": 3280,
      "Đạt": 3281,
      "ero": 3282,
      "Ke": 3283,
      "vietnam": 3284,
      "cứng": 3285,
      "Internet": 3286,
      "Microsoft": 3287,
      "SGGPO": 3288,
      "350": 3289,
      "túc": 3290,
      "Huỳnh": 3291,
      "Honda": 3292,
      "Thậm": 3293,
      "Cát": 3294,
      "Quyền": 3295,
      "giãn": 3296,
      "Vinamil": 3297,
      "ráp": 3298,
      "Vinamilk": 3299,
      "ment": 3300,
      "Holding": 3301,
      "Dư": 3302,
      "be": 3303,
      "thiệp": 3304,
      "long": 3305,
      "măng": 3306,
      "133": 3307,
      "xoay": 3308,
      "ji": 3309,
      "chúc": 3310,
      "giỏi": 3311,
      "lue": 3312,
      "ÔNG": 3313,
      "trật": 3314,
      "Lắk": 3315,
      "Câu": 3316,
      "Bang": 3317,
      "Kiểm": 3318,
      "My": 3319,
      "ear": 3320,
      "thước": 3321,
      "hộp": 3322,
      "Giờ": 3323,
      "Tùng": 3324,
      "thượng": 3325,
      "bây": 3326,
      "————": 3327,
      "Hình": 3328,
      "khớp": 3329,
      "Ta": 3330,
      "VN30": 3331,
      "chain": 3332,
      "triệt": 3333,
      "Hằng": 3334,
      "MC": 3335,
      "email": 3336,
      "chinh": 3337,
      "Tú": 3338,
      "Đội": 3339,
      "điệp": 3340,
      "GPT": 3341,
      "Nhiệ": 3342,
      "IC": 3343,
      "gan": 3344,
      "dọc": 3345,
      "FLC": 3346,
      "AE": 3347,
      "khiếu": 3348,
      "Khoản": 3349,
      "(*)": 3350,
      "lận": 3351,
      "Khai": 3352,
      "tằm": 3353,
      "khán": 3354,
      "Ad": 3355,
      "Cái": 3356,
      "ckchain": 3357,
      "Tank": 3358,
      "VCCI": 3359,
      "PA": 3360,
      "eting": 3361,
      "huyết": 3362,
      "130": 3363,
      "tròn": 3364,
      "quang": 3365,
      "tung": 3366,
      "chín": 3367,
      "Huyền": 3368,
      "cas": 3369,
      "mẻ": 3370,
      "Master": 3371,
      "Hồi": 3372,
      "kiều": 3373,
      "gợi": 3374,
      "đau": 3375,
      "ốp": 3376,
      "Petrovietnam": 3377,
      "ợn": 3378,
      "vía": 3379,
      "Email": 3380,
      "máu": 3381,
      "đam": 3382,
      "stock": 3383,
      "Ha": 3384,
      "Mau": 3385,
      "Ca": 3386,
      "GT": 3387,
      "dám": 3388,
      "trầm": 3389,
      "BTC": 3390,
      "Cô": 3391,
      "Tam": 3392,
      "Điền": 3393,
      "ượu": 3394,
      "ghế": 3395,
      "DA": 3396,
      "chết": 3397,
      "NQ": 3398,
      "Trưng": 3399,
      "Sacombank": 3400,
      "khôi": 3401,
      "Trạch": 3402,
      "Vạn": 3403,
      "m3": 3404,
      "Tre": 3405,
      "//": 3406,
      "Cạnh": 3407,
      "500kV": 3408,
      "RON": 3409,
      "Car": 3410,
      "Food": 3411,
      "Play": 3412,
      "htt": 3413,
      "Intel": 3414,
      "Pi": 3415,
      "hoạ": 3416,
      "Hoạt": 3417,
      "bè": 3418,
      "://": 3419,
      "MTV": 3420,
      "Vn": 3421,
      "Land": 3422,
      "lợn": 3423,
      "TK": 3424,
      "dậy": 3425,
      "kẹ": 3426,
      "tắt": 3427,
      "ali": 3428,
      "Pay": 3429,
      "xả": 3430,
      "chở": 3431,
      "Vành": 3432,
      "dy": 3433,
      "ts": 3434,
      "use": 3435,
      "GR": 3436,
      "Meta": 3437,
      "trọn": 3438,
      "sor": 3439,
      "BCT": 3440,
      "trùng": 3441,
      "VCB": 3442,
      "mi": 3443,
      "ram": 3444,
      "rót": 3445,
      "Trao": 3446,
      "cent": 3447,
      "ộm": 3448,
      "​​": 3449,
      "HĐND": 3450,
      "(+": 3451,
      "Nói": 3452,
      "Điển": 3453,
      "BS": 3454,
      "non": 3455,
      "PTNT": 3456,
      "đậm": 3457,
      "cài": 3458,
      "túng": 3459,
      "Lạng": 3460,
      "loài": 3461,
      "BTTTT": 3462,
      "hiến": 3463,
      "VGP": 3464,
      "vỡ": 3465,
      "ĐB": 3466,
      "BV": 3467,
      "cuốn": 3468,
      "rượu": 3469,
      "Nhận": 3470,
      "thịnh": 3471,
      "Win": 3472,
      "hé": 3473,
      "xâm": 3474,
      "Joh": 3475,
      "https": 3476,
      "%...": 3477,
      "HoSE": 3478,
      "Tuần": 3479,
      "Tĩnh": 3480,
      "ngầm": 3481,
      "Liêm": 3482,
      "già": 3483,
      "IỆ": 3484,
      "dời": 3485,
      "mét": 3486,
      "Thạnh": 3487,
      "ía": 3488,
      "Chưa": 3489,
      "Vne": 3490,
      "cất": 3491,
      "đền": 3492,
      "ƯƠ": 3493,
      "Biden": 3494,
      "ul": 3495,
      "Kể": 3496,
      "Bam": 3497,
      "mark": 3498,
      "chấn": 3499,
      "Chung": 3500,
      "lò": 3501,
      "ẦN": 3502,
      "ƯƠNG": 3503,
      "lùi": 3504,
      "May": 3505,
      "tial": 3506,
      "ike": 3507,
      "DC": 3508,
      "US": 3509,
      "bảy": 3510,
      "Sóc": 3511,
      "hiển": 3512,
      "VietinBank": 3513,
      "Hong": 3514,
      "land": 3515,
      "chuộng": 3516,
      "Sáu": 3517,
      "trọ": 3518,
      "cáp": 3519,
      "Trắng": 3520,
      "VAT": 3521,
      "Bamboo": 3522,
      "AF": 3523,
      "QH": 3524,
      "Vietstock": 3525,
      "dày": 3526,
      "Ngôi": 3527,
      "Phố": 3528,
      "ei": 3529,
      "tông": 3530,
      "alo": 3531,
      "hề": 3532,
      "Thăng": 3533,
      "Kỹ": 3534,
      "ngọt": 3535,
      "Bạc": 3536,
      "CTD": 3537,
      "Pru": 3538,
      "trào": 3539,
      "DX": 3540,
      "Lực": 3541,
      "xứng": 3542,
      "CG": 3543,
      "sót": 3544,
      "Lũ": 3545,
      "THA": 3546,
      "lọt": 3547,
      "ÊN": 3548,
      "Thi": 3549,
      "dential": 3550,
      "ùn": 3551,
      "Ni": 3552,
      "bò": 3553,
      "link": 3554,
      "ut": 3555,
      "Life": 3556,
      "trống": 3557,
      "trứng": 3558,
      "Prudential": 3559,
      "mes": 3560,
      "pi": 3561,
      "ama": 3562,
      "khía": 3563,
      "khái": 3564,
      "Kiến": 3565,
      "tàng": 3566,
      "vượng": 3567,
      "SHB": 3568,
      "Share": 3569,
      "ớc": 3570,
      "khuyên": 3571,
      "Ventures": 3572,
      "Sen": 3573,
      "nại": 3574,
      "Cửa": 3575,
      "QU": 3576,
      "app": 3577,
      "Cổng": 3578,
      "tân": 3579,
      "VIB": 3580,
      "HS": 3581,
      "way": 3582,
      "TNCN": 3583,
      "Vneconomy": 3584,
      "Bách": 3585,
      "QR": 3586,
      "nhắm": 3587,
      "shi": 3588,
      "Hãng": 3589,
      "Lũy": 3590,
      "Gr": 3591,
      "Gre": 3592,
      "VE": 3593,
      "des": 3594,
      "chủng": 3595,
      "160": 3596,
      "Lượng": 3597,
      "ky": 3598,
      "Fax": 3599,
      "Masan": 3600,
      "chuyền": 3601,
      "TTCK": 3602,
      "dro": 3603,
      "then": 3604,
      "thuỷ": 3605,
      "VID": 3606,
      "nỗi": 3607,
      "treo": 3608,
      "mảnh": 3609,
      "ink": 3610,
      "One": 3611,
      "Finance": 3612,
      "XV": 3613,
      "cp": 3614,
      "ww": 3615,
      "thợ": 3616,
      "MWG": 3617,
      "dong": 3618,
      "trễ": 3619,
      "Eco": 3620,
      "ati": 3621,
      "bê": 3622,
      "rắn": 3623,
      "CĐ": 3624,
      "Kong": 3625,
      "mar": 3626,
      "TL": 3627,
      "bữa": 3628,
      "cổng": 3629,
      "Shopee": 3630,
      "KCN": 3631,
      "tháp": 3632,
      "CPI": 3633,
      "Hay": 3634,
      "hỗn": 3635,
      "vo": 3636,
      "cker": 3637,
      "CI": 3638,
      "Euro": 3639,
      "gộp": 3640,
      "ad": 3641,
      "dường": 3642,
      "Son": 3643,
      "tần": 3644,
      "Powell": 3645,
      "GS": 3646,
      "hàm": 3647,
      "COVID": 3648,
      "rance": 3649,
      "Fu": 3650,
      "Hi": 3651,
      "Hal": 3652,
      "Ki": 3653,
      "DR": 3654,
      "Ja": 3655,
      "Trái": 3656,
      "PGS": 3657,
      "Nhiệt": 3658,
      "lấn": 3659,
      "San": 3660,
      "Ứng": 3661,
      "2011": 3662,
      "bột": 3663,
      "blo": 3664,
      "Holdings": 3665,
      "VH": 3666,
      "euro": 3667,
      "2008": 3668,
      "Dung": 3669,
      "Làng": 3670,
      "thặng": 3671,
      "nolo": 3672,
      "cẩn": 3673,
      "dỡ": 3674,
      "ase": 3675,
      "ley": 3676,
      "TW": 3677,
      "Đánh": 3678,
      "Mọi": 3679,
      "gu": 3680,
      "earch": 3681,
      "Jer": 3682,
      "Tel": 3683,
      "nhạy": 3684,
      "thơm": 3685,
      "lack": 3686,
      "Jen": 3687,
      "180": 3688,
      "bề": 3689,
      "muối": 3690,
      "ON": 3691,
      "busta": 3692,
      "FTA": 3693,
      "HA": 3694,
      "robot": 3695,
      "):": 3696,
      "đức": 3697,
      "Sông": 3698,
      "bách": 3699,
      "dò": 3700,
      "ec": 3701,
      "lở": 3702,
      "rửa": 3703,
      "đúc": 3704,
      "Cor": 3705,
      "ÂN": 3706,
      "Xe": 3707,
      "hùng": 3708,
      "nia": 3709,
      "yen": 3710,
      "thăng": 3711,
      "surance": 3712,
      "săn": 3713,
      "Central": 3714,
      "2000": 3715,
      "Research": 3716,
      "Nước": 3717,
      "gol": 3718,
      "tainer": 3719,
      "Exim": 3720,
      "Hỗ": 3721,
      "Huyện": 3722,
      "Ya": 3723,
      "nhảy": 3724,
      "khe": 3725,
      "TKV": 3726,
      "Uỷ": 3727,
      "gương": 3728,
      "ii": 3729,
      "Blue": 3730,
      "140": 3731,
      "ChatGPT": 3732,
      "HPG": 3733,
      "Par": 3734,
      "Eximbank": 3735,
      "van": 3736,
      "Huang": 3737,
      "Startup": 3738,
      "Bloom": 3739,
      "chè": 3740,
      "chuối": 3741,
      "ture": 3742,
      "Lạt": 3743,
      "Market": 3744,
      "Plug": 3745,
      "John": 3746,
      "mini": 3747,
      "tan": 3748,
      "quầy": 3749,
      "ABank": 3750,
      "Mô": 3751,
      "đỗ": 3752,
      "quên": 3753,
      "đế": 3754,
      "rael": 3755,
      "Israel": 3756,
      "Vốn": 3757,
      "bông": 3758,
      "Lam": 3759,
      "hỏa": 3760,
      "Zalo": 3761,
      "bạ": 3762,
      "VARS": 3763,
      "trơn": 3764,
      "cial": 3765,
      "Dưới": 3766,
      "golf": 3767,
      "Asia": 3768,
      "chéo": 3769,
      "thoải": 3770,
      "Gu": 3771,
      "NLĐ": 3772,
      "Pla": 3773,
      "KO": 3774,
      "dị": 3775,
      "Fi": 3776,
      "fa": 3777,
      "Chuỗi": 3778,
      "----": 3779,
      "vill": 3780,
      "UNG": 3781,
      "bốc": 3782,
      "Ánh": 3783,
      "SO": 3784,
      "Noval": 3785,
      "container": 3786,
      "Tuyến": 3787,
      "Vấn": 3788,
      "cơm": 3789,
      "Khoảng": 3790,
      "thổi": 3791,
      "Novaland": 3792,
      "Lon": 3793,
      "HDBank": 3794,
      "BI": 3795,
      "Diên": 3796,
      "Yến": 3797,
      "Đạo": 3798,
      "CMC": 3799,
      "rabica": 3800,
      "450": 3801,
      "AV": 3802,
      "sốc": 3803,
      "quãng": 3804,
      "Chấp": 3805,
      "Dòng": 3806,
      "ẳn": 3807,
      "hỏng": 3808,
      "cean": 3809,
      "lip": 3810,
      "rệt": 3811,
      "chì": 3812,
      "He": 3813,
      "Ocean": 3814,
      "wer": 3815,
      "ET": 3816,
      "2028": 3817,
      "ashi": 3818,
      "Đồ": 3819,
      "đòn": 3820,
      "trùm": 3821,
      "esaigon": 3822,
      "cassurance": 3823,
      "hát": 3824,
      "sạt": 3825,
      "Thùy": 3826,
      "lậu": 3827,
      "móng": 3828,
      "game": 3829,
      "LG": 3830,
      "kia": 3831,
      "gital": 3832,
      "bụ": 3833,
      "kép": 3834,
      "héc": 3835,
      "SK": 3836,
      "RI": 3837,
      "VR": 3838,
      "ies": 3839,
      "Thúy": 3840,
      "khen": 3841,
      "chừng": 3842,
      "Học": 3843,
      "sơn": 3844,
      "fin": 3845,
      "luồng": 3846,
      "cương": 3847,
      "Dra": 3848,
      "Lĩnh": 3849,
      "hôn": 3850,
      "hẳn": 3851,
      "und": 3852,
      "Tiệm": 3853,
      "ÙNG": 3854,
      "Savill": 3855,
      "TCTD": 3856,
      "kẻ": 3857,
      "cháu": 3858,
      "đôn": 3859,
      "ngã": 3860,
      "Black": 3861,
      "Trăng": 3862,
      "cua": 3863,
      "Khuyến": 3864,
      "Iran": 3865,
      "Tự": 3866,
      "lốp": 3867,
      "nho": 3868,
      "khép": 3869,
      "etail": 3870,
      "Savills": 3871,
      "Hầu": 3872,
      "chat": 3873,
      "Harris": 3874,
      "Zero": 3875,
      "rong": 3876,
      "siết": 3877,
      "Technolo": 3878,
      "4294": 3879,
      "ngặt": 3880,
      "5936": 3881,
      "chặng": 3882,
      "You": 3883,
      "dinh": 3884,
      "gắt": 3885,
      "vắng": 3886,
      "Pri": 3887,
      "box": 3888,
      "OB": 3889,
      "Bloomberg": 3890,
      "En": 3891,
      "GM": 3892,
      "thơ": 3893,
      "phái": 3894,
      "tật": 3895,
      "Bạch": 3896,
      "ấc": 3897,
      "Sỹ": 3898,
      "VIII": 3899,
      "marketing": 3900,
      "Hôm": 3901,
      "Uni": 3902,
      "Tokyo": 3903,
      "Big": 3904,
      "Foun": 3905,
      "Lạc": 3906,
      "đạm": 3907,
      "Gold": 3908,
      "Economy": 3909,
      "ST": 3910,
      "Tác": 3911,
      "Doji": 3912,
      "Grand": 3913,
      "nấu": 3914,
      "nề": 3915,
      "đài": 3916,
      "London": 3917,
      "mp": 3918,
      "Au": 3919,
      "Bán": 3920,
      "Un": 3921,
      "vẹn": 3922,
      "Cali": 3923,
      "TCB": 3924,
      "bin": 3925,
      "chùa": 3926,
      "RA": 3927,
      "Retail": 3928,
      "hư": 3929,
      "2007": 3930,
      "Thể": 3931,
      "Giáp": 3932,
      "ranh": 3933,
      "NGUY": 3934,
      "xì": 3935,
      "Hoá": 3936,
      "Lần": 3937,
      "Ste": 3938,
      "khiêm": 3939,
      "Hãy": 3940,
      "loạn": 3941,
      "Nền": 3942,
      "OCB": 3943,
      "dồn": 3944,
      "xấp": 3945,
      "ghép": 3946,
      "xen": 3947,
      "thầy": 3948,
      "Hiền": 3949,
      "gạch": 3950,
      "Cẩm": 3951,
      "Kông": 3952,
      "dongsan": 3953,
      "cỡ": 3954,
      "ys": 3955,
      "Inves": 3956,
      "uli": 3957,
      "ÀNG": 3958,
      "bancassurance": 3959,
      "Pu": 3960,
      "chững": 3961,
      "2045": 3962,
      "Pet": 3963,
      "pro": 3964,
      "(-": 3965,
      "SN": 3966,
      "tủ": 3967,
      "mặn": 3968,
      "Quá": 3969,
      "hảo": 3970,
      "SB": 3971,
      "cược": 3972,
      "CÔNG": 3973,
      "kong": 3974,
      "Bat": 3975,
      "hái": 3976,
      "h30": 3977,
      "ýt": 3978,
      "ẫy": 3979,
      "MINH": 3980,
      "cống": 3981,
      "UP": 3982,
      "nhũng": 3983,
      "ươm": 3984,
      "LPBank": 3985,
      "thạch": 3986,
      "thấu": 3987,
      "SeABank": 3988,
      "Uyên": 3989,
      "mũi": 3990,
      "Inno": 3991,
      "VnEconomy": 3992,
      "Green": 3993,
      "Robusta": 3994,
      "CBRE": 3995,
      "Kiều": 3996,
      "Mở": 3997,
      "BOT": 3998,
      "Arabica": 3999,
      "IPO": 4000,
      "vời": 4001,
      "fornia": 4002,
      "California": 4003,
      "CL": 4004,
      "forbes": 4005,
      "Yagi": 4006,
      "lũng": 4007,
      "táo": 4008,
      "Đính": 4009,
      "lì": 4010,
      "Star": 4011,
      "ướt": 4012,
      "FC": 4013,
      ".,": 4014,
      "ƯỜ": 4015,
      "Hoà": 4016,
      "Bảy": 4017,
      "Áp": 4018,
      "Tấn": 4019,
      "thuẫn": 4020,
      "ational": 4021,
      "Tho": 4022,
      "Tông": 4023,
      "rối": 4024,
      "trốn": 4025,
      "Wall": 4026,
      "ble": 4027,
      "trộn": 4028,
      "thảm": 4029,
      "tro": 4030,
      "OM": 4031,
      "Xét": 4032,
      "trừng": 4033,
      "cưỡng": 4034,
      "PS": 4035,
      "dâu": 4036,
      "thả": 4037,
      "International": 4038,
      "show": 4039,
      "anoi": 4040,
      "Paris": 4041,
      "cặp": 4042,
      "dáng": 4043,
      "gay": 4044,
      "hao": 4045,
      "mùi": 4046,
      "tions": 4047,
      "châm": 4048,
      "khắt": 4049,
      "Thừa": 4050,
      "Phùng": 4051,
      "mãn": 4052,
      "Lịch": 4053,
      "gram": 4054,
      "vel": 4055,
      "khốc": 4056,
      "Đổi": 4057,
      "đọng": 4058,
      "Gạo": 4059,
      "Mu": 4060,
      "Dragon": 4061,
      "Mãi": 4062,
      "QCG": 4063,
      "tiệc": 4064,
      "tùng": 4065,
      "ans": 4066,
      "tok": 4067,
      "sort": 4068,
      "ward": 4069,
      "2006": 4070,
      "NƠ": 4071,
      "VL": 4072,
      "vu": 4073,
      "Halal": 4074,
      "Tờ": 4075,
      "Am": 4076,
      "Cá": 4077,
      "quặng": 4078,
      "end": 4079,
      "Thiện": 4080,
      "Servi": 4081,
      "ẠM": 4082,
      "ỌC": 4083,
      "MBS": 4084,
      "kok": 4085,
      "NƠXH": 4086,
      "quét": 4087,
      "Ci": 4088,
      "bơm": 4089,
      "Than": 4090,
      "nhuộm": 4091,
      "Vy": 4092,
      "camera": 4093,
      "Bangkok": 4094,
      "Batdongsan": 4095,
      "Đã": 4096,
      "Ber": 4097,
      "Triều": 4098,
      "DIA": 4099,
      "VHM": 4100,
      "Cập": 4101,
      "Sức": 4102,
      "tóc": 4103,
      "thưa": 4104,
      "VNG": 4105,
      "Sto": 4106,
      "bile": 4107,
      "cc": 4108,
      "cồn": 4109,
      "lb": 4110,
      "Lập": 4111,
      "Sky": 4112,
      "mộ": 4113,
      "ún": 4114,
      "Kiếm": 4115,
      "vong": 4116,
      "Nhằm": 4117,
      "Pr": 4118,
      "gũi": 4119,
      "%);": 4120,
      "UOB": 4121,
      "xưa": 4122,
      "khứ": 4123,
      "esel": 4124,
      "arm": 4125,
      "SCL": 4126,
      "MSN": 4127,
      "ways": 4128,
      "Tiểu": 4129,
      "nhậm": 4130,
      "ess": 4131,
      "Jensen": 4132,
      "én": 4133,
      "men": 4134,
      "Hanoi": 4135,
      "sắn": 4136,
      "125": 4137,
      "FED": 4138,
      "eal": 4139,
      "lắm": 4140,
      "Ka": 4141,
      "chìa": 4142,
      "Chất": 4143,
      "Ai": 4144,
      "Tạo": 4145,
      "thở": 4146,
      "Mor": 4147,
      "Thỏa": 4148,
      "Ko": 4149,
      "Mộc": 4150,
      "Sử": 4151,
      "vẽ": 4152,
      "phu": 4153,
      "Nơi": 4154,
      "Bá": 4155,
      "Mer": 4156,
      "cạn": 4157,
      "ưởi": 4158,
      "Sai": 4159,
      "mập": 4160,
      "tiếc": 4161,
      "ĐBSCL": 4162,
      "Ga": 4163,
      "work": 4164,
      "Đan": 4165,
      "Mekong": 4166,
      "bơi": 4167,
      "lầm": 4168,
      "ka": 4169,
      "Phải": 4170,
      "Airways": 4171,
      "Boe": 4172,
      "tụng": 4173,
      "Mình": 4174,
      "RC": 4175,
      "lặp": 4176,
      "rỡ": 4177,
      "hoà": 4178,
      "PHẠM": 4179,
      "Hiệu": 4180,
      "lồng": 4181,
      "wa": 4182,
      "bẩy": 4183,
      "ale": 4184,
      "buýt": 4185,
      "lec": 4186,
      "dàn": 4187,
      "fi": 4188,
      "trượt": 4189,
      "emi": 4190,
      "Brent": 4191,
      "Gri": 4192,
      "lỡ": 4193,
      "vua": 4194,
      "ngton": 4195,
      "khánh": 4196,
      "Thạch": 4197,
      "view": 4198,
      "240": 4199,
      "ETF": 4200,
      "Innova": 4201,
      "ion": 4202,
      "Phía": 4203,
      "xế": 4204,
      "108": 4205,
      "Tối": 4206,
      "Zu": 4207,
      "Invest": 4208,
      "Viên": 4209,
      "trưa": 4210,
      "enn": 4211,
      "UN": 4212,
      "ĐHĐ": 4213,
      "diesel": 4214,
      "TCCT": 4215,
      "brid": 4216,
      "cười": 4217,
      "pháo": 4218,
      "Peter": 4219,
      "Metro": 4220,
      "Khảo": 4221,
      "BY": 4222,
      "fan": 4223,
      "2009": 4224,
      "Vừa": 4225,
      "xy": 4226,
      "Toyo": 4227,
      "Washi": 4228,
      "ẤT": 4229,
      "hoàng": 4230,
      "Washington": 4231,
      "GRDP": 4232,
      "Boeing": 4233,
      "115": 4234,
      "ght": 4235,
      ".﻿": 4236,
      "Máy": 4237,
      "Tới": 4238,
      "cắp": 4239,
      "ics": 4240,
      "Sân": 4241,
      "ƯỜNG": 4242,
      "Hiển": 4243,
      "GC": 4244,
      "rổ": 4245,
      "cons": 4246,
      "ome": 4247,
      "ilicon": 4248,
      "Center": 4249,
      "rực": 4250,
      "khoan": 4251,
      "xướng": 4252,
      "ngắt": 4253,
      "145": 4254,
      "REA": 4255,
      "2005": 4256,
      "ĐHĐCĐ": 4257,
      "LE": 4258,
      "giam": 4259,
      "Technology": 4260,
      "VietTimes": 4261,
      "Toyota": 4262,
      "Xuyên": 4263,
      "ron": 4264,
      "HT": 4265,
      "Tôn": 4266,
      "Ghi": 4267,
      "Hướng": 4268,
      "Wal": 4269,
      "ake": 4270,
      "trân": 4271,
      "Kitco": 4272,
      "Mua": 4273,
      "kẹo": 4274,
      "yl": 4275,
      "Đóng": 4276,
      "cỏ": 4277,
      "PPP": 4278,
      "đồi": 4279,
      "Rạch": 4280,
      "HBC": 4281,
      "khuyết": 4282,
      "bắn": 4283,
      "CNTT": 4284,
      "MA": 4285,
      "Đống": 4286,
      "Phối": 4287,
      "FA": 4288,
      "cãi": 4289,
      "yến": 4290,
      "Đá": 4291,
      "ress": 4292,
      "sion": 4293,
      "sưu": 4294,
      "Giảm": 4295,
      "ool": 4296,
      "tec": 4297,
      "ME": 4298,
      "ht": 4299,
      "vành": 4300,
      "ond": 4301,
      "Huệ": 4302,
      "Zucker": 4303,
      "Smart": 4304,
      "iden": 4305,
      "lề": 4306,
      "EVNN": 4307,
      "Alex": 4308,
      "Zuckerberg": 4309,
      "IT": 4310,
      "9294": 4311,
      "cờ": 4312,
      "đạp": 4313,
      "Tên": 4314,
      "hổ": 4315,
      "ÁC": 4316,
      "CO2": 4317,
      "Proper": 4318,
      "AD": 4319,
      "tù": 4320,
      "Trì": 4321,
      "wi": 4322,
      "550": 4323,
      "Nâng": 4324,
      "hoan": 4325,
      "KD": 4326,
      "Nó": 4327,
      "tóm": 4328,
      "địch": 4329,
      "David": 4330,
      "As": 4331,
      "Lim": 4332,
      "trông": 4333,
      "blockchain": 4334,
      "dép": 4335,
      "Xi": 4336,
      "đừng": 4337,
      "Mike": 4338,
      "102": 4339,
      "hydro": 4340,
      "750": 4341,
      "Biển": 4342,
      "ger": 4343,
      "vang": 4344,
      "chăng": 4345,
      "Viễn": 4346,
      "Comp": 4347,
      "ANG": 4348,
      "Lệ": 4349,
      "Flo": 4350,
      "Miền": 4351,
      "kin": 4352,
      "2035": 4353,
      "Thung": 4354,
      "Oai": 4355,
      "đệ": 4356,
      "NGH": 4357,
      "BT": 4358,
      "tru": 4359,
      "Spa": 4360,
      "ẩu": 4361,
      "ỄN": 4362,
      "muộn": 4363,
      "artner": 4364,
      "Bus": 4365,
      "đấy": 4366,
      "Bái": 4367,
      "Bãi": 4368,
      "Gói": 4369,
      "đắn": 4370,
      "Manuli": 4371,
      "Residen": 4372,
      "Manulife": 4373,
      "Chốt": 4374,
      "HÙNG": 4375,
      "vội": 4376,
      "xổ": 4377,
      "chiết": 4378,
      "CTG": 4379,
      "stan": 4380,
      "bưởi": 4381,
      "VNPT": 4382,
      "ngắm": 4383,
      "ari": 4384,
      "VNe": 4385,
      "Dựa": 4386,
      "VIC": 4387,
      "Property": 4388,
      "Mc": 4389,
      "Mẫu": 4390,
      "ngô": 4391,
      "ngạc": 4392,
      "by": 4393,
      "Biến": 4394,
      "Wa": 4395,
      "tám": 4396,
      "VÀ": 4397,
      "mầm": 4398,
      "ựng": 4399,
      "ượn": 4400,
      "bus": 4401,
      "Nas": 4402,
      "Siêu": 4403,
      "off": 4404,
      "chiêu": 4405,
      "103": 4406,
      "Suối": 4407,
      "Link": 4408,
      "jo": 4409,
      "ĐH": 4410,
      "ise": 4411,
      "Bao": 4412,
      "Han": 4413,
      "WTI": 4414,
      "Xin": 4415,
      "cúng": 4416,
      "gã": 4417,
      "tắm": 4418,
      "page": 4419,
      "CV": 4420,
      "cy": 4421,
      "lộc": 4422,
      "wn": 4423,
      "AEON": 4424,
      "EL": 4425,
      "ES": 4426,
      "Jos": 4427,
      "ũa": 4428,
      "int": 4429,
      "ngoặt": 4430,
      "NDT": 4431,
      ".\"": 4432,
      "Es": 4433,
      "Rồng": 4434,
      "tây": 4435,
      "170": 4436,
      "THACO": 4437,
      "Kon": 4438,
      "đứt": 4439,
      "Hoan": 4440,
      ")...": 4441,
      "Os": 4442,
      "bạo": 4443,
      "chìm": 4444,
      "MO": 4445,
      "105": 4446,
      "She": 4447,
      "đồn": 4448,
      "thờ": 4449,
      "intern": 4450,
      "ECB": 4451,
      "giật": 4452,
      "hạch": 4453,
      "ers": 4454,
      "AND": 4455,
      "ACV": 4456,
      "Ước": 4457,
      "ễu": 4458,
      "TPBank": 4459,
      "cưới": 4460,
      "iness": 4461,
      "Blockchain": 4462,
      "Dệt": 4463,
      "ray": 4464,
      "tĩnh": 4465,
      "thai": 4466,
      "huynh": 4467,
      "Fran": 4468,
      "phẫu": 4469,
      "Thép": 4470,
      "2004": 4471,
      "att": 4472,
      "Media": 4473,
      "230": 4474,
      "Partner": 4475,
      "kí": 4476,
      "Form": 4477,
      "Min": 4478,
      "Cụm": 4479,
      "KI": 4480,
      "LO": 4481,
      "nan": 4482,
      "Mega": 4483,
      "internet": 4484,
      "Trạm": 4485,
      "104": 4486,
      "Ac": 4487,
      "vạn": 4488,
      "ĂNG": 4489,
      "280": 4490,
      "Pan": 4491,
      "Petr": 4492,
      "RT": 4493,
      "Xúc": 4494,
      "eon": 4495,
      "lymp": 4496,
      "Xác": 4497,
      "zo": 4498,
      "óp": 4499,
      "Phủ": 4500,
      "Live": 4501,
      "lla": 4502,
      "dit": 4503,
      "190": 4504,
      "Tốc": 4505,
      "ÀNH": 4506,
      "Coin": 4507,
      "BCG": 4508,
      "FE": 4509,
      "ls": 4510,
      "đựng": 4511,
      "đũa": 4512,
      "giây": 4513,
      "bụi": 4514,
      "đan": 4515,
      "khoăn": 4516,
      "Home": 4517,
      "imex": 4518,
      "sey": 4519,
      "BYD": 4520,
      "NGA": 4521,
      "MSB": 4522,
      "Diện": 4523,
      "Je": 4524,
      "Mart": 4525,
      "khống": 4526,
      "Tri": 4527,
      "Khôi": 4528,
      "VietNam": 4529,
      "ANH": 4530,
      "E5": 4531,
      "Sang": 4532,
      "Giêng": 4533,
      "tiêm": 4534,
      "Exp": 4535,
      "lộn": 4536,
      "IN": 4537,
      "Mis": 4538,
      "ware": 4539,
      "Trải": 4540,
      "Chris": 4541,
      "TPDN": 4542,
      "Kỷ": 4543,
      "Silicon": 4544,
      "đứa": 4545,
      "giấc": 4546,
      "ery": 4547,
      "HoREA": 4548,
      "Data": 4549,
      "đặn": 4550,
      "tive": 4551,
      "Hàm": 4552,
      "135": 4553,
      "hec": 4554,
      "Mobi": 4555,
      "Biểu": 4556,
      "IR": 4557,
      "dấy": 4558,
      "NHTM": 4559,
      "Ji": 4560,
      "Olymp": 4561,
      "pt": 4562,
      "Vật": 4563,
      "Thúc": 4564,
      "TRẦN": 4565,
      "bắc": 4566,
      "dán": 4567,
      "dọn": 4568,
      "lụt": 4569,
      "ẢI": 4570,
      "ney": 4571,
      "hecta": 4572,
      "del": 4573,
      "sào": 4574,
      ")…": 4575,
      "Ly": 4576,
      "điền": 4577,
      "VinaCapital": 4578,
      "NGUYỄN": 4579,
      "cởi": 4580,
      "Khang": 4581,
      "Resort": 4582,
      "Or": 4583,
      "tam": 4584,
      "Đẩy": 4585,
      "giọng": 4586,
      "Alpha": 4587,
      "ASA": 4588,
      "Jerome": 4589,
      "Chênh": 4590,
      "Digital": 4591,
      "VietNamNet": 4592,
      "Per": 4593,
      "Pal": 4594,
      "đập": 4595,
      "trệ": 4596,
      "ence": 4597,
      "dus": 4598,
      "Mobile": 4599,
      "Đi": 4600,
      "gin": 4601,
      "xô": 4602,
      "Tuyết": 4603,
      "VNeID": 4604,
      "Cas": 4605,
      "tụt": 4606,
      "nghiêng": 4607,
      "LÊ": 4608,
      "Pe": 4609,
      "băn": 4610,
      "sút": 4611,
      "nhầm": 4612,
      "toa": 4613,
      "lace": 4614,
      "Vincom": 4615,
      "123": 4616,
      "Homes": 4617,
      "Bích": 4618,
      "EV": 4619,
      "Sàn": 4620,
      "vết": 4621,
      "lass": 4622,
      "AFP": 4623,
      "tour": 4624,
      "bổng": 4625,
      "Nik": 4626,
      "Sâm": 4627,
      "kì": 4628,
      "Trả": 4629,
      "ony": 4630,
      "QH15": 4631,
      "nồng": 4632,
      "CCC": 4633,
      "Can": 4634,
      "rung": 4635,
      "ÌNH": 4636,
      "Thách": 4637,
      "ffee": 4638,
      "Olympic": 4639,
      "buồn": 4640,
      "điệu": 4641,
      "TSE": 4642,
      "Dược": 4643,
      "nát": 4644,
      "túy": 4645,
      "Dong": 4646,
      "Elec": 4647,
      "nở": 4648,
      "Ân": 4649,
      "CNBC": 4650,
      "ruột": 4651,
      "gend": 4652,
      "QL": 4653,
      "bưu": 4654,
      "vell": 4655,
      "Hotel": 4656,
      "dâng": 4657,
      "Phượng": 4658,
      "logo": 4659,
      "arma": 4660,
      "Power": 4661,
      "xách": 4662,
      "ancial": 4663,
      "ino": 4664,
      "Post": 4665,
      "Award": 4666,
      "ngơi": 4667,
      "Loại": 4668,
      "GTGT": 4669,
      "Sol": 4670,
      "gas": 4671,
      "ÀI": 4672,
      "Legend": 4673,
      "Partners": 4674,
      "360": 4675,
      "Bill": 4676,
      "SCB": 4677,
      "bể": 4678,
      "mỏi": 4679,
      "vỉ": 4680,
      "Triệu": 4681,
      "Chang": 4682,
      "room": 4683,
      "ett": 4684,
      "tệp": 4685,
      "ish": 4686,
      "Mùa": 4687,
      "bai": 4688,
      "BA": 4689,
      "đới": 4690,
      "ầng": 4691,
      "khoảnh": 4692,
      "SU": 4693,
      "mờ": 4694,
      "tron": 4695,
      "HSBC": 4696,
      "EM": 4697,
      "dãy": 4698,
      "Chợ": 4699,
      "Grimm": 4700,
      "Mana": 4701,
      "Ưu": 4702,
      "Coffee": 4703,
      "STB": 4704,
      "ngưng": 4705,
      "lun": 4706,
      "VNM": 4707,
      "times": 4708,
      "Cây": 4709,
      "Nên": 4710,
      "sum": 4711,
      "uỷ": 4712,
      "111": 4713,
      "Roy": 4714,
      "zu": 4715,
      "chật": 4716,
      "Services": 4717,
      "Mil": 4718,
      "OTP": 4719,
      "330": 4720,
      "850": 4721,
      "Ben": 4722,
      "Vo": 4723,
      "gement": 4724,
      "pri": 4725,
      "khuẩn": 4726,
      "Jack": 4727,
      "Đấu": 4728,
      "Zeal": 4729,
      "Tower": 4730,
      "Rating": 4731,
      "Zealand": 4732,
      "Gửi": 4733,
      "thium": 4734,
      "ook": 4735,
      "Sĩ": 4736,
      "LA": 4737,
      "cậu": 4738,
      "mòn": 4739,
      "Phù": 4740,
      "Bay": 4741,
      "Wi": 4742,
      "duyên": 4743,
      "sỹ": 4744,
      "ud": 4745,
      "pho": 4746,
      "2029": 4747,
      "IDC": 4748,
      "220kV": 4749,
      "Express": 4750,
      "320": 4751,
      "ngộ": 4752,
      "bỏng": 4753,
      "Network": 4754,
      "sky": 4755,
      "ccine": 4756,
      "bitcoin": 4757,
      "ngu": 4758,
      "nhàng": 4759,
      "curi": 4760,
      "Ins": 4761,
      "THU": 4762,
      "kẹt": 4763,
      "Far": 4764,
      "IỂ": 4765,
      "Ur": 4766,
      "Wang": 4767,
      "won": 4768,
      "House": 4769,
      "VPB": 4770,
      "Her": 4771,
      "Từng": 4772,
      "VC": 4773,
      "khoẻ": 4774,
      "HỮ": 4775,
      "xạ": 4776,
      "nghiệt": 4777,
      "HỮU": 4778,
      "kiệt": 4779,
      "MoMo": 4780,
      "Tầng": 4781,
      "gìn": 4782,
      "rẽ": 4783,
      "đẻ": 4784,
      "…,": 4785,
      "HĐTV": 4786,
      "Fo": 4787,
      "GB": 4788,
      "Gò": 4789,
      "Petrol": 4790,
      "Thom": 4791,
      "ames": 4792,
      "lui": 4793,
      "hybrid": 4794,
      "vaccine": 4795,
      "www": 4796,
      "vuông": 4797,
      "Sailun": 4798,
      "hổng": 4799,
      "Oil": 4800,
      "hồn": 4801,
      "sét": 4802,
      "cher": 4803,
      "hot": 4804,
      "ties": 4805,
      "Thuỷ": 4806,
      "Bè": 4807,
      "KT": 4808,
      "Lộ": 4809,
      "ngụ": 4810,
      "giấu": 4811,
      "650": 4812,
      "Hòn": 4813,
      "NVL": 4814,
      "tá": 4815,
      "Khương": 4816,
      "2003": 4817,
      "Grab": 4818,
      "bs": 4819,
      "TSMC": 4820,
      "BHNT": 4821,
      "NGAY": 4822,
      "Fone": 4823,
      "Mel": 4824,
      "cắm": 4825,
      "ited": 4826,
      "IMF": 4827,
      "MobiFone": 4828,
      "Ali": 4829,
      "dạn": 4830,
      "mạ": 4831,
      "Thật": 4832,
      "ates": 4833,
      "GW": 4834,
      "OP": 4835,
      "ges": 4836,
      "128": 4837,
      "phone": 4838,
      "Giây": 4839,
      "pot": 4840,
      "Financial": 4841,
      "bội": 4842,
      "min": 4843,
      "xóm": 4844,
      "ĐỌC": 4845,
      "Joe": 4846,
      "bẫy": 4847,
      "nung": 4848,
      "io": 4849,
      "ïn": 4850,
      "quát": 4851,
      "107": 4852,
      "Môn": 4853,
      "hiếu": 4854,
      "ỀN": 4855,
      "————————": 4856,
      "Petrolimex": 4857,
      "Jon": 4858,
      "VEC": 4859,
      "Yêu": 4860,
      "lướt": 4861,
      "trôi": 4862,
      "dor": 4863,
      "Marvell": 4864,
      "Mê": 4865,
      "gãy": 4866,
      "nướng": 4867,
      "106": 4868,
      "Auto": 4869,
      "Liêu": 4870,
      "Ne": 4871,
      "Red": 4872,
      "Sẽ": 4873,
      "ẦU": 4874,
      "shop": 4875,
      "Goldman": 4876,
      "260": 4877,
      "merce": 4878,
      "We": 4879,
      "Trình": 4880,
      "ruộng": 4881,
      "Golden": 4882,
      "Tele": 4883,
      "tang": 4884,
      "nhích": 4885,
      "this": 4886,
      "Cung": 4887,
      "Ham": 4888,
      "Khê": 4889,
      "TPP": 4890,
      "stone": 4891,
      "h00": 4892,
      "Plaza": 4893,
      "teccons": 4894,
      "EVNNPT": 4895,
      "DK": 4896,
      "dở": 4897,
      "Thiêm": 4898,
      "Chan": 4899,
      "Khắc": 4900,
      "aper": 4901,
      "daq": 4902,
      "xoài": 4903,
      "oney": 4904,
      "Mon": 4905,
      "NVI": 4906,
      "Real": 4907,
      "SIP": 4908,
      "IA": 4909,
      "Khuê": 4910,
      "B2": 4911,
      "Im": 4912,
      "Ti": 4913,
      "xích": 4914,
      "ẠI": 4915,
      "101": 4916,
      "Logistics": 4917,
      "Space": 4918,
      "Management": 4919,
      "LV": 4920,
      "Val": 4921,
      "ngọn": 4922,
      "Khó": 4923,
      "Coteccons": 4924,
      "THỊ": 4925,
      "210": 4926,
      "CPTPP": 4927,
      "Tìm": 4928,
      "mộc": 4929,
      "smart": 4930,
      "xương": 4931,
      "CoM": 4932,
      "NVIDIA": 4933,
      "Bác": 4934,
      "gai": 4935,
      "ngột": 4936,
      "CLB": 4937,
      "IP": 4938,
      "id": 4939,
      "mượn": 4940,
      "hoài": 4941,
      "lụy": 4942,
      "Diệu": 4943,
      "nạp": 4944,
      "rup": 4945,
      "triết": 4946,
      "Chế": 4947,
      "Indus": 4948,
      "zada": 4949,
      "Nasdaq": 4950,
      "Pin": 4951,
      "ỗng": 4952,
      "112": 4953,
      "Mall": 4954,
      "Nhuận": 4955,
      "Dĩ": 4956,
      "LI": 4957,
      "khéo": 4958,
      "tus": 4959,
      "DS": 4960,
      "DNN": 4961,
      "SGD": 4962,
      "HU": 4963,
      "Io": 4964,
      "gn": 4965,
      "vả": 4966,
      "vịnh": 4967,
      "270": 4968,
      "VEAM": 4969,
      "UPCoM": 4970,
      "Bar": 4971,
      "Tex": 4972,
      "mổ": 4973,
      "vất": 4974,
      "iệng": 4975,
      "380": 4976,
      "Sal": 4977,
      "Yu": 4978,
      "Trách": 4979,
      "thắc": 4980,
      "Chiếc": 4981,
      "Kenh": 4982,
      "Business": 4983,
      "Sup": 4984,
      "thesaigon": 4985,
      "giỏ": 4986,
      "Trụ": 4987,
      "Che": 4988,
      "124": 4989,
      "Syno": 4990,
      "thesaigontimes": 4991,
      "Cấn": 4992,
      "Del": 4993,
      "GD": 4994,
      "Lân": 4995,
      "Sống": 4996,
      "bong": 4997,
      "gic": 4998,
      "Nghề": 4999,
      "HAG": 5000,
      "420": 5001,
      "CỦ": 5002,
      "manh": 5003,
      "Motor": 5004,
      "Kenh14": 5005,
      "Vùng": 5006,
      "lắc": 5007,
      "Chiểu": 5008,
      "psys": 5009,
      "Synopsys": 5010,
      "NA": 5011,
      "SV": 5012,
      "Shi": 5013,
      "toà": 5014,
      "chael": 5015,
      "YouTu": 5016,
      "đệm": 5017,
      "Ed": 5018,
      "FT": 5019,
      "Đồn": 5020,
      "phanh": 5021,
      "TRƯỜNG": 5022,
      "Khoáng": 5023,
      "Kiệt": 5024,
      "bỉ": 5025,
      "000m2": 5026,
      "taxi": 5027,
      "Michael": 5028,
      "Củ": 5029,
      "gỉ": 5030,
      "ning": 5031,
      "Nhi": 5032,
      "lor": 5033,
      "Bàn": 5034,
      "đê": 5035,
      "ary": 5036,
      "VŨ": 5037,
      "oz": 5038,
      "đeo": 5039,
      "atch": 5040,
      "Lazada": 5041,
      "Medi": 5042,
      "Masterise": 5043,
      "CÁC": 5044,
      "Km": 5045,
      "ỰC": 5046,
      "ther": 5047,
      "Pharma": 5048,
      "CỦA": 5049,
      "NCB": 5050,
      "UAE": 5051,
      "bút": 5052,
      "dc": 5053,
      "lưng": 5054,
      "nhàn": 5055,
      "Phớc": 5056,
      "esti": 5057,
      "Sach": 5058,
      "Securi": 5059,
      "DXY": 5060,
      "aw": 5061,
      "rộ": 5062,
      "cành": 5063,
      "ẾN": 5064,
      "Tràng": 5065,
      "1990": 5066,
      "CHƯƠNG": 5067,
      "Shein": 5068,
      "bộc": 5069,
      "ren": 5070,
      "Nhung": 5071,
      "als": 5072,
      "THPT": 5073,
      "Futures": 5074,
      "fintech": 5075,
      "Cup": 5076,
      "Ea": 5077,
      "Viết": 5078,
      "dải": 5079,
      "mâu": 5080,
      "Char": 5081,
      "chatbot": 5082,
      "Tọa": 5083,
      "kẽ": 5084,
      "rộn": 5085,
      "ãm": 5086,
      "Đảo": 5087,
      "Đứng": 5088,
      "ẫm": 5089,
      "Xa": 5090,
      "paper": 5091,
      "đạc": 5092,
      "Insta": 5093,
      "Foods": 5094,
      "Muốn": 5095,
      "ze": 5096,
      "161": 5097,
      "MBB": 5098,
      "Plus": 5099,
      "Ass": 5100,
      "Cấm": 5101,
      "Mạch": 5102,
      "dập": 5103,
      "ham": 5104,
      "lam": 5105,
      "chàng": 5106,
      "Thổ": 5107,
      "Solu": 5108,
      "cúm": 5109,
      "IoT": 5110,
      "kiềm": 5111,
      "trọt": 5112,
      "Des": 5113,
      "Lạm": 5114,
      "mệt": 5115,
      "miệng": 5116,
      "ỡi": 5117,
      "….": 5118,
      "BCTC": 5119,
      "Gala": 5120,
      "NS": 5121,
      "nảy": 5122,
      "thỏi": 5123,
      "Hous": 5124,
      "Cấp": 5125,
      "Kính": 5126,
      "dĩ": 5127,
      "park": 5128,
      "....": 5129,
      "Hyund": 5130,
      "Corp": 5131,
      "Hyundai": 5132,
      "/.": 5133,
      "OS": 5134,
      "tesaigon": 5135,
      "kinhtesaigon": 5136,
      "118": 5137,
      "166": 5138,
      "CTCK": 5139,
      "lithium": 5140,
      "VietstockFinance": 5141,
      "fanpage": 5142,
      "BR": 5143,
      "mon": 5144,
      "amond": 5145,
      "loud": 5146,
      "Series": 5147,
      "ATM": 5148,
      "BIM": 5149,
      "Stre": 5150,
      "dang": 5151,
      "ựu": 5152,
      "Investment": 5153,
      "IB": 5154,
      "aul": 5155,
      "Thoại": 5156,
      "Instagram": 5157,
      "Duyên": 5158,
      "SP": 5159,
      "Sắp": 5160,
      "lặng": 5161,
      "mười": 5162,
      "109": 5163,
      "luân": 5164,
      "dation": 5165,
      "OPEC": 5166,
      "Gem": 5167,
      "War": 5168,
      "ain": 5169,
      "148": 5170,
      "Diamond": 5171,
      "CR": 5172,
      "Gates": 5173,
      "MM": 5174,
      "Nợ": 5175,
      "mò": 5176,
      "Chinh": 5177,
      "Buôn": 5178,
      "Urban": 5179,
      "WB": 5180,
      "cle": 5181,
      "wl": 5182,
      "Nhĩ": 5183,
      "Saudi": 5184,
      "Bị": 5185,
      "Quất": 5186,
      "net": 5187,
      "gence": 5188,
      "Asset": 5189,
      "King": 5190,
      "Rõ": 5191,
      "bận": 5192,
      "bet": 5193,
      "ek": 5194,
      "nhộn": 5195,
      "Tuệ": 5196,
      "ste": 5197,
      "Bánh": 5198,
      "Lô": 5199,
      "Tám": 5200,
      "cau": 5201,
      "kệ": 5202,
      "ngách": 5203,
      "tivi": 5204,
      "tuỳ": 5205,
      "margin": 5206,
      "TAND": 5207,
      "”;": 5208,
      "any": 5209,
      "Huân": 5210,
      "pper": 5211,
      "gov": 5212,
      "Nối": 5213,
      "bọc": 5214,
      "mài": 5215,
      "rạch": 5216,
      "cor": 5217,
      "132": 5218,
      "Stan": 5219,
      "RON95": 5220,
      "8h": 5221,
      "Bổ": 5222,
      "Lăng": 5223,
      "River": 5224,
      "Seo": 5225,
      "cm": 5226,
      "tráng": 5227,
      "Vid": 5228,
      "elex": 5229,
      "Sachs": 5230,
      "CNN": 5231,
      "ỨC": 5232,
      "ngẫu": 5233,
      "Thai": 5234,
      "thoả": 5235,
      "BoJ": 5236,
      "--------": 5237,
      "NIM": 5238,
      "Tinh": 5239,
      "XIII": 5240,
      "léo": 5241,
      "sập": 5242,
      "Vịnh": 5243,
      "VCBS": 5244,
      "%-": 5245,
      "Bốn": 5246,
      "Mang": 5247,
      "dr": 5248,
      "Tha": 5249,
      "lott": 5250,
      "las": 5251,
      "eld": 5252,
      "Elite": 5253,
      "BVBank": 5254,
      "Foundation": 5255,
      "han": 5256,
      "pol": 5257,
      "PHÁ": 5258,
      "110kV": 5259,
      "RON92": 5260,
      "ship": 5261,
      "kem": 5262,
      "114": 5263,
      "đếm": 5264,
      "Solutions": 5265,
      "Sum": 5266,
      "clip": 5267,
      "láng": 5268,
      "Khí": 5269,
      "Hoặc": 5270,
      "High": 5271,
      "ĐỘ": 5272,
      "aki": 5273,
      "Lea": 5274,
      "Met": 5275,
      "bom": 5276,
      "fic": 5277,
      "glace": 5278,
      "mù": 5279,
      "tựa": 5280,
      "Viglace": 5281,
      "Vietlott": 5282,
      "isco": 5283,
      "Viglacera": 5284,
      "Festi": 5285,
      "Tạ": 5286,
      "dai": 5287,
      "ice": 5288,
      "ngọc": 5289,
      "Thìn": 5290,
      "ligence": 5291,
      "Marina": 5292,
      "DKRA": 5293,
      "Bri": 5294,
      "mỏng": 5295,
      "baht": 5296,
      "Texas": 5297,
      "Dẫn": 5298,
      "IU": 5299,
      "Up": 5300,
      "Web": 5301,
      "lây": 5302,
      "ngừ": 5303,
      "giế": 5304,
      "giết": 5305,
      "Cham": 5306,
      "TTO": 5307,
      "SpaceX": 5308,
      "mỡ": 5309,
      "sand": 5310,
      "dotel": 5311,
      "1998": 5312,
      "nguội": 5313,
      "Bos": 5314,
      "WTO": 5315,
      "Lotus": 5316,
      "Huaw": 5317,
      "Ford": 5318,
      "Huawei": 5319,
      "Ang": 5320,
      "YC": 5321,
      "vương": 5322,
      "Đưa": 5323,
      "155": 5324,
      "tốp": 5325,
      "deal": 5326,
      "KOL": 5327,
      "Crow": 5328,
      "LX": 5329,
      "dính": 5330,
      "Âm": 5331,
      "phun": 5332,
      "hoi": 5333,
      "chua": 5334,
      "VFTA": 5335,
      "HRC": 5336,
      "QUY": 5337,
      "Tiết": 5338,
      "cer": 5339,
      "cks": 5340,
      "VIỆ": 5341,
      "Soft": 5342,
      "bert": 5343,
      "Jones": 5344,
      "LL": 5345,
      "bas": 5346,
      "126": 5347,
      "data": 5348,
      "225": 5349,
      "9h": 5350,
      "XU": 5351,
      "cốc": 5352,
      "mọc": 5353,
      "ÁN": 5354,
      "Đảm": 5355,
      "Mit": 5356,
      "hang": 5357,
      "say": 5358,
      "ẬN": 5359,
      "nhọn": 5360,
      "kíp": 5361,
      "Econom": 5362,
      "TE": 5363,
      "ôtô": 5364,
      "Duẩn": 5365,
      "Marketing": 5366,
      "THANH": 5367,
      "Founder": 5368,
      "giếng": 5369,
      "Mạng": 5370,
      "NAP": 5371,
      "Sta": 5372,
      "UBC": 5373,
      "rỗi": 5374,
      "thầm": 5375,
      "113": 5376,
      "NAPAS": 5377,
      "UBCK": 5378,
      "Asan": 5379,
      "Oanh": 5380,
      "PCE": 5381,
      "TƯ": 5382,
      "Tal": 5383,
      "ie": 5384,
      "lông": 5385,
      "súng": 5386,
      "Trinh": 5387,
      "Dire": 5388,
      "Adani": 5389,
      "440": 5390,
      "hâm": 5391,
      "Giữa": 5392,
      "rio": 5393,
      "baba": 5394,
      "Cố": 5395,
      "CASA": 5396,
      "FO": 5397,
      "Kênh": 5398,
      "Trời": 5399,
      "Nhịp": 5400,
      "Ku": 5401,
      "NAM": 5402,
      "gieo": 5403,
      "209": 5404,
      "China": 5405,
      "nhiễu": 5406,
      "lữ": 5407,
      "camex": 5408,
      "IDO": 5409,
      "DOC": 5410,
      "Becamex": 5411,
      "Asanzo": 5412,
      "Lệnh": 5413,
      "Tường": 5414,
      "súc": 5415,
      "nhở": 5416,
      "giường": 5417,
      "119": 5418,
      "Vision": 5419,
      "Video": 5420,
      "Ara": 5421,
      "Amer": 5422,
      "STTTT": 5423,
      "Vườn": 5424,
      "mỉ": 5425,
      "thạc": 5426,
      "127": 5427,
      "YouTube": 5428,
      "Street": 5429,
      "Cre": 5430,
      "Hỏi": 5431,
      "Lừa": 5432,
      "Nex": 5433,
      "Owl": 5434,
      "km2": 5435,
      "đằng": 5436,
      "Chuyến": 5437,
      "Khả": 5438,
      "velo": 5439,
      "DNCC": 5440,
      "GAS": 5441,
      "KYC": 5442,
      "Liệu": 5443,
      "Ros": 5444,
      "ềng": 5445,
      "gies": 5446,
      "giềng": 5447,
      "khoai": 5448,
      "ladi": 5449,
      "Fintech": 5450,
      "dcast": 5451,
      "LK": 5452,
      "sấy": 5453,
      "coo": 5454,
      "dội": 5455,
      "ÁCH": 5456,
      "DXG": 5457,
      "smartphone": 5458,
      "5m": 5459,
      "Cốc": 5460,
      "Hóc": 5461,
      "NO": 5462,
      "rạng": 5463,
      "157": 5464,
      "ishi": 5465,
      "2G": 5466,
      "Ask": 5467,
      "Cải": 5468,
      "Lức": 5469,
      "Lời": 5470,
      "cong": 5471,
      "ẢO": 5472,
      "ếch": 5473,
      "titu": 5474,
      "series": 5475,
      "Innovation": 5476,
      "Alibaba": 5477,
      "Bây": 5478,
      "Hường": 5479,
      "PVN": 5480,
      "TĂNG": 5481,
      "bel": 5482,
      "cap": 5483,
      "class": 5484,
      "mủ": 5485,
      "vách": 5486,
      "Đằng": 5487,
      "Commerce": 5488,
      "Securities": 5489,
      "Bông": 5490,
      "BRI": 5491,
      "lứa": 5492,
      "illi": 5493,
      "Mac": 5494,
      "Awards": 5495,
      "Galaxy": 5496,
      "Bưu": 5497,
      "Kam": 5498,
      "hãm": 5499,
      "soi": 5500,
      "226": 5501,
      "Myan": 5502,
      "Alphabet": 5503,
      "ONG": 5504,
      "Xăng": 5505,
      "tưới": 5506,
      "Nhiên": 5507,
      "1995": 5508,
      "ghé": 5509,
      "Sửa": 5510,
      "VV": 5511,
      "food": 5512,
      "Giả": 5513,
      "tain": 5514,
      "4G": 5515,
      "HH": 5516,
      "KBC": 5517,
      "Sch": 5518,
      "slo": 5519,
      "ĐỊ": 5520,
      "24h": 5521,
      "COM": 5522,
      "SHS": 5523,
      "HDB": 5524,
      "Myanmar": 5525,
      "DL": 5526,
      "Gar": 5527,
      "ướp": 5528,
      "tua": 5529,
      "rop": 5530,
      "check": 5531,
      "Fan": 5532,
      "vin": 5533,
      "Merce": 5534,
      "ODA": 5535,
      "Sắc": 5536,
      "VSIP": 5537,
      "phiền": 5538,
      "Jeff": 5539,
      "UBCKNN": 5540,
      "./.": 5541,
      "At": 5542,
      "FI": 5543,
      "dột": 5544,
      "ẻo": 5545,
      "condotel": 5546,
      "Insi": 5547,
      "SME": 5548,
      "try": 5549,
      "phơi": 5550,
      "quất": 5551,
      "2002": 5552,
      "nghênh": 5553,
      "Jersey": 5554,
      "Mercedes": 5555,
      "Cựu": 5556,
      "Lại": 5557,
      "tes": 5558,
      "chay": 5559,
      "174": 5560,
      "028": 5561,
      "form": 5562,
      "Thaco": 5563,
      "Vấp": 5564,
      "ẢN": 5565,
      "chim": 5566,
      "Khung": 5567,
      "MIC": 5568,
      "kei": 5569,
      "Putin": 5570,
      "Cha": 5571,
      "tudio": 5572,
      "165": 5573,
      "Thuột": 5574,
      "290": 5575,
      "THÀNH": 5576,
      "Industri": 5577,
      "HLV": 5578,
      "thâu": 5579,
      "136": 5580,
      "Festival": 5581,
      "Cloud": 5582,
      "GO": 5583,
      "ÓNG": 5584,
      "Đen": 5585,
      "ịn": 5586,
      "KP": 5587,
      "zi": 5588,
      "thềm": 5589,
      "chưng": 5590,
      "168": 5591,
      "2001": 5592,
      "ABBank": 5593,
      "LPB": 5594,
      "BRICS": 5595,
      "EE": 5596,
      "ac": 5597,
      "não": 5598,
      "xám": 5599,
      "Nhựa": 5600,
      "tina": 5601,
      "tuyết": 5602,
      "mazut": 5603,
      "Institu": 5604,
      "Housing": 5605,
      "Gam": 5606,
      "Mùng": 5607,
      "huyền": 5608,
      "td": 5609,
      "Chơn": 5610,
      "Khác": 5611,
      "hùm": 5612,
      "kìm": 5613,
      "tte": 5614,
      "Thiếu": 5615,
      "Trở": 5616,
      "1994": 5617,
      "DIG": 5618,
      "Gene": 5619,
      "Nikkei": 5620,
      "340": 5621,
      "Avi": 5622,
      "ler": 5623,
      "chôn": 5624,
      "Quán": 5625,
      "etty": 5626,
      "Electron": 5627,
      "Mười": 5628,
      "Mẫn": 5629,
      "PAN": 5630,
      "dã": 5631,
      "thấm": 5632,
      "trăn": 5633,
      "phe": 5634,
      "Dow": 5635,
      "999": 5636,
      "Tiki": 5637,
      "Genera": 5638,
      "By": 5639,
      "Dus": 5640,
      "Ranh": 5641,
      "Yếu": 5642,
      "wit": 5643,
      "giặt": 5644,
      "CBDC": 5645,
      "TOP": 5646,
      "Premi": 5647,
      "CCCD": 5648,
      "',": 5649,
      "ƯỢ": 5650,
      "ẾT": 5651,
      "ngợi": 5652,
      "chen": 5653,
      "giằng": 5654,
      "đói": 5655,
      "1999": 5656,
      "Max": 5657,
      "REE": 5658,
      "desh": 5659,
      "Institute": 5660,
      "Cảm": 5661,
      "FTSE": 5662,
      "Fish": 5663,
      "Ltd": 5664,
      "Tầm": 5665,
      "2040": 5666,
      "lub": 5667,
      "ria": 5668,
      "coin": 5669,
      "GPU": 5670,
      "Intelligence": 5671,
      "Hiến": 5672,
      "SSB": 5673,
      "TY": 5674,
      "hô": 5675,
      "zer": 5676,
      "ÀN": 5677,
      "Đèo": 5678,
      "chậu": 5679,
      "ena": 5680,
      "Bắt": 5681,
      "HÀNG": 5682,
      "béo": 5683,
      "dạo": 5684,
      "lau": 5685,
      "rớt": 5686,
      "tàn": 5687,
      "Đán": 5688,
      "…)": 5689,
      "cuộn": 5690,
      "ngoạn": 5691,
      "129": 5692,
      "duc": 5693,
      "Bro": 5694,
      "Van": 5695,
      "”-": 5696,
      "Chăn": 5697,
      "KHCN": 5698,
      "Enter": 5699,
      "IUU": 5700,
      "Cứ": 5701,
      "ICE": 5702,
      "ễm": 5703,
      "bén": 5704,
      "Ecopark": 5705,
      "Sony": 5706,
      "Lấy": 5707,
      "nhường": 5708,
      "1993": 5709,
      "live": 5710,
      "Direct": 5711,
      "Dat": 5712,
      "IỀ": 5713,
      "306": 5714,
      "Dou": 5715,
      "PayPal": 5716,
      "Flores": 5717,
      "vỉa": 5718,
      "Seoul": 5719,
      "GVR": 5720,
      "Pol": 5721,
      "ds": 5722,
      "nàng": 5723,
      "Thới": 5724,
      "Banking": 5725,
      "Jojo": 5726,
      "chinhphu": 5727,
      "Residences": 5728,
      "Valley": 5729,
      "Cận": 5730,
      "Góp": 5731,
      "Mẹ": 5732,
      "Tum": 5733,
      "tí": 5734,
      "Đừng": 5735,
      "Gate": 5736,
      "Mép": 5737,
      "VRE": 5738,
      "ja": 5739,
      "xay": 5740,
      "etter": 5741,
      "ECD": 5742,
      "GenAI": 5743,
      "Bỉ": 5744,
      "Dịp": 5745,
      "Rol": 5746,
      "Uy": 5747,
      "les": 5748,
      "huỷ": 5749,
      "Dusit": 5750,
      "Ky": 5751,
      "Nỗ": 5752,
      "gội": 5753,
      "màng": 5754,
      "ỐC": 5755,
      "ant": 5756,
      "ration": 5757,
      "Hot": 5758,
      "142": 5759,
      "CTR": 5760,
      "card": 5761,
      "Brand": 5762,
      "HTX": 5763,
      "cọ": 5764,
      "134": 5765,
      "Masteri": 5766,
      "dịu": 5767,
      "kind": 5768,
      "Mitsu": 5769,
      "Aeon": 5770,
      "Cư": 5771,
      "KIDO": 5772,
      "sâm": 5773,
      "nha": 5774,
      "Chúc": 5775,
      "238": 5776,
      "IỆN": 5777,
      "Ratings": 5778,
      "3D": 5779,
      "OECD": 5780,
      "Ru": 5781,
      "chem": 5782,
      "trệt": 5783,
      "arl": 5784,
      "IỆP": 5785,
      "Cán": 5786,
      "PDR": 5787,
      "Sim": 5788,
      "day": 5789,
      "rus": 5790,
      "khôn": 5791,
      "Thân": 5792,
      "nghịch": 5793,
      "Giống": 5794,
      "Nhập": 5795,
      "Inc": 5796,
      "uss": 5797,
      "TRUNG": 5798,
      "rupee": 5799,
      "DNNVV": 5800,
      "sandbox": 5801,
      "KS": 5802,
      "bát": 5803,
      "mate": 5804,
      "Nhổn": 5805,
      "146": 5806,
      "Kamala": 5807,
      "IỀU": 5808,
      "480": 5809,
      "BÌNH": 5810,
      "EVFTA": 5811,
      "Lee": 5812,
      "TU": 5813,
      "Tiktok": 5814,
      "Arabia": 5815,
      "Tứ": 5816,
      "Tay": 5817,
      "Tích": 5818,
      "ny": 5819,
      "ĐẦU": 5820,
      "Sunsh": 5821,
      "Josh": 5822,
      "LU": 5823,
      "dney": 5824,
      "1997": 5825,
      "143": 5826,
      "147": 5827,
      "175": 5828,
      "Mankind": 5829,
      "velop": 5830,
      "Sunshine": 5831,
      "Bức": 5832,
      "Book": 5833,
      "C3": 5834,
      "Sco": 5835,
      "rỉ": 5836,
      "ván": 5837,
      "nhái": 5838,
      "homes": 5839,
      "vis": 5840,
      "Loạt": 5841,
      "side": 5842,
      "Golf": 5843,
      "Sydney": 5844,
      "Cus": 5845,
      "1980": 5846,
      "NHUNG": 5847,
      "CHÍ": 5848,
      "370": 5849,
      "430": 5850,
      "Hiểu": 5851,
      "PMI": 5852,
      "XX": 5853,
      "Phấn": 5854,
      "Phóng": 5855,
      "đoan": 5856,
      "omy": 5857,
      "urn": 5858,
      "Marrio": 5859,
      "BSV": 5860,
      "Citi": 5861,
      "AR": 5862,
      "Lang": 5863,
      "LED": 5864,
      "TG": 5865,
      "UE": 5866,
      "mâm": 5867,
      "múa": 5868,
      "pal": 5869,
      "sụp": 5870,
      "inch": 5871,
      "ring": 5872,
      "SMS": 5873,
      "Berk": 5874,
      "BB": 5875,
      "Geo": 5876,
      "Lò": 5877,
      "ku": 5878,
      "ỒNG": 5879,
      "ash": 5880,
      "Consum": 5881,
      "ER": 5882,
      "Ram": 5883,
      "Work": 5884,
      "ƯỚ": 5885,
      "508": 5886,
      "Dubai": 5887,
      "950": 5888,
      "Nửa": 5889,
      "Nằm": 5890,
      "my": 5891,
      "xáo": 5892,
      "đạn": 5893,
      "dow": 5894,
      "BOJ": 5895,
      "Super": 5896,
      "Cống": 5897,
      "Vai": 5898,
      "ele": 5899,
      "ental": 5900,
      "Next": 5901,
      "Consumer": 5902,
      "Dai": 5903,
      "Getty": 5904,
      "Pw": 5905,
      "bil": 5906,
      "ker": 5907,
      "rạp": 5908,
      "Chọn": 5909,
      "Tuân": 5910,
      "PwC": 5911,
      "Hân": 5912,
      "Lư": 5913,
      "Sil": 5914,
      "Lotte": 5915,
      "DG": 5916,
      "Watch": 5917,
      "lăn": 5918,
      "len": 5919,
      "giàn": 5920,
      "Trợ": 5921,
      "digital": 5922,
      "ross": 5923,
      "Bangla": 5924,
      "VIỆT": 5925,
      "Tai": 5926,
      "Xá": 5927,
      "keo": 5928,
      "ÚC": 5929,
      "ằn": 5930,
      "116": 5931,
      "chui": 5932,
      "Thomas": 5933,
      "Bangladesh": 5934,
      ";…": 5935,
      "MXV": 5936,
      "Vua": 5937,
      "lát": 5938,
      "trộm": 5939,
      "Bac": 5940,
      "Buff": 5941,
      "310": 5942,
      "Cương": 5943,
      "Diệp": 5944,
      "HC": 5945,
      "Lau": 5946,
      "eKYC": 5947,
      "méo": 5948,
      "xôi": 5949,
      "Thuật": 5950,
      "IỆU": 5951,
      "KOC": 5952,
      "Hotline": 5953,
      "Bàng": 5954,
      "Money": 5955,
      "dạ": 5956,
      "nấm": 5957,
      "ẻm": 5958,
      "tone": 5959,
      "soo": 5960,
      "Prime": 5961,
      "Marriott": 5962,
      "KBSV": 5963,
      "ev": 5964,
      "lách": 5965,
      "122": 5966,
      "Vẫn": 5967,
      "Xtra": 5968,
      "gác": 5969,
      "tẩy": 5970,
      "uth": 5971,
      "zos": 5972,
      "Điệp": 5973,
      "24K": 5974,
      "DPPA": 5975,
      "Water": 5976,
      "Dan": 5977,
      "Fund": 5978,
      "Tử": 5979,
      "hán": 5980,
      "ue": 5981,
      "162": 5982,
      "HOÀNG": 5983,
      "Sea": 5984,
      "Xiao": 5985,
      "Tỉ": 5986,
      "gập": 5987,
      "hòn": 5988,
      "stem": 5989,
      "Diễm": 5990,
      "Bezos": 5991,
      "WinCommerce": 5992,
      "HVN": 5993,
      "HSG": 5994,
      "ụa": 5995,
      "thắn": 5996,
      "Rich": 5997,
      "GIẢI": 5998,
      "BL": 5999,
      "Bố": 6000,
      "Cool": 6001,
      "Dẫu": 6002,
      "Hạn": 6003,
      "Nổi": 6004,
      "dè": 6005,
      "hích": 6006,
      "jee": 6007,
      "rải": 6008,
      "Phí": 6009,
      "ens": 6010,
      "117": 6011,
      "Luân": 6012,
      "137": 6013,
      "GPBank": 6014,
      "Faros": 6015,
      "ĐỘNG": 6016,
      "Cy": 6017,
      "Hảo": 6018,
      "mía": 6019,
      "tồi": 6020,
      "ớn": 6021,
      "quyên": 6022,
      "178": 6023,
      "Young": 6024,
      "GIÁ": 6025,
      "SUV": 6026,
      "Bia": 6027,
      "158": 6028,
      "ika": 6029,
      "Vietinbank": 6030,
      "Corpo": 6031,
      "Residence": 6032,
      "Hamas": 6033,
      "Club": 6034,
      "OI": 6035,
      "diệt": 6036,
      "nếp": 6037,
      "ĂM": 6038,
      "Đốc": 6039,
      "Thất": 6040,
      "toả": 6041,
      "tory": 6042,
      "Khúc": 6043,
      "sul": 6044,
      "Jackpot": 6045,
      "Electronics": 6046,
      "Gra": 6047,
      "Hill": 6048,
      "Ital": 6049,
      "Lụa": 6050,
      "Xử": 6051,
      "xá": 6052,
      "194": 6053,
      "139": 6054,
      "omen": 6055,
      "Miss": 6056,
      "witter": 6057,
      "390": 6058,
      "Sport": 6059,
      "bấm": 6060,
      "rèn": 6061,
      "xơ": 6062,
      "nhiếp": 6063,
      "Truy": 6064,
      "Nguyệt": 6065,
      "Vic": 6066,
      "review": 6067,
      "Credit": 6068,
      "ĐỊNH": 6069,
      "Lái": 6070,
      "SPC": 6071,
      "Tiếng": 6072,
      "gar": 6073,
      "việt": 6074,
      "xảo": 6075,
      "TOD": 6076,
      "gami": 6077,
      "Buffett": 6078,
      "Vải": 6079,
      "bênh": 6080,
      "cro": 6081,
      "hiên": 6082,
      "test": 6083,
      "Villa": 6084,
      "IIP": 6085,
      "MSC": 6086,
      "Pra": 6087,
      "QC": 6088,
      "hở": 6089,
      "quỵ": 6090,
      "Vinachem": 6091,
      "Cty": 6092,
      "Frid": 6093,
      "Sci": 6094,
      "báu": 6095,
      "cal": 6096,
      "dông": 6097,
      "fo": 6098,
      "xao": 6099,
      "Đỏ": 6100,
      "tier": 6101,
      "149": 6102,
      "Friday": 6103,
      "EF": 6104,
      "Mối": 6105,
      "Rủi": 6106,
      "Twitter": 6107,
      "hẻm": 6108,
      "nén": 6109,
      "Phật": 6110,
      "chiêm": 6111,
      "lody": 6112,
      "TPB": 6113,
      "kén": 6114,
      "CEP": 6115,
      "Whi": 6116,
      "tha": 6117,
      "Chạp": 6118,
      "121": 6119,
      "chuồng": 6120,
      "Bas": 6121,
      "ICT": 6122,
      "Ima": 6123,
      "NĂM": 6124,
      "kor": 6125,
      "Độc": 6126,
      "thủng": 6127,
      "156": 6128,
      "rain": 6129,
      "Chuẩn": 6130,
      "CAR": 6131,
      "Nhiệm": 6132,
      "DGC": 6133,
      "Ngũ": 6134,
      "Gian": 6135,
      "GIA": 6136,
      "token": 6137,
      "ADB": 6138,
      "America": 6139,
      "Aqua": 6140,
      "Ever": 6141,
      "NLG": 6142,
      "vạch": 6143,
      "024": 6144,
      "ford": 6145,
      "bụng": 6146,
      "570": 6147,
      "AA": 6148,
      "CF": 6149,
      "EX": 6150,
      "West": 6151,
      "mail": 6152,
      "rồng": 6153,
      "Phê": 6154,
      "onomy": 6155,
      "chuột": 6156,
      "159": 6157,
      "131": 6158,
      "172": 6159,
      "222": 6160,
      "ken": 6161,
      "soan": 6162,
      "152": 6163,
      "suôn": 6164,
      "Nâu": 6165,
      "chó": 6166,
      "Chân": 6167,
      "TTTM": 6168,
      "Inter": 6169,
      "Latinh": 6170,
      "Cel": 6171,
      "Kin": 6172,
      "NK": 6173,
      "Nis": 6174,
      "Ver": 6175,
      "quyển": 6176,
      "Tuyển": 6177,
      "VNI": 6178,
      "EVNSPC": 6179,
      "Journ": 6180,
      "Show": 6181,
      "Island": 6182,
      "Trade": 6183,
      "Fox": 6184,
      "Journal": 6185,
      "iti": 6186,
      "nu": 6187,
      "Đúng": 6188,
      "qui": 6189,
      "điêu": 6190,
      "151": 6191,
      "255": 6192,
      "Đoạn": 6193,
      "Fiin": 6194,
      "Limited": 6195,
      "NGHIỆP": 6196,
      "HAGL": 6197,
      "Askonomy": 6198,
      "bishi": 6199,
      "Nhã": 6200,
      "18K": 6201,
      "Mitsubishi": 6202,
      "velopment": 6203,
      "015": 6204,
      "BCM": 6205,
      "Lạch": 6206,
      "Mat": 6207,
      "Tận": 6208,
      "bồn": 6209,
      "nồi": 6210,
      "trans": 6211,
      "phế": 6212,
      "phở": 6213,
      "Thẩm": 6214,
      "1992": 6215,
      "SEC": 6216,
      "PHẦN": 6217,
      "Expo": 6218,
      "Paci": 6219,
      "Impa": 6220,
      "Kịch": 6221,
      "Oak": 6222,
      "gừng": 6223,
      "mộng": 6224,
      "ya": 6225,
      "Thao": 6226,
      "...,": 6227,
      "els": 6228,
      "uru": 6229,
      "osite": 6230,
      "OneHousing": 6231,
      "Best": 6232,
      "ucher": 6233,
      "ngói": 6234,
      "phẳng": 6235,
      "Thâm": 6236,
      "Phản": 6237,
      "Report": 6238,
      "Stand": 6239,
      "Mastercard": 6240,
      "Hara": 6241,
      "bility": 6242,
      "680": 6243,
      "Côn": 6244,
      "FRT": 6245,
      "Sư": 6246,
      "UB": 6247,
      "lex": 6248,
      "rư": 6249,
      "Đặt": 6250,
      "chèo": 6251,
      "giọt": 6252,
      "travel": 6253,
      "ella": 6254,
      "24H": 6255,
      "big": 6256,
      "ABB": 6257,
      "Nissan": 6258,
      "Ah": 6259,
      "NP": 6260,
      "bấp": 6261,
      "blue": 6262,
      "xinh": 6263,
      "cul": 6264,
      "144": 6265,
      "field": 6266,
      "ELSA": 6267,
      "Franc": 6268,
      "phouse": 6269,
      "AT": 6270,
      "IAV": 6271,
      "KL": 6272,
      "Ve": 6273,
      "Woo": 6274,
      "Xếp": 6275,
      "Zel": 6276,
      "ach": 6277,
      "eu": 6278,
      "võ": 6279,
      "ngỏ": 6280,
      "Huấn": 6281,
      "PHC": 6282,
      "Hotels": 6283,
      "1A": 6284,
      "460": 6285,
      "Dy": 6286,
      "Kore": 6287,
      "Coolmate": 6288,
      "720": 6289,
      "ISO": 6290,
      "Núi": 6291,
      "lính": 6292,
      "hoành": 6293,
      "lão": 6294,
      "Day": 6295,
      "Drop": 6296,
      "Mảng": 6297,
      "Sơ": 6298,
      "Sách": 6299,
      "Tem": 6300,
      "bệ": 6301,
      "chẩn": 6302,
      "vàn": 6303,
      "ami": 6304,
      "1996": 6305,
      "VinVentures": 6306,
      "Dropbox": 6307,
      "Dis": 6308,
      "VD": 6309,
      "Yen": 6310,
      "miệt": 6311,
      "”)": 6312,
      "hàn": 6313,
      "PTI": 6314,
      "HNP": 6315,
      "GEN": 6316,
      "gue": 6317,
      "E5RON92": 6318,
      "rưỡi": 6319,
      "MP": 6320,
      "Mường": 6321,
      "dar": 6322,
      "rò": 6323,
      "vòi": 6324,
      "Áng": 6325,
      "phổi": 6326,
      "rou": 6327,
      "bur": 6328,
      "245": 6329,
      "Sagami": 6330,
      "TRANG": 6331,
      "verse": 6332,
      "iii": 6333,
      "Morgan": 6334,
      "Pacific": 6335,
      "Dr": 6336,
      "Jim": 6337,
      "Lar": 6338,
      "bấy": 6339,
      "dối": 6340,
      "Phu": 6341,
      "VNDirect": 6342,
      "ust": 6343,
      "Riverside": 6344,
      "homestay": 6345,
      "CỔ": 6346,
      "Sard": 6347,
      "lim": 6348,
      "nứt": 6349,
      "Đầm": 6350,
      "thạo": 6351,
      "Code": 6352,
      "VPCP": 6353,
      "CAGR": 6354,
      "ESCO": 6355,
      "'.": 6356,
      "Kạn": 6357,
      "Paki": 6358,
      "bắp": 6359,
      "set": 6360,
      "vĩnh": 6361,
      "truyện": 6362,
      "anta": 6363,
      "000ha": 6364,
      "456": 6365,
      "opXtra": 6366,
      "Sardana": 6367,
      "Bầu": 6368,
      "Won": 6369,
      "Zan": 6370,
      "oi": 6371,
      "zone": 6372,
      "Thẻ": 6373,
      "tine": 6374,
      "exco": 6375,
      "voucher": 6376,
      "Blackstone": 6377,
      "Store": 6378,
      "poly": 6379,
      "Buy": 6380,
      "Lữ": 6381,
      "Ten": 6382,
      "dứa": 6383,
      "lơ": 6384,
      "vân": 6385,
      "yn": 6386,
      "Đôi": 6387,
      "Chuyện": 6388,
      "Chùa": 6389,
      "etric": 6390,
      "Consul": 6391,
      "Doug": 6392,
      "Standard": 6393,
      "810": 6394,
      "Kia": 6395,
      "Rừng": 6396,
      "base": 6397,
      "sale": 6398,
      "ÒN": 6399,
      "triều": 6400,
      "aly": 6401,
      "365": 6402,
      "Marc": 6403,
      "SHTT": 6404,
      "llar": 6405,
      "Royal": 6406,
      "IỂN": 6407,
      "tím": 6408,
      "Pakistan": 6409,
      "tman": 6410,
      "Thánh": 6411,
      "trate": 6412,
      "AID": 6413,
      "173": 6414,
      "Andro": 6415,
      "Airbus": 6416,
      "ROE": 6417,
      "Vietravel": 6418,
      "Fishery": 6419,
      "Jap": 6420,
      "Lúa": 6421,
      "Mood": 6422,
      "bỗng": 6423,
      "ita": 6424,
      "ỞNG": 6425,
      "nhì": 6426,
      "que": 6427,
      "Rock": 6428,
      "Joy": 6429,
      "shophouse": 6430,
      "USAID": 6431,
      "Telecom": 6432,
      "Moody": 6433,
      "Fri": 6434,
      "Jun": 6435,
      "Vợ": 6436,
      "VSD": 6437,
      "fli": 6438,
      "lăng": 6439,
      "trau": 6440,
      "trâu": 6441,
      "ona": 6442,
      "1991": 6443,
      "...)": 6444,
      "Argen": 6445,
      "peso": 6446,
      "Beta": 6447,
      "ặm": 6448,
      "khói": 6449,
      "Trùng": 6450,
      "Khải": 6451,
      "View": 6452,
      "Buổi": 6453,
      "truc": 6454,
      "FG": 6455,
      "Gas": 6456,
      "Guru": 6457,
      "TD": 6458,
      "WHO": 6459,
      "lon": 6460,
      "196": 6461,
      "MBBank": 6462,
      "SCIC": 6463,
      "560": 6464,
      "CX": 6465,
      "Nậm": 6466,
      "Ter": 6467,
      "Ye": 6468,
      "dẹp": 6469,
      "gs": 6470,
      "rễ": 6471,
      "rét": 6472,
      "ÁI": 6473,
      "đành": 6474,
      "quạt": 6475,
      "Chile": 6476,
      "Indo": 6477,
      "Andr": 6478,
      "VIX": 6479,
      "VPS": 6480,
      "Robo": 6481,
      "Rolls": 6482,
      "Kus": 6483,
      "YT": 6484,
      "cai": 6485,
      "struc": 6486,
      "vấp": 6487,
      "đun": 6488,
      "ngâm": 6489,
      "Nghiệp": 6490,
      "Vir": 6491,
      "duo": 6492,
      "Nobel": 6493,
      "Nghiêm": 6494,
      "Telio": 6495,
      "Royce": 6496,
      "UEH": 6497,
      "Argentina": 6498,
      "Wei": 6499,
      "XSK": 6500,
      "bri": 6501,
      "ela": 6502,
      "lợp": 6503,
      "ngần": 6504,
      "tia": 6505,
      "Khanh": 6506,
      "305": 6507,
      "eli": 6508,
      "VIS": 6509,
      "GPLX": 6510,
      "Riel": 6511,
      "Android": 6512,
      "216": 6513,
      "JC": 6514,
      "PY": 6515,
      "Rap": 6516,
      "Vol": 6517,
      "nến": 6518,
      "vây": 6519,
      "ẤN": 6520,
      "141": 6521,
      "237": 6522,
      "atar": 6523,
      "VASE": 6524,
      "Tata": 6525,
      "Delhi": 6526,
      "Geor": 6527,
      "470": 6528,
      "IS": 6529,
      "TNG": 6530,
      "VCI": 6531,
      "đính": 6532,
      "ngựa": 6533,
      "hoay": 6534,
      "Ngữ": 6535,
      "khoe": 6536,
      "low": 6537,
      "Altman": 6538,
      "Cancro": 6539,
      "219": 6540,
      "BAV": 6541,
      "HP": 6542,
      "Rau": 6543,
      "bế": 6544,
      "mas": 6545,
      "ĐL": 6546,
      "ỤC": 6547,
      "ỨNG": 6548,
      "chán": 6549,
      "khao": 6550,
      "Thầy": 6551,
      "som": 6552,
      "ANK": 6553,
      "bìa": 6554,
      "kẽm": 6555,
      "740": 6556,
      "EIB": 6557,
      "cil": 6558,
      "gặt": 6559,
      "sếp": 6560,
      "nhược": 6561,
      "NGÂN": 6562,
      "bùn": 6563,
      "Composite": 6564,
      "218": 6565,
      "580": 6566,
      "Ak": 6567,
      "HF": 6568,
      "Tức": 6569,
      "cúc": 6570,
      "mạn": 6571,
      "tấp": 6572,
      "òm": 6573,
      "ụng": 6574,
      "nhạt": 6575,
      "thám": 6576,
      "hoán": 6577,
      "phụng": 6578,
      "upper": 6579,
      "Vinpe": 6580,
      "opmart": 6581,
      "shire": 6582,
      "PHÁT": 6583,
      "Corporation": 6584,
      "Vinpearl": 6585,
      "Him": 6586,
      "mận": 6587,
      "ĂN": 6588,
      "ẹt": 6589,
      "2031": 6590,
      "Chú": 6591,
      "Quả": 6592,
      "lom": 6593,
      "eland": 6594,
      "Col": 6595,
      "TRONG": 6596,
      "Lake": 6597,
      "Netfli": 6598,
      "Kien": 6599,
      "slogan": 6600,
      "Netflix": 6601,
      "CÓ": 6602,
      "Quyên": 6603,
      "Ry": 6604,
      "Sm": 6605,
      "Tùy": 6606,
      "tian": 6607,
      "Dollar": 6608,
      "ACBS": 6609,
      "EA": 6610,
      "Niềm": 6611,
      "Vượt": 6612,
      "ml": 6613,
      "nik": 6614,
      "Đạm": 6615,
      "trỗi": 6616,
      "Chín": 6617,
      "Quế": 6618,
      "virus": 6619,
      "Development": 6620,
      "Francisco": 6621,
      ",\"": 6622,
      "Dinh": 6623,
      "Jar": 6624,
      "economy": 6625,
      "eFishery": 6626,
      "mịn": 6627,
      "nâu": 6628,
      "’,": 6629,
      "thon": 6630,
      "chông": 6631,
      "khuy": 6632,
      "ral": 6633,
      "luỹ": 6634,
      "182": 6635,
      "Logo": 6636,
      "Podcast": 6637,
      "Singh": 6638,
      "BIC": 6639,
      "Lục": 6640,
      "bar": 6641,
      "uda": 6642,
      "Tou": 6643,
      "Đàm": 6644,
      "ders": 6645,
      "Arn": 6646,
      "OceanBank": 6647,
      "Dre": 6648,
      "FMC": 6649,
      "IFC": 6650,
      "Metric": 6651,
      "rắc": 6652,
      "ƯỞNG": 6653,
      "ỘI": 6654,
      "Trãi": 6655,
      "VNĐ": 6656,
      "Mos": 6657,
      "CHI": 6658,
      "seri": 6659,
      "WinMart": 6660,
      "hydrogen": 6661,
      "PropertyGuru": 6662,
      "321": 6663,
      "Bù": 6664,
      "HNG": 6665,
      "Lin": 6666,
      "deep": 6667,
      "ree": 6668,
      "Thạc": 6669,
      "Mani": 6670,
      "KDH": 6671,
      "Jung": 6672,
      "Mong": 6673,
      "MAC": 6674,
      "cẩm": 6675,
      "tò": 6676,
      "tước": 6677,
      "win": 6678,
      "wor": 6679,
      "khiết": 6680,
      "Infin": 6681,
      "EVNFinance": 6682,
      "forma": 6683,
      "GIẢ": 6684,
      "QUỐC": 6685,
      "Under": 6686,
      "MEDIA": 6687,
      "Company": 6688,
      "toasoan": 6689,
      "Images": 6690,
      "\";": 6691,
      "CSI": 6692,
      "NM": 6693,
      "Ren": 6694,
      "TÍ": 6695,
      "Uông": 6696,
      "dưa": 6697,
      "dầm": 6698,
      "ling": 6699,
      "nưa": 6700,
      "sỉ": 6701,
      "well": 6702,
      "air": 6703,
      "Chen": 6704,
      "TTC": 6705,
      "257": 6706,
      "Coco": 6707,
      "Hub": 6708,
      "aily": 6709,
      "MIT": 6710,
      "SMA": 6711,
      "BSR": 6712,
      "BRG": 6713,
      "rough": 6714,
      "CCN": 6715,
      "GFDI": 6716,
      "HAN": 6717,
      "Nà": 6718,
      "NBC": 6719,
      "Quyến": 6720,
      "Tiềm": 6721,
      "Wen": 6722,
      "vãng": 6723,
      "đầm": 6724,
      "thắp": 6725,
      "hoại": 6726,
      "tien": 6727,
      "enco": 6728,
      "000đ": 6729,
      "CME": 6730,
      "VinB": 6731,
      "Modi": 6732,
      "aku": 6733,
      "VASEP": 6734,
      "cỗ": 6735,
      "war": 6736,
      "ịnh": 6737,
      "Trồng": 6738,
      "toạ": 6739,
      "1975": 6740,
      "CPC": 6741,
      "THI": 6742,
      "kie": 6743,
      "Berkshire": 6744,
      "050": 6745,
      "EP": 6746,
      "Eng": 6747,
      "VO": 6748,
      "cấy": 6749,
      "lê": 6750,
      "mem": 6751,
      "thung": 6752,
      "vịt": 6753,
      "aka": 6754,
      "Robert": 6755,
      "DOGE": 6756,
      "Salva": 6757,
      "Harald": 6758,
      "Penn": 6759,
      "TỪ": 6760,
      "bàng": 6761,
      "côn": 6762,
      "dẻo": 6763,
      "răn": 6764,
      "tú": 6765,
      "”...": 6766,
      "PHÓNG": 6767,
      "System": 6768,
      "Service": 6769,
      "Korea": 6770,
      "545": 6771,
      "Má": 6772,
      "Ty": 6773,
      "VỚI": 6774,
      "nập": 6775,
      "xôn": 6776,
      "Trừ": 6777,
      "log": 6778,
      "197": 6779,
      "138": 6780,
      "315": 6781,
      "Abo": 6782,
      "Cross": 6783,
      "Fit": 6784,
      "Ken": 6785,
      "NSM": 6786,
      "NVCC": 6787,
      "Str": 6788,
      "SPS": 6789,
      "Strate": 6790,
      "Tóm": 6791,
      "Vài": 6792,
      "dấn": 6793,
      "hoạn": 6794,
      "via": 6795,
      "1989": 6796,
      "163": 6797,
      "CTV": 6798,
      "Miễu": 6799,
      "Solar": 6800,
      "Garden": 6801,
      "Salvador": 6802,
      "NSMO": 6803,
      "Dance": 6804,
      "Mes": 6805,
      "SỐ": 6806,
      "Ul": 6807,
      "Vang": 6808,
      "Xô": 6809,
      "bún": 6810,
      "dan": 6811,
      "gna": 6812,
      "sầm": 6813,
      "vét": 6814,
      "ngất": 6815,
      "Phim": 6816,
      "logic": 6817,
      "arning": 6818,
      "rist": 6819,
      "khóc": 6820,
      "231": 6821,
      "suối": 6822,
      "PGBank": 6823,
      "HDG": 6824,
      "ST25": 6825,
      "Starbu": 6826,
      "Stanley": 6827,
      "530": 6828,
      "AU": 6829,
      "Hộ": 6830,
      "James": 6831,
      "Kr": 6832,
      "Lớp": 6833,
      "Tupper": 6834,
      "bung": 6835,
      "he": 6836,
      "xùm": 6837,
      "Thuỳ": 6838,
      "VietBank": 6839,
      "404": 6840,
      "iss": 6841,
      "CNV": 6842,
      "Pou": 6843,
      "shan": 6844,
      "Panama": 6845,
      "Cyber": 6846,
      "RCEP": 6847,
      "Tom": 6848,
      "dẳng": 6849,
      "lóc": 6850,
      "nạo": 6851,
      "nóc": 6852,
      "tz": 6853,
      "vở": 6854,
      "Đợt": 6855,
      "nghiện": 6856,
      "Phục": 6857,
      "Quo": 6858,
      "loay": 6859,
      "154": 6860,
      "Visa": 6861,
      "Doãn": 6862,
      "United": 6863,
      "Byte": 6864,
      "Xiaomi": 6865,
      "(“": 6866,
      "660": 6867,
      "Hạt": 6868,
      "Lựa": 6869,
      "Nar": 6870,
      "Vòng": 6871,
      "br": 6872,
      "bơ": 6873,
      "file": 6874,
      "Khẩu": 6875,
      "198": 6876,
      "quýt": 6877,
      "AIA": 6878,
      "405": 6879,
      "TRIỂN": 6880,
      "API": 6881,
      "Travel": 6882,
      "Zelen": 6883,
      ">>": 6884,
      "Dấu": 6885,
      "Nor": 6886,
      "né": 6887,
      "xit": 6888,
      "ẠNH": 6889,
      "chanh": 6890,
      "Coun": 6891,
      "report": 6892,
      "Laco": 6893,
      "PHƯƠNG": 6894,
      "LLM": 6895,
      "Jan": 6896,
      "Lên": 6897,
      "Les": 6898,
      "đpt": 6899,
      "chót": 6900,
      "Trans": 6901,
      "viêm": 6902,
      "hacker": 6903,
      "ByteDance": 6904,
      "HUY": 6905,
      "Off": 6906,
      "Semi": 6907,
      "mượt": 6908,
      "nàn": 6909,
      "rầm": 6910,
      "ĐO": 6911,
      "quế": 6912,
      "153": 6913,
      "185": 6914,
      "startups": 6915,
      "Liang": 6916,
      "Mad": 6917,
      "EDA": 6918,
      "Sports": 6919,
      "MACD": 6920,
      "Starbucks": 6921,
      "Zelensky": 6922,
      "Lacoste": 6923,
      "B3": 6924,
      "Era": 6925,
      "Hung": 6926,
      "LÀ": 6927,
      "Tái": 6928,
      "XIV": 6929,
      "fake": 6930,
      "lún": 6931,
      "ye": 6932,
      "Trúc": 6933,
      "Lou": 6934,
      "THƯƠNG": 6935,
      "CAO": 6936,
      "QUANG": 6937,
      "Alexa": 6938,
      "XSKT": 6939,
      "Lão": 6940,
      "Stream": 6941,
      "Selex": 6942,
      "bóc": 6943,
      "lùm": 6944,
      "mày": 6945,
      "răng": 6946,
      "đãng": 6947,
      "aste": 6948,
      "227": 6949,
      "lic": 6950,
      "CHUY": 6951,
      "BoC": 6952,
      "mann": 6953,
      "ineken": 6954,
      "DOANH": 6955,
      "zation": 6956,
      "POS": 6957,
      "Heineken": 6958,
      "630": 6959,
      "741": 6960,
      "Bel": 6961,
      "DUY": 6962,
      "F250": 6963,
      "Ju": 6964,
      "Med": 6965,
      "mồ": 6966,
      "xx": 6967,
      "²,": 6968,
      "204": 6969,
      "Chư": 6970,
      "baco": 6971,
      "Toản": 6972,
      "THX": 6973,
      "point": 6974,
      "B2B": 6975,
      "CHÍNH": 6976,
      "VSDC": 6977,
      "Bal": 6978,
      "Bão": 6979,
      "Miễn": 6980,
      "Rà": 6981,
      "Wes": 6982,
      "gra": 6983,
      "ign": 6984,
      "iOS": 6985,
      "letter": 6986,
      "mir": 6987,
      "vóc": 6988,
      "wan": 6989,
      "zai": 6990,
      "Đời": 6991,
      "ủa": 6992,
      "aya": 6993,
      "Hoằng": 6994,
      "235": 6995,
      "old": 6996,
      "TCH": 6997,
      "ghts": 6998,
      "Dabaco": 6999,
      "voi": 7000,
      "Benz": 7001,
      "Warren": 7002,
      "MSCI": 7003,
      "Consulting": 7004,
      "770": 7005,
      "F24": 7006,
      "Russ": 7007,
      "ẬP": 7008,
      "nhan": 7009,
      "Nghé": 7010,
      "EVNGEN": 7011,
      "Point": 7012,
      "DNSE": 7013,
      "790": 7014,
      "Moun": 7015,
      "Va": 7016,
      "VTP": 7017,
      "yu": 7018,
      "zy": 7019,
      "Áo": 7020,
      "Đáp": 7021,
      "nger": 7022,
      "203": 7023,
      "Chro": 7024,
      "Phổ": 7025,
      "cur": 7026,
      "275": 7027,
      "39B": 7028,
      "Kiev": 7029,
      "VRG": 7030,
      "GMV": 7031,
      "NGUYÊN": 7032,
      "itiz": 7033,
      "Andrew": 7034,
      "Dream": 7035,
      "VinBrain": 7036,
      "Aboitiz": 7037,
      "490": 7038,
      "5km": 7039,
      "?”": 7040,
      "Brid": 7041,
      "Mèn": 7042,
      "liều": 7043,
      "rơm": 7044,
      "ẠO": 7045,
      "ỂN": 7046,
      "…).": 7047,
      "nhĩ": 7048,
      "chạp": 7049,
      "rathon": 7050,
      "308": 7051,
      "181": 7052,
      "Andy": 7053,
      "228": 7054,
      "236": 7055,
      "tered": 7056,
      "Cost": 7057,
      "League": 7058,
      "435": 7059,
      "Cal": 7060,
      "Dri": 7061,
      "Mỏ": 7062,
      "Mông": 7063,
      "RP": 7064,
      "Rồi": 7065,
      "cen": 7066,
      "dem": 7067,
      "hôi": 7068,
      "iv": 7069,
      "miêu": 7070,
      "tem": 7071,
      "phen": 7072,
      "Phen": 7073,
      "aus": 7074,
      "Giảng": 7075,
      "242": 7076,
      "amily": 7077,
      "Trading": 7078,
      "B1": 7079,
      "Liệt": 7080,
      "Nàng": 7081,
      "Paul": 7082,
      "të": 7083,
      "ÁO": 7084,
      "Chem": 7085,
      "188": 7086,
      "232": 7087,
      "Huzai": 7088,
      "Shun": 7089,
      "ASTA": 7090,
      "bio": 7091,
      "SMEs": 7092,
      "asek": 7093,
      "fah": 7094,
      "Temasek": 7095,
      "Huzaifah": 7096,
      "760": 7097,
      "Bồ": 7098,
      "Est": 7099,
      "Gelex": 7100,
      "nòng": 7101,
      "pre": 7102,
      "sy": 7103,
      "wood": 7104,
      "Quay": 7105,
      "Khái": 7106,
      "org": 7107,
      "VNA": 7108,
      "VNR": 7109,
      "262": 7110,
      "PTC3": 7111,
      "Fortu": 7112,
      "cts": 7113,
      "QUYỀN": 7114,
      "Gamuda": 7115,
      "ikaa": 7116,
      "Ultra": 7117,
      "Phenikaa": 7118,
      "830": 7119,
      "BE": 7120,
      "Jet": 7121,
      "MH": 7122,
      "PVI": 7123,
      "oxy": 7124,
      "vắc": 7125,
      "vos": 7126,
      "trend": 7127,
      "ving": 7128,
      "Inf": 7129,
      "CBCNV": 7130,
      "Newsletter": 7131,
      "IỂM": 7132,
      "Chartered": 7133,
      "418": 7134,
      "A2": 7135,
      "BẢO": 7136,
      "Cù": 7137,
      "LDG": 7138,
      "Nay": 7139,
      "Sương": 7140,
      "group": 7141,
      "ráo": 7142,
      "xí": 7143,
      "xông": 7144,
      "đục": 7145,
      "chả": 7146,
      "Charm": 7147,
      "cus": 7148,
      "183": 7149,
      "177": 7150,
      "Thuấn": 7151,
      "iser": 7152,
      "ASO": 7153,
      "ROS": 7154,
      "EuroCham": 7155,
      "vania": 7156,
      "Gaza": 7157,
      "Woori": 7158,
      "Robotics": 7159,
      "Hen": 7160,
      "Lãng": 7161,
      "Nộp": 7162,
      "XS": 7163,
      "nap": 7164,
      "Đêm": 7165,
      "001": 7166,
      "Chăm": 7167,
      "loa": 7168,
      "ime": 7169,
      "PHÚC": 7170,
      "TBM": 7171,
      "LEX": 7172,
      "Jose": 7173,
      "Industries": 7174,
      "Tupperware": 7175,
      "325": 7176,
      "410": 7177,
      "?”.": 7178,
      "GA": 7179,
      "MVA": 7180,
      "UBS": 7181,
      "ks": 7182,
      "mít": 7183,
      "sườn": 7184,
      "vt": 7185,
      "viếng": 7186,
      "ẬT": 7187,
      "…;": 7188,
      "Thấy": 7189,
      "khoát": 7190,
      "Phả": 7191,
      "Qual": 7192,
      "265": 7193,
      "70508": 7194,
      "33A": 7195,
      "03166": 7196,
      "Contin": 7197,
      "SCG": 7198,
      "nier": 7199,
      "VnExpress": 7200,
      "trover": 7201,
      "Ostrover": 7202,
      "Casper": 7203,
      "LUẬN": 7204,
      "tienphong": 7205,
      "0316670508": 7206,
      "520": 7207,
      "610": 7208,
      "DD": 7209,
      "HI": 7210,
      "Hạng": 7211,
      "Kar": 7212,
      "Sữa": 7213,
      "SẢN": 7214,
      "UAV": 7215,
      "Vladi": 7216,
      "Zhang": 7217,
      "xưng": 7218,
      "ỔI": 7219,
      "ửng": 7220,
      "ỮNG": 7221,
      "khuếch": 7222,
      "504": 7223,
      "TTHC": 7224,
      "246": 7225,
      "Social": 7226,
      "466": 7227,
      "CIO": 7228,
      "Indoch": 7229,
      "Infinity": 7230,
      "Russell": 7231,
      "Vladimir": 7232,
      "Bối": 7233,
      "DBC": 7234,
      "Daily": 7235,
      "ETH": 7236,
      "Ir": 7237,
      "Pre": 7238,
      "TEC": 7239,
      "Wake": 7240,
      "cå": 7241,
      "hman": 7242,
      "ỐI": 7243,
      "ườm": 7244,
      "USDA": 7245,
      "CMG": 7246,
      "167": 7247,
      "NHÂN": 7248,
      "SEMI": 7249,
      "CNC": 7250,
      "GPMB": 7251,
      "Melody": 7252,
      "prise": 7253,
      "Zannier": 7254,
      "Bre": 7255,
      "Cle": 7256,
      "Fre": 7257,
      "Mà": 7258,
      "dặm": 7259,
      "lle": 7260,
      "sảnh": 7261,
      "đùa": 7262,
      "khoác": 7263,
      "khoang": 7264,
      "thiêng": 7265,
      "omo": 7266,
      "EVNCPC": 7267,
      "feng": 7268,
      "VPBankS": 7269,
      "cert": 7270,
      "Bồng": 7271,
      "Mill": 7272,
      "Túc": 7273,
      "XD": 7274,
      "ah": 7275,
      "fer": 7276,
      "je": 7277,
      "mác": 7278,
      "mit": 7279,
      "đèo": 7280,
      "201": 7281,
      "Trâm": 7282,
      "Khám": 7283,
      "164": 7284,
      "NGỌC": 7285,
      "thoa": 7286,
      "edan": 7287,
      "Lobs": 7288,
      "Hur": 7289,
      "368": 7290,
      "xoáy": 7291,
      "Arm": 7292,
      "Cafe": 7293,
      "BIT": 7294,
      "Frank": 7295,
      "Economics": 7296,
      "Taylor": 7297,
      "Lobster": 7298,
      "BW": 7299,
      "BAF": 7300,
      "Lọc": 7301,
      "Lat": 7302,
      "Nắm": 7303,
      "SZ": 7304,
      "ife": 7305,
      "mấu": 7306,
      "xà": 7307,
      "ỌNG": 7308,
      "”:": 7309,
      "205": 7310,
      "Nhấn": 7311,
      "đoái": 7312,
      "10h": 7313,
      "1970": 7314,
      "184": 7315,
      "South": 7316,
      "BoE": 7317,
      "TBA": 7318,
      "Alexand": 7319,
      "NKG": 7320,
      "Bom": 7321,
      "Gran": 7322,
      "Hang": 7323,
      "Ori": 7324,
      "R1": 7325,
      "Slo": 7326,
      "SÀI": 7327,
      "VAM": 7328,
      "spa": 7329,
      "đè": 7330,
      "inhan": 7331,
      "CBAM": 7332,
      "Timor": 7333,
      "APEC": 7334,
      "Continental": 7335,
      "Binh": 7336,
      "Cúc": 7337,
      "Grow": 7338,
      "GÒN": 7339,
      "Sha": 7340,
      "bps": 7341,
      "fu": 7342,
      "Đỉnh": 7343,
      "ngỡ": 7344,
      "Trực": 7345,
      "1960": 7346,
      "ical": 7347,
      "THCS": 7348,
      "Shinhan": 7349,
      "BHYT": 7350,
      "Walmart": 7351,
      "Italy": 7352,
      "FMCG": 7353,
      "Strike": 7354,
      "Costco": 7355,
      "''": 7356,
      "434": 7357,
      "540": 7358,
      "5ha": 7359,
      "620": 7360,
      "CƠ": 7361,
      "KHO": 7362,
      "LH": 7363,
      "Men": 7364,
      "Nap": 7365,
      "Ore": 7366,
      "Táo": 7367,
      "Wong": 7368,
      "ichi": 7369,
      "pay": 7370,
      "sành": 7371,
      "studio": 7372,
      "phà": 7373,
      "Thưởng": 7374,
      "Quách": 7375,
      "muôn": 7376,
      "ene": 7377,
      "ngoan": 7378,
      "233": 7379,
      "Colu": 7380,
      "Masters": 7381,
      "GIZ": 7382,
      "SAV": 7383,
      "Chrome": 7384,
      "Don": 7385,
      "ESO": 7386,
      "G20": 7387,
      "GAP": 7388,
      "Làn": 7389,
      "NI": 7390,
      "Ple": 7391,
      "Vỹ": 7392,
      "bã": 7393,
      "gò": 7394,
      "hức": 7395,
      "Đàn": 7396,
      "Đồi": 7397,
      "đắm": 7398,
      "đuôi": 7399,
      "khử": 7400,
      "Tranh": 7401,
      "195": 7402,
      "BNV": 7403,
      "Forest": 7404,
      "CHO": 7405,
      "YouNet": 7406,
      "prote": 7407,
      "endra": 7408,
      "Lauder": 7409,
      "215": 7410,
      "Mini": 7411,
      "WOM": 7412,
      "gầm": 7413,
      "háo": 7414,
      "hưng": 7415,
      "lanh": 7416,
      "lẩn": 7417,
      "öng": 7418,
      "phôi": 7419,
      "Chica": 7420,
      "khoanh": 7421,
      "192": 7422,
      "1986": 7423,
      "code": 7424,
      "Luôn": 7425,
      "resort": 7426,
      "chips": 7427,
      "POW": 7428,
      "Boston": 7429,
      "229": 7430,
      "Gỗ": 7431,
      "IEL": 7432,
      "KR": 7433,
      "NTT": 7434,
      "ju": 7435,
      "saku": 7436,
      "vard": 7437,
      "NHIỀU": 7438,
      "PVD": 7439,
      "Tags": 7440,
      "blog": 7441,
      "SoftBank": 7442,
      "cookie": 7443,
      "Chicago": 7444,
      "Cánh": 7445,
      "jek": 7446,
      "mến": 7447,
      "sương": 7448,
      "tứ": 7449,
      "von": 7450,
      "xói": 7451,
      "tric": 7452,
      "Lux": 7453,
      "Luận": 7454,
      "Carbon": 7455,
      "Europe": 7456,
      "UPCOM": 7457,
      "ealth": 7458,
      "NOXH": 7459,
      "Premium": 7460,
      "TECx": 7461,
      "SAVVi": 7462,
      "IELTS": 7463,
      "870": 7464,
      "Dani": 7465,
      "HR": 7466,
      "NSD": 7467,
      "Tơ": 7468,
      "Women": 7469,
      "ito": 7470,
      "ial": 7471,
      "lầy": 7472,
      "mồi": 7473,
      "chel": 7474,
      "ange": 7475,
      "ences": 7476,
      "251": 7477,
      "post": 7478,
      "ball": 7479,
      "cess": 7480,
      "Flori": 7481,
      "Coinbase": 7482,
      "ƯỚC": 7483,
      "NSDLĐ": 7484,
      "6h": 7485,
      "Bai": 7486,
      "Bit": 7487,
      "FTS": 7488,
      "Mur": 7489,
      "NIC": 7490,
      "TẠI": 7491,
      "VU": 7492,
      "bọn": 7493,
      "dỗ": 7494,
      "lùng": 7495,
      "lánh": 7496,
      "micro": 7497,
      "móp": 7498,
      "tặc": 7499,
      "tform": 7500,
      "ÂU": 7501,
      "đốn": 7502,
      "phồn": 7503,
      "Thưa": 7504,
      "15h": 7505,
      "253": 7506,
      "179": 7507,
      "cept": 7508,
      "247": 7509,
      "Town": 7510,
      "team": 7511,
      "DIC": 7512,
      "PVS": 7513,
      "gym": 7514,
      "Crown": 7515,
      "XUẤT": 7516,
      "Leste": 7517,
      "Ay": 7518,
      "Lớn": 7519,
      "Sạch": 7520,
      "Yang": 7521,
      "bạt": 7522,
      "gàng": 7523,
      "pto": 7524,
      "rt": 7525,
      "rể": 7526,
      "rỗng": 7527,
      "’.": 7528,
      "”…": 7529,
      "xury": 7530,
      "221": 7531,
      "282": 7532,
      "Steel": 7533,
      "XII": 7534,
      "tẻ": 7535,
      "xẻ": 7536,
      "ệm": 7537,
      "chớp": 7538,
      "chỉn": 7539,
      "vers": 7540,
      "Keiser": 7541,
      "Walter": 7542,
      "KINH": 7543,
      "Enterprise": 7544,
      "Cushman": 7545,
      "ESOP": 7546,
      "Florida": 7547,
      "EPS": 7548,
      "Móng": 7549,
      "Pai": 7550,
      "WD": 7551,
      "cối": 7552,
      "cay": 7553,
      "hố": 7554,
      "ok": 7555,
      "xAI": 7556,
      "thòi": 7557,
      "củi": 7558,
      "Quê": 7559,
      "cám": 7560,
      "169": 7561,
      "285": 7562,
      "Art": 7563,
      "offline": 7564,
      "Japan": 7565,
      "Shunsaku": 7566,
      "Wakefield": 7567,
      "BK": 7568,
      "Bin": 7569,
      "BMW": 7570,
      "Care": 7571,
      "LÝ": 7572,
      "Rập": 7573,
      "city": 7574,
      "kĩ": 7575,
      "lội": 7576,
      "mền": 7577,
      "mứt": 7578,
      "syl": 7579,
      "tăm": 7580,
      "ÀY": 7581,
      "Triết": 7582,
      "254": 7583,
      "comm": 7584,
      "SEA": 7585,
      "KHÔNG": 7586,
      "Extra": 7587,
      "QUAN": 7588,
      "fac": 7589,
      "Yuanta": 7590,
      "ladium": 7591,
      "Pennsyl": 7592,
      "Pennsylvania": 7593,
      "Equ": 7594,
      "EIA": 7595,
      "Tony": 7596,
      "Vô": 7597,
      "Xổ": 7598,
      "XRP": 7599,
      "out": 7600,
      "Ít": 7601,
      "chốn": 7602,
      "Thí": 7603,
      "000m": 7604,
      "chuông": 7605,
      "252": 7606,
      "India": 7607,
      "176": 7608,
      "sian": 7609,
      "Mira": 7610,
      "Tax": 7611,
      "DongA": 7612,
      "Crowd": 7613,
      "Oakland": 7614,
      "Hil": 7615,
      "Lòng": 7616,
      "MU": 7617,
      "lôi": 7618,
      "red": 7619,
      "khang": 7620,
      "Giáng": 7621,
      "arch": 7622,
      "chul": 7623,
      "baochinhphu": 7624,
      "17h": 7625,
      "VIÊN": 7626,
      "Mach": 7627,
      "Gojek": 7628,
      "Markets": 7629,
      "EVNNPC": 7630,
      "McKin": 7631,
      "MOU": 7632,
      "Wiz": 7633,
      "Fortune": 7634,
      "212": 7635,
      "730": 7636,
      "980": 7637,
      "Hỏa": 7638,
      "Spe": 7639,
      "cò": 7640,
      "lột": 7641,
      "nang": 7642,
      "rang": 7643,
      "xiêm": 7644,
      "öi": 7645,
      "ẪN": 7646,
      "…”,": 7647,
      "ese": 7648,
      "robusta": 7649,
      "trade": 7650,
      "thoảng": 7651,
      "Make": 7652,
      "Technologies": 7653,
      "Panda": 7654,
      "Stanford": 7655,
      "jeev": 7656,
      "formation": 7657,
      "Cocoon": 7658,
      "\"-": 7659,
      "432": 7660,
      "690": 7661,
      "Hana": 7662,
      "Jas": 7663,
      "PBoC": 7664,
      "QG": 7665,
      "Spi": 7666,
      "cồng": 7667,
      "dra": 7668,
      "gõ": 7669,
      "mph": 7670,
      "nần": 7671,
      "xn": 7672,
      "Đón": 7673,
      "Trân": 7674,
      "189": 7675,
      "comp": 7676,
      "Key": 7677,
      "Cienco": 7678,
      "KPI": 7679,
      "Avison": 7680,
      "Daniel": 7681,
      "217": 7682,
      "Sợi": 7683,
      "Studio": 7684,
      "Tuyền": 7685,
      "VB": 7686,
      "WA": 7687,
      "ation": 7688,
      "nể": 7689,
      "đũi": 7690,
      "chén": 7691,
      "iềng": 7692,
      "aud": 7693,
      "cow": 7694,
      "Vik": 7695,
      "umi": 7696,
      "entan": 7697,
      "gaz": 7698,
      "Construc": 7699,
      "Compu": 7700,
      "PMG": 7701,
      "Pad": 7702,
      "blecoin": 7703,
      "UNESCO": 7704,
      "Design": 7705,
      "Scott": 7706,
      "VDSC": 7707,
      "McKinsey": 7708,
      "Construction": 7709,
      "214": 7710,
      "670": 7711,
      "Af": 7712,
      "AGR": 7713,
      "FL": 7714,
      "Jak": 7715,
      "LỰC": 7716,
      "MR": 7717,
      "WEF": 7718,
      "dặn": 7719,
      "193": 7720,
      "organ": 7721,
      "288": 7722,
      "dezi": 7723,
      "377": 7724,
      "Thơm": 7725,
      "xoá": 7726,
      "Buil": 7727,
      "Books": 7728,
      "cilla": 7729,
      "Moscow": 7730,
      "entanyl": 7731,
      "414": 7732,
      "Aman": 7733,
      "Cân": 7734,
      "Canh": 7735,
      "DỰ": 7736,
      "cộ": 7737,
      "lung": 7738,
      "rơ": 7739,
      "ĐỒNG": 7740,
      "…),": 7741,
      "baotienphong": 7742,
      "buông": 7743,
      "leball": 7744,
      "power": 7745,
      "sensia": 7746,
      "Caro": 7747,
      "Window": 7748,
      "Qualcomm": 7749,
      "BGTVT": 7750,
      "Cú": 7751,
      "F1": 7752,
      "Fer": 7753,
      "NL": 7754,
      "PCCC": 7755,
      "TÀI": 7756,
      "dri": 7757,
      "fentanyl": 7758,
      "lí": 7759,
      "xài": 7760,
      "điên": 7761,
      "ngóng": 7762,
      "chê": 7763,
      "phao": 7764,
      "ania": 7765,
      "Trấn": 7766,
      "187": 7767,
      "1800": 7768,
      "299": 7769,
      "ckleball": 7770,
      "Colom": 7771,
      "urt": 7772,
      "Suốt": 7773,
      "Trac": 7774,
      "Sendo": 7775,
      "tamin": 7776,
      "cular": 7777,
      "Mountain": 7778,
      "Indochina": 7779,
      "737": 7780,
      "Biệt": 7781,
      "Cấu": 7782,
      "HQC": 7783,
      "Haus": 7784,
      "KPMG": 7785,
      "MTT": 7786,
      "bẩn": 7787,
      "gate": 7788,
      "tống": 7789,
      "Đvt": 7790,
      "ThS": 7791,
      "Vis": 7792,
      "bad": 7793,
      "403": 7794,
      "NTL": 7795,
      "Centre": 7796,
      "Comex": 7797,
      "kiêng": 7798,
      "Siri": 7799,
      "price": 7800,
      "Brian": 7801,
      "Narendra": 7802,
      "Hungary": 7803,
      "SZC": 7804,
      "gazine": 7805,
      "Tracxn": 7806,
      "780": 7807,
      "HB": 7808,
      "Plan": 7809,
      "ith": 7810,
      "rốt": 7811,
      "xào": 7812,
      "ĐIỆN": 7813,
      "ẠN": 7814,
      "phì": 7815,
      "phàn": 7816,
      "anime": 7817,
      "arta": 7818,
      "asa": 7819,
      "295": 7820,
      "098": 7821,
      "SIM": 7822,
      "Symph": 7823,
      "Telegram": 7824,
      "FGF": 7825,
      "GIẢM": 7826,
      "Ireland": 7827,
      "CrowdStrike": 7828,
      "Symphony": 7829,
      "?”,": 7830,
      "CD": 7831,
      "Chào": 7832,
      "IO": 7833,
      "Kyo": 7834,
      "WGC": 7835,
      "bb": 7836,
      "ey": 7837,
      "vun": 7838,
      "éc": 7839,
      "khuất": 7840,
      "Cher": 7841,
      "Phạt": 7842,
      "tum": 7843,
      "Khẩn": 7844,
      "villa": 7845,
      "CMS": 7846,
      "lap": 7847,
      "2345": 7848,
      "FedWatch": 7849,
      "sưởi": 7850,
      "Lab": 7851,
      "senger": 7852,
      "xoắn": 7853,
      "Nova": 7854,
      "Nada": 7855,
      "mobile": 7856,
      "Motors": 7857,
      "Talk": 7858,
      "Madrid": 7859,
      "MTTQ": 7860,
      ")-": 7861,
      ";...": 7862,
      "DW": 7863,
      "EN": 7864,
      "SX": 7865,
      "VĂN": 7866,
      "dại": 7867,
      "ĐV": 7868,
      "ịt": 7869,
      "nhủ": 7870,
      "207": 7871,
      "1900": 7872,
      "NHÀ": 7873,
      "made": 7874,
      "PHS": 7875,
      "Finra": 7876,
      "CSĐT": 7877,
      "model": 7878,
      "gestone": 7879,
      "ƯỢNG": 7880,
      "White": 7881,
      "burg": 7882,
      "deepfake": 7883,
      "Bridgestone": 7884,
      "375": 7885,
      "Cơn": 7886,
      "Jin": 7887,
      "Sổ": 7888,
      "Tấm": 7889,
      "TEU": 7890,
      "Tịnh": 7891,
      "cel": 7892,
      "dâm": 7893,
      "găm": 7894,
      "nản": 7895,
      "táng": 7896,
      "ée": 7897,
      "Đang": 7898,
      "Đền": 7899,
      "ỐNG": 7900,
      "trăng": 7901,
      "town": 7902,
      "loy": 7903,
      "000km": 7904,
      "249": 7905,
      "268": 7906,
      "life": 7907,
      "cation": 7908,
      "AMD": 7909,
      "Search": 7910,
      "CST": 7911,
      "Caty": 7912,
      "BVH": 7913,
      "Essensia": 7914,
      "536": 7915,
      "860": 7916,
      "Family": 7917,
      "Hè": 7918,
      "IQ": 7919,
      "Sầu": 7920,
      "Tor": 7921,
      "eWOM": 7922,
      "get": 7923,
      "ïu": 7924,
      "ẢNH": 7925,
      "chan": 7926,
      "171": 7927,
      "286": 7928,
      "Tour": 7929,
      "Maz": 7930,
      "moóc": 7931,
      "true": 7932,
      "Summit": 7933,
      "palladium": 7934,
      "Richard": 7935,
      "**": 7936,
      "213": 7937,
      "323": 7938,
      "880": 7939,
      "Ab": 7940,
      "Bain": 7941,
      "Ge": 7942,
      "Mũi": 7943,
      "Nu": 7944,
      "Ora": 7945,
      "Wha": 7946,
      "hước": 7947,
      "rịch": 7948,
      "sò": 7949,
      "ĐỔI": 7950,
      "ƠN": 7951,
      "ngàng": 7952,
      "nhấp": 7953,
      "chas": 7954,
      "206": 7955,
      "Chụp": 7956,
      "tom": 7957,
      "conn": 7958,
      "TTĐB": 7959,
      "258": 7960,
      "267": 7961,
      "rez": 7962,
      "SMR": 7963,
      "CAD": 7964,
      "Angel": 7965,
      "Foxconn": 7966,
      "Systems": 7967,
      "710": 7968,
      "910": 7969,
      "940": 7970,
      "Cồn": 7971,
      "FS": 7972,
      "Farm": 7973,
      "KB": 7974,
      "KQ": 7975,
      "Tố": 7976,
      "ig": 7977,
      "jan": 7978,
      "rước": 7979,
      "xát": 7980,
      "quo": 7981,
      "SDG": 7982,
      "xuôi": 7983,
      "Nghe": 7984,
      "Magazine": 7985,
      "Seed": 7986,
      "Harvard": 7987,
      "Johnson": 7988,
      "showroom": 7989,
      "Linked": 7990,
      "Peru": 7991,
      "Fanpage": 7992,
      "Smile": 7993,
      "345": 7994,
      "Cook": 7995,
      "HỘI": 7996,
      "Kell": 7997,
      "MV": 7998,
      "Mine": 7999,
      "Qatar": 8000,
      "Tạm": 8001,
      "lửng": 8002,
      "ov": 8003,
      "sấu": 8004,
      "tista": 8005,
      "...).": 8006,
      "Luc": 8007,
      "256": 8008,
      "bum": 8009,
      "Vietbank": 8010,
      "264": 8011,
      "bour": 8012,
      "476": 8013,
      "PVC": 8014,
      "balife": 8015,
      "Para": 8016,
      "Plas": 8017,
      "VLA": 8018,
      "MOHO": 8019,
      "Sciences": 8020,
      "Virgi": 8021,
      "member": 8022,
      "Jakarta": 8023,
      "Cement": 8024,
      "Eri": 8025,
      "ECH": 8026,
      "FWD": 8027,
      "Jus": 8028,
      "Pfi": 8029,
      "Squa": 8030,
      "TĐ": 8031,
      "Tào": 8032,
      "fun": 8033,
      "iVI": 8034,
      "quây": 8035,
      "quyến": 8036,
      "Chắc": 8037,
      "191": 8038,
      "buồng": 8039,
      "uni": 8040,
      "090": 8041,
      "THẾ": 8042,
      "TNCS": 8043,
      "stablecoin": 8044,
      "kov": 8045,
      "Reddit": 8046,
      "Insider": 8047,
      "somware": 8048,
      "Louis": 8049,
      "protein": 8050,
      "laptop": 8051,
      "Pfizer": 8052,
      "iVIVU": 8053,
      "ASI": 8054,
      "BTS": 8055,
      "Coo": 8056,
      "Edu": 8057,
      "Fra": 8058,
      "Kas": 8059,
      "Sur": 8060,
      "VỀ": 8061,
      "eas": 8062,
      "gạt": 8063,
      "hãi": 8064,
      "lốc": 8065,
      "nắp": 8066,
      "rục": 8067,
      "vứt": 8068,
      "208": 8069,
      "Thú": 8070,
      "holding": 8071,
      "Tránh": 8072,
      "Trust": 8073,
      "quyện": 8074,
      "sour": 8075,
      "Nhãn": 8076,
      "concert": 8077,
      "NHẤT": 8078,
      "244": 8079,
      "icron": 8080,
      "068": 8081,
      "Rajeev": 8082,
      "shark": 8083,
      "GMD": 8084,
      "Univers": 8085,
      "Oscilla": 8086,
      "Electric": 8087,
      "Rapexco": 8088,
      "Oscillator": 8089,
      "+/": 8090,
      "1000": 8091,
      "2ha": 8092,
      "Càng": 8093,
      "Góc": 8094,
      "Mì": 8095,
      "Sand": 8096,
      "cướp": 8097,
      "hời": 8098,
      "sp": 8099,
      "ten": 8100,
      "Đúc": 8101,
      "đò": 8102,
      "đĩa": 8103,
      "ỜI": 8104,
      "nhặt": 8105,
      "1985": 8106,
      "BNN": 8107,
      "combo": 8108,
      "nix": 8109,
      "Bul": 8110,
      "Beau": 8111,
      "Taboo": 8112,
      "Morris": 8113,
      "Gemini": 8114,
      "TGĐ": 8115,
      "Kienlong": 8116,
      "ASOCIO": 8117,
      "Mirae": 8118,
      "Mazda": 8119,
      "Oracle": 8120,
      "+,": 8121,
      "Cử": 8122,
      "Gro": 8123,
      "Ký": 8124,
      "Pao": 8125,
      "Sp": 8126,
      "SAI": 8127,
      "Willi": 8128,
      "Xo": 8129,
      "mũ": 8130,
      "nụ": 8131,
      "chiên": 8132,
      "Thích": 8133,
      "tional": 8134,
      "raq": 8135,
      "dian": 8136,
      "eeding": 8137,
      "DIRE": 8138,
      "Shin": 8139,
      "caphe": 8140,
      "Liễu": 8141,
      "VPI": 8142,
      "xoa": 8143,
      "Phụng": 8144,
      "cherry": 8145,
      "Hurry": 8146,
      "Colombia": 8147,
      "(%)": 8148,
      "336": 8149,
      "510": 8150,
      "CII": 8151,
      "DỤ": 8152,
      "Dun": 8153,
      "Er": 8154,
      "Lối": 8155,
      "NAB": 8156,
      "Pte": 8157,
      "Tao": 8158,
      "play": 8159,
      "sỏi": 8160,
      "vợt": 8161,
      "vate": 8162,
      "đâm": 8163,
      "ẠT": 8164,
      "ẾU": 8165,
      "thục": 8166,
      "CMI": 8167,
      "chúa": 8168,
      "start": 8169,
      "276": 8170,
      "355": 8171,
      "Sabin": 8172,
      "Labs": 8173,
      "Capita": 8174,
      "CSQR": 8175,
      "BOC": 8176,
      "QH14": 8177,
      "Amkor": 8178,
      "Stochas": 8179,
      "Misa": 8180,
      "QLDA": 8181,
      "zuki": 8182,
      "NATO": 8183,
      "Impack": 8184,
      "Manila": 8185,
      "CapitaLand": 8186,
      "CSQRT": 8187,
      "CU": 8188,
      "Gau": 8189,
      "Hổ": 8190,
      "Hưởng": 8191,
      "Nm": 8192,
      "NASA": 8193,
      "Pana": 8194,
      "biếu": 8195,
      "run": 8196,
      "ÂM": 8197,
      "Trật": 8198,
      "vitamin": 8199,
      "1982": 8200,
      "teri": 8201,
      "Coca": 8202,
      "Mavis": 8203,
      "COP26": 8204,
      "Brun": 8205,
      "GELEX": 8206,
      "beco": 8207,
      "Oils": 8208,
      "drone": 8209,
      "Website": 8210,
      "211": 8211,
      "920": 8212,
      "Bur": 8213,
      "JE": 8214,
      "Mật": 8215,
      "Sc": 8216,
      "Stu": 8217,
      "SCM": 8218,
      "T3": 8219,
      "VII": 8220,
      "XL": 8221,
      "bướ": 8222,
      "een": 8223,
      "eda": 8224,
      "iá": 8225,
      "lúng": 8226,
      "mèo": 8227,
      "rã": 8228,
      "phác": 8229,
      "giòn": 8230,
      "Chờ": 8231,
      "1976": 8232,
      "ass": 8233,
      "241": 8234,
      "354": 8235,
      "455": 8236,
      "Hug": 8237,
      "342": 8238,
      "Conne": 8239,
      "ACool": 8240,
      "amillo": 8241,
      "ABACool": 8242,
      "vỏn": 8243,
      "Gutier": 8244,
      "Jaramillo": 8245,
      "William": 8246,
      "ABACooltrans": 8247,
      "Gutierrez": 8248,
      "5S": 8249,
      "AGM": 8250,
      "Bóng": 8251,
      "Cir": 8252,
      "CẦN": 8253,
      "Matt": 8254,
      "RK": 8255,
      "VGI": 8256,
      "gre": 8257,
      "kè": 8258,
      "mươi": 8259,
      "tạ": 8260,
      "xở": 8261,
      "phồng": 8262,
      "giò": 8263,
      "Thy": 8264,
      "amp": 8265,
      "tio": 8266,
      "rals": 8267,
      "Quần": 8268,
      "rian": 8269,
      "Nguyen": 8270,
      "239": 8271,
      "CBBank": 8272,
      "Shar": 8273,
      "391": 8274,
      "Cuba": 8275,
      "PCI": 8276,
      "Hyatt": 8277,
      "Serge": 8278,
      "Venture": 8279,
      "ylon": 8280,
      "Four": 8281,
      "Medical": 8282,
      "----------------": 8283,
      "Windows": 8284,
      "Stochastic": 8285,
      "\"...": 8286,
      "1ha": 8287,
      "4h30": 8288,
      "684": 8289,
      "Cze": 8290,
      "Den": 8291,
      "Gh": 8292,
      "GSM": 8293,
      "HỢ": 8294,
      "MDR": 8295,
      "Rames": 8296,
      "Tuyệt": 8297,
      "Wan": 8298,
      "Yama": 8299,
      "sòng": 8300,
      "ura": 8301,
      "we": 8302,
      "Thức": 8303,
      "house": 8304,
      "mus": 8305,
      "Nhôm": 8306,
      "22h": 8307,
      "263": 8308,
      "3848": 8309,
      "ppon": 8310,
      "oshi": 8311,
      "Price": 8312,
      "enny": 8313,
      "Software": 8314,
      "four": 8315,
      "Fried": 8316,
      "Czech": 8317,
      "HỢP": 8318,
      "MDRT": 8319,
      "Ramesh": 8320,
      "334": 8321,
      "5h": 8322,
      "Bàu": 8323,
      "CĐT": 8324,
      "EBIT": 8325,
      "REU": 8326,
      "bở": 8327,
      "flo": 8328,
      "rũ": 8329,
      "vựa": 8330,
      "ĐỨC": 8331,
      "thối": 8332,
      "10K": 8333,
      "ester": 8334,
      "243": 8335,
      "VinUni": 8336,
      "VinRobotics": 8337,
      "Loa": 8338,
      "iko": 8339,
      "EUDR": 8340,
      "Bio": 8341,
      "podcast": 8342,
      "ilever": 8343,
      "Unilever": 8344,
      "Steve": 8345,
      "LIÊN": 8346,
      "PHÁP": 8347,
      "TERS": 8348,
      "Grac": 8349,
      "Estée": 8350,
      "Whats": 8351,
      "Minerals": 8352,
      "Lucence": 8353,
      "REUTERS": 8354,
      "Bir": 8355,
      "Cáp": 8356,
      "EG": 8357,
      "NX": 8358,
      "Opp": 8359,
      "TẾ": 8360,
      "Vĩ": 8361,
      "gal": 8362,
      "².": 8363,
      "đinh": 8364,
      "ngửa": 8365,
      "trặc": 8366,
      "khiếm": 8367,
      "dol": 8368,
      "303": 8369,
      "rit": 8370,
      "riz": 8371,
      "1988": 8372,
      "uman": 8373,
      "05S": 8374,
      "394": 8375,
      "TRE": 8376,
      "Marathon": 8377,
      "Generali": 8378,
      "UBTV": 8379,
      "Arnaud": 8380,
      "gnature": 8381,
      "LinkedIn": 8382,
      "Justin": 8383,
      "DỤNG": 8384,
      "412": 8385,
      "590": 8386,
      "HK": 8387,
      "JPM": 8388,
      "Nút": 8389,
      "PLX": 8390,
      "Rạng": 8391,
      "Sri": 8392,
      "Sếp": 8393,
      "Well": 8394,
      "gắm": 8395,
      "hả": 8396,
      "ple": 8397,
      "zero": 8398,
      "ngón": 8399,
      "chánh": 8400,
      "phan": 8401,
      "hàu": 8402,
      "tos": 8403,
      "muỗi": 8404,
      "NHỮNG": 8405,
      "ound": 8406,
      "483": 8407,
      "CC1": 8408,
      "882": 8409,
      "pero": 8410,
      "BVMT": 8411,
      "OMO": 8412,
      "FERI": 8413,
      "Pep": 8414,
      "Metals": 8415,
      "Hills": 8416,
      "Western": 8417,
      "7h": 8418,
      "Cài": 8419,
      "LỚ": 8420,
      "PE": 8421,
      "XI": 8422,
      "lót": 8423,
      "lượn": 8424,
      "nải": 8425,
      "sc": 8426,
      "ÃI": 8427,
      "chùm": 8428,
      "Ngã": 8429,
      "tou": 8430,
      "186": 8431,
      "284": 8432,
      "069": 8433,
      "3943": 8434,
      "ĐTĐL": 8435,
      "dec": 8436,
      "TRỌNG": 8437,
      "desk": 8438,
      "180CST": 8439,
      "face": 8440,
      "HFIC": 8441,
      "graph": 8442,
      "Equity": 8443,
      "Vissan": 8444,
      "Fraser": 8445,
      "316": 8446,
      "425": 8447,
      "Kum": 8448,
      "Mái": 8449,
      "MCH": 8450,
      "Pano": 8451,
      "Say": 8452,
      "Tặng": 8453,
      "VJC": 8454,
      "hò": 8455,
      "met": 8456,
      "mún": 8457,
      "đao": 8458,
      "ẤP": 8459,
      "ẾP": 8460,
      "choáng": 8461,
      "logis": 8462,
      "khuấy": 8463,
      "conduc": 8464,
      "199": 8465,
      "And": 8466,
      "292": 8467,
      "Cola": 8468,
      "366": 8469,
      "osa": 8470,
      "Ageas": 8471,
      "Beach": 8472,
      "Deal": 8473,
      "ĐBQH": 8474,
      "Guo": 8475,
      "Guar": 8476,
      "Heal": 8477,
      "Bern": 8478,
      "Chanut": 8479,
      "Tencent": 8480,
      "Semiconduc": 8481,
      "funding": 8482,
      "JPMorgan": 8483,
      "Semiconductor": 8484,
      "512": 8485,
      "Căng": 8486,
      "Cry": 8487,
      "Disco": 8488,
      "Ecua": 8489,
      "Ox": 8490,
      "PL": 8491,
      "PR": 8492,
      "Tà": 8493,
      "ness": 8494,
      "sil": 8495,
      "văng": 8496,
      "Đâu": 8497,
      "ổng": 8498,
      "Phở": 8499,
      "Nhắc": 8500,
      "visor": 8501,
      "bush": 8502,
      "lũa": 8503,
      "very": 8504,
      "ECI": 8505,
      "media": 8506,
      "Manu": 8507,
      "wide": 8508,
      "Square": 8509,
      "Health": 8510,
      "2m": 8511,
      "318": 8512,
      "BKS": 8513,
      "Dar": 8514,
      "Ghan": 8515,
      "Hết": 8516,
      "IPC": 8517,
      "Nat": 8518,
      "Túi": 8519,
      "axit": 8520,
      "bôi": 8521,
      "kar": 8522,
      "nylon": 8523,
      "pos": 8524,
      "rập": 8525,
      "tạng": 8526,
      "vôi": 8527,
      "ön": 8528,
      "ĐỂ": 8529,
      "Đắc": 8530,
      "nhức": 8531,
      "nhúng": 8532,
      "Ngà": 8533,
      "1250": 8534,
      "ricular": 8535,
      "orp": 8536,
      "100km": 8537,
      "278": 8538,
      "SEO": 8539,
      "THÔNG": 8540,
      "347": 8541,
      "371": 8542,
      "333": 8543,
      "EUR": 8544,
      "TNMT": 8545,
      "Pack": 8546,
      "Carter": 8547,
      "mith": 8548,
      "Krông": 8549,
      "curricular": 8550,
      "Extracurricular": 8551,
      "terials": 8552,
      "Ecuador": 8553,
      "Ghanem": 8554,
      "416": 8555,
      "Bê": 8556,
      "Fly": 8557,
      "Gà": 8558,
      "Iraq": 8559,
      "Kiển": 8560,
      "NĐT": 8561,
      "dd": 8562,
      "dge": 8563,
      "fé": 8564,
      "ném": 8565,
      "ÊU": 8566,
      "Nhạc": 8567,
      "die": 8568,
      "roco": 8569,
      "Luỹ": 8570,
      "259": 8571,
      "NGÀY": 8572,
      "Thuduc": 8573,
      "Model": 8574,
      "378": 8575,
      "Materials": 8576,
      "HDC": 8577,
      "MST": 8578,
      "Pub": 8579,
      "Griff": 8580,
      "hotline": 8581,
      "Meliá": 8582,
      "tainment": 8583,
      "WhatsApp": 8584,
      "840": 8585,
      "Ala": 8586,
      "BÁO": 8587,
      "FV": 8588,
      "HCV": 8589,
      "Il": 8590,
      "Jr": 8591,
      "Sung": 8592,
      "Snap": 8593,
      "VĐV": 8594,
      "dũng": 8595,
      "gr": 8596,
      "iPad": 8597,
      "rủ": 8598,
      "vú": 8599,
      "ÁNH": 8600,
      "ựt": 8601,
      "nhỉnh": 8602,
      "choi": 8603,
      "dis": 8604,
      "302": 8605,
      "Hol": 8606,
      "cola": 8607,
      "223": 8608,
      "venue": 8609,
      "TikToker": 8610,
      "Accor": 8611,
      "Oilprice": 8612,
      "BSC": 8613,
      "CẦU": 8614,
      "Hào": 8615,
      "Kw": 8616,
      "Kur": 8617,
      "Láng": 8618,
      "Pen": 8619,
      "Rat": 8620,
      "Sus": 8621,
      "cia": 8622,
      "ctor": 8623,
      "fre": 8624,
      "glo": 8625,
      "sedan": 8626,
      "xé": 8627,
      "đống": 8628,
      "ngưởng": 8629,
      "ngẫm": 8630,
      "trù": 8631,
      "khỉ": 8632,
      "quấy": 8633,
      "rage": 8634,
      "Pha": 8635,
      "Nhựt": 8636,
      "tube": 8637,
      "TPA": 8638,
      "album": 8639,
      "visa": 8640,
      "Thuý": 8641,
      "234": 8642,
      "banking": 8643,
      "266": 8644,
      "nhờn": 8645,
      "SGT": 8646,
      "CHỨNG": 8647,
      "boff": 8648,
      "VFA": 8649,
      "nie": 8650,
      "kềnh": 8651,
      "motive": 8652,
      "PAG": 8653,
      "Kid": 8654,
      "Herbalife": 8655,
      "Pollo": 8656,
      "NextTech": 8657,
      "AGRI": 8658,
      "495": 8659,
      "A330": 8660,
      "Bát": 8661,
      "Cầm": 8662,
      "Ele": 8663,
      "Gỡ": 8664,
      "H2": 8665,
      "Line": 8666,
      "PBOC": 8667,
      "bn": 8668,
      "hiền": 8669,
      "lama": 8670,
      "lén": 8671,
      "mông": 8672,
      "vòm": 8673,
      "ăk": 8674,
      "thớt": 8675,
      "chao": 8676,
      "Thani": 8677,
      "thun": 8678,
      "Qui": 8679,
      "Kha": 8680,
      "alys": 8681,
      "lina": 8682,
      "14h": 8683,
      "248": 8684,
      "lie": 8685,
      "0977": 8686,
      "pple": 8687,
      "777": 8688,
      "ransomware": 8689,
      "666": 8690,
      "VCCorp": 8691,
      "Taxi": 8692,
      "Eurozone": 8693,
      "Kido": 8694,
      "UNDP": 8695,
      "Hilton": 8696,
      "338": 8697,
      "429": 8698,
      "Bếp": 8699,
      "BSI": 8700,
      "Clin": 8701,
      "Der": 8702,
      "Fold": 8703,
      "Mấy": 8704,
      "Mạc": 8705,
      "S3": 8706,
      "Tang": 8707,
      "Vé": 8708,
      "gang": 8709,
      "vác": 8710,
      "váy": 8711,
      "tis": 8712,
      "back": 8713,
      "ilia": 8714,
      "learning": 8715,
      "lick": 8716,
      "iku": 8717,
      "Sign": 8718,
      "Nippon": 8719,
      "pickleball": 8720,
      "Future": 8721,
      "Barry": 8722,
      "Panote": 8723,
      "484": 8724,
      "Dừa": 8725,
      "HSC": 8726,
      "IDI": 8727,
      "Map": 8728,
      "MAS": 8729,
      "Pink": 8730,
      "SỰ": 8731,
      "Swi": 8732,
      "VTRE": 8733,
      "mỳ": 8734,
      "tản": 8735,
      "var": 8736,
      "through": 8737,
      "Phil": 8738,
      "tur": 8739,
      "Khát": 8740,
      "Vietcap": 8741,
      "HĐXX": 8742,
      "TIẾP": 8743,
      "TRA": 8744,
      "Ripple": 8745,
      "Bob": 8746,
      "Hybrid": 8747,
      "Sona": 8748,
      "SBT": 8749,
      "VÀO": 8750,
      "XUÂN": 8751,
      "nuối": 8752,
      "FiinGroup": 8753,
      "Fitch": 8754,
      "Quoc": 8755,
      "Pleiku": 8756,
      "Education": 8757,
      "335": 8758,
      "7km": 8759,
      "827": 8760,
      "Asian": 8761,
      "Bỏ": 8762,
      "G7": 8763,
      "HG": 8764,
      "Num": 8765,
      "Tôm": 8766,
      "Wealth": 8767,
      "diệu": 8768,
      "ira": 8769,
      "spin": 8770,
      "seeding": 8771,
      "vã": 8772,
      "vance": 8773,
      "ỊCH": 8774,
      "ỘT": 8775,
      "chài": 8776,
      "chôm": 8777,
      "cóc": 8778,
      "eni": 8779,
      "cuồng": 8780,
      "orn": 8781,
      "apo": 8782,
      "Tur": 8783,
      "Toán": 8784,
      "091": 8785,
      "Biz": 8786,
      "VFS": 8787,
      "CSR": 8788,
      "state": 8789,
      "Signature": 8790,
      "Saigonbank": 8791,
      "CIEM": 8792,
      "guboff": 8793,
      "MAX": 8794,
      "Triguboff": 8795,
      "Investments": 8796,
      "ƯỢC": 8797,
      "Messenger": 8798,
      "Break": 8799,
      "Swift": 8800,
      "312": 8801,
      "465": 8802,
      "655": 8803,
      "AWS": 8804,
      "Blu": 8805,
      "Card": 8806,
      "FDA": 8807,
      "Jew": 8808,
      "JPY": 8809,
      "LỢ": 8810,
      "More": 8811,
      "Mail": 8812,
      "Nuôi": 8813,
      "Plông": 8814,
      "dăm": 8815,
      "py": 8816,
      "tòi": 8817,
      "zen": 8818,
      "Đậu": 8819,
      "down": 8820,
      "11h": 8821,
      "alle": 8822,
      "Savan": 8823,
      "Liu": 8824,
      "resh": 8825,
      "Lei": 8826,
      "APAC": 8827,
      "Brin": 8828,
      "html": 8829,
      "Premier": 8830,
      "Yeah": 8831,
      "Touch": 8832,
      "Napas": 8833,
      "Spirit": 8834,
      "Computer": 8835,
      "Yamaha": 8836,
      "820": 8837,
      "890": 8838,
      "930": 8839,
      "Bike": 8840,
      "Fe": 8841,
      "HÀ": 8842,
      "Lâu": 8843,
      "Mại": 8844,
      "Smith": 8845,
      "VDS": 8846,
      "Yoo": 8847,
      "cầy": 8848,
      "hăng": 8849,
      "uture": 8850,
      "wat": 8851,
      "hon": 8852,
      "cont": 8853,
      "imco": 8854,
      "SECC": 8855,
      "Campero": 8856,
      "461": 8857,
      "PHÙNG": 8858,
      "MICE": 8859,
      "pop": 8860,
      "McCal": 8861,
      "Osaka": 8862,
      "IBM": 8863,
      "BLLĐ": 8864,
      "khuynh": 8865,
      "Office": 8866,
      "Geleximco": 8867,
      "DWT": 8868,
      "LỢI": 8869,
      "McCaleb": 8870,
      "\":": 8871,
      "928": 8872,
      "Bol": 8873,
      "CTS": 8874,
      "CRE": 8875,
      "Port": 8876,
      "TỶ": 8877,
      "TẠO": 8878,
      "VT": 8879,
      "Vọng": 8880,
      "bra": 8881,
      "flu": 8882,
      "arus": 8883,
      "xel": 8884,
      "vic": 8885,
      "14K": 8886,
      "lis": 8887,
      "351": 8888,
      "Họp": 8889,
      "rest": 8890,
      "Tina": 8891,
      "nick": 8892,
      "IỆM": 8893,
      "DXS": 8894,
      "Union": 8895,
      "ƯỚNG": 8896,
      "ĐOÀN": 8897,
      "CHUYỂN": 8898,
      "Oregon": 8899,
      "LỚN": 8900,
      "Jewel": 8901,
      "224": 8902,
      "3km": 8903,
      "640": 8904,
      "826": 8905,
      "A1": 8906,
      "Axi": 8907,
      "BỘ": 8908,
      "BÁN": 8909,
      "CTP": 8910,
      "CSGT": 8911,
      "DV": 8912,
      "NƯỚC": 8913,
      "TAS": 8914,
      "WHA": 8915,
      "Xung": 8916,
      "hung": 8917,
      "mè": 8918,
      "mồng": 8919,
      "med": 8920,
      "pool": 8921,
      "ski": 8922,
      "viền": 8923,
      "vắt": 8924,
      "Út": 8925,
      "”?": 8926,
      "thong": 8927,
      "giáng": 8928,
      "Phiếu": 8929,
      "sov": 8930,
      "đôla": 8931,
      "093": 8932,
      "lưỡi": 8933,
      "473": 8934,
      "Livestream": 8935,
      "VPSA": 8936,
      "Archi": 8937,
      "Choi": 8938,
      "Quanta": 8939,
      "Ishi": 8940,
      "Adam": 8941,
      "nhouse": 8942,
      "Coindesk": 8943,
      "Milano": 8944,
      "mons": 8945,
      "Highland": 8946,
      "Industrial": 8947,
      "Yeah1": 8948,
      "Dùng": 8949,
      "Nico": 8950,
      "NĂNG": 8951,
      "Ran": 8952,
      "Waste": 8953,
      "YTL": 8954,
      "gối": 8955,
      "ian": 8956,
      "lật": 8957,
      "mí": 8958,
      "nm": 8959,
      "stu": 8960,
      "sừng": 8961,
      "watt": 8962,
      "Đấy": 8963,
      "ngòi": 8964,
      "uyễn": 8965,
      "Trai": 8966,
      "ayak": 8967,
      "Giữ": 8968,
      "Nhẫn": 8969,
      "lot": 8970,
      "293": 8971,
      "281": 8972,
      "274": 8973,
      "VIP": 8974,
      "395": 8975,
      "Airline": 8976,
      "force": 8977,
      "REIT": 8978,
      "ABS": 8979,
      "Private": 8980,
      "STEM": 8981,
      "Jean": 8982,
      "Automotive": 8983,
      "Simmons": 8984,
      "Buyo": 8985,
      "Kelly": 8986,
      "411": 8987,
      "Biết": 8988,
      "BKHCN": 8989,
      "Cắt": 8990,
      "Cake": 8991,
      "ECO": 8992,
      "Games": 8993,
      "Gyu": 8994,
      "Hun": 8995,
      "Ia": 8996,
      "ICA": 8997,
      "KĐT": 8998,
      "Măng": 8999,
      "Nêu": 9000,
      "OF": 9001,
      "SS": 9002,
      "Sính": 9003,
      "cẩu": 9004,
      "edi": 9005,
      "nốt": 9006,
      "tróc": 9007,
      "giang": 9008,
      "Chiết": 9009,
      "esh": 9010,
      "emo": 9011,
      "Shan": 9012,
      "444": 9013,
      "Meet": 9014,
      "Produ": 9015,
      "Platform": 9016,
      "FAA": 9017,
      "tuabin": 9018,
      "ABBANK": 9019,
      "Tyson": 9020,
      "SCMP": 9021,
      "2km": 9022,
      "C2": 9023,
      "Glass": 9024,
      "Llama": 9025,
      "Mỗ": 9026,
      "Ray": 9027,
      "Thiệu": 9028,
      "Xí": 9029,
      "bừng": 9030,
      "rườm": 9031,
      "uốn": 9032,
      "vy": 9033,
      "ÂY": 9034,
      "Đèn": 9035,
      "ngậm": 9036,
      "nhuyễn": 9037,
      "thuở": 9038,
      "rack": 9039,
      "Gió": 9040,
      "eric": 9041,
      "TPG": 9042,
      "Thuần": 9043,
      "upe": 9044,
      "269": 9045,
      "ats": 9046,
      "453": 9047,
      "Los": 9048,
      "isa": 9049,
      "VIE": 9050,
      "VICO": 9051,
      "mad": 9052,
      "Moon": 9053,
      "Seng": 9054,
      "VinFuture": 9055,
      "Arena": 9056,
      "Pinduo": 9057,
      "niken": 9058,
      "Binance": 9059,
      "Pinduoduo": 9060,
      "%”,": 9061,
      "5000": 9062,
      "7ha": 9063,
      "Avenue": 9064,
      "Bess": 9065,
      "IEA": 9066,
      "Mất": 9067,
      "Nest": 9068,
      "SẼ": 9069,
      "SƯỞNG": 9070,
      "Ung": 9071,
      "WSJ": 9072,
      "Xưởng": 9073,
      "cre": 9074,
      "dì": 9075,
      "hee": 9076,
      "ot": 9077,
      "sú": 9078,
      "ÁNG": 9079,
      "Đương": 9080,
      "đụng": 9081,
      "ais": 9082,
      "1974": 9083,
      "Luxury": 9084,
      "hara": 9085,
      "comBank": 9086,
      "273": 9087,
      "452": 9088,
      "385": 9089,
      "886": 9090,
      "KHU": 9091,
      "AgriS": 9092,
      "Nobu": 9093,
      "Advisor": 9094,
      "Impact": 9095,
      "EVNGENCO": 9096,
      "313": 9097,
      "322": 9098,
      "784": 9099,
      "Eu": 9100,
      "Fast": 9101,
      "Kel": 9102,
      "LƯỢNG": 9103,
      "Mr": 9104,
      "Sas": 9105,
      "Sớm": 9106,
      "Tế": 9107,
      "TMT": 9108,
      "bit": 9109,
      "fit": 9110,
      "fast": 9111,
      "iz": 9112,
      "lọ": 9113,
      "pan": 9114,
      "Ái": 9115,
      "ẹo": 9116,
      "chần": 9117,
      "Chữ": 9118,
      "Nhanh": 9119,
      "1981": 9120,
      "eway": 9121,
      "277": 9122,
      "092": 9123,
      "344": 9124,
      "Sabeco": 9125,
      "468": 9126,
      "Elli": 9127,
      "Harry": 9128,
      "Steam": 9129,
      "KIS": 9130,
      "Thomson": 9131,
      "Eagle": 9132,
      "Atlan": 9133,
      "Huggies": 9134,
      "green": 9135,
      "EBITDA": 9136,
      "060": 9137,
      "447": 9138,
      "565": 9139,
      "970": 9140,
      "Ce": 9141,
      "Core": 9142,
      "Cua": 9143,
      "FP": 9144,
      "HỒNG": 9145,
      "Màu": 9146,
      "Rang": 9147,
      "Tiện": 9148,
      "VỤ": 9149,
      "hran": 9150,
      "mili": 9151,
      "ola": 9152,
      "sướng": 9153,
      "zz": 9154,
      "zza": 9155,
      "ƯT": 9156,
      "hor": 9157,
      "Chậm": 9158,
      "Khấu": 9159,
      "TPCP": 9160,
      "commerce": 9161,
      "star": 9162,
      "0865": 9163,
      "ander": 9164,
      "Tehran": 9165,
      "382": 9166,
      "iki": 9167,
      "cafe": 9168,
      "CHỈ": 9169,
      "488": 9170,
      "ffilia": 9171,
      "Davos": 9172,
      "Supha": 9173,
      "CSX": 9174,
      "Stephen": 9175,
      "Baochinhphu": 9176,
      "cook": 9177,
      "OIL": 9178,
      "Wonder": 9179,
      "George": 9180,
      "5451": 9181,
      "SXKD": 9182,
      "39431250": 9183,
      "logistic": 9184,
      "ffiliate": 9185,
      "Suphajee": 9186,
      "319": 9187,
      "765": 9188,
      "787": 9189,
      "AZ": 9190,
      "Hô": 9191,
      "LIỆU": 9192,
      "Màn": 9193,
      "Mul": 9194,
      "Scho": 9195,
      "T2": 9196,
      "TCM": 9197,
      "Xương": 9198,
      "cúp": 9199,
      "dặt": 9200,
      "foun": 9201,
      "gem": 9202,
      "gani": 9203,
      "king": 9204,
      "lặn": 9205,
      "nt": 9206,
      "nức": 9207,
      "nón": 9208,
      "Ăn": 9209,
      "20h": 9210,
      "1977": 9211,
      "Viess": 9212,
      "ely": 9213,
      "16h": 9214,
      "Thuỵ": 9215,
      "097": 9216,
      "393": 9217,
      "374": 9218,
      "Law": 9219,
      "888": 9220,
      "Arti": 9221,
      "PPI": 9222,
      "AFF": 9223,
      "wagen": 9224,
      "Milk": 9225,
      "Volks": 9226,
      "ASIC": 9227,
      "Jewelry": 9228,
      "Viessmann": 9229,
      "Volkswagen": 9230,
      "448": 9231,
      "533": 9232,
      "AG": 9233,
      "APG": 9234,
      "Biện": 9235,
      "JLL": 9236,
      "MỘT": 9237,
      "RMIT": 9238,
      "Sẵn": 9239,
      "TỔ": 9240,
      "VCG": 9241,
      "Za": 9242,
      "Zhu": 9243,
      "lươn": 9244,
      "less": 9245,
      "rô": 9246,
      "tỏi": 9247,
      "tùm": 9248,
      "vá": 9249,
      "tulip": 9250,
      "aris": 9251,
      "Vico": 9252,
      "Vita": 9253,
      "261": 9254,
      "pping": 9255,
      "Made": 9256,
      "442": 9257,
      "Cassi": 9258,
      "Industry": 9259,
      "NSƯT": 9260,
      "PYN": 9261,
      "Ryan": 9262,
      "TÍN": 9263,
      "brand": 9264,
      "EraBlue": 9265,
      "Ayala": 9266,
      "Angeles": 9267,
      "SDGs": 9268,
      "Breakthrough": 9269,
      "founder": 9270,
      "+)": 9271,
      "0118": 9272,
      "317": 9273,
      "401": 9274,
      "689": 9275,
      "East": 9276,
      "Estate": 9277,
      "HÀNH": 9278,
      "KẾT": 9279,
      "NC": 9280,
      "TCT": 9281,
      "Xê": 9282,
      "ez": 9283,
      "náo": 9284,
      "vầy": 9285,
      "ïtë": 9286,
      "ûún": 9287,
      "Trầm": 9288,
      "Trail": 9289,
      "Quí": 9290,
      "Nhị": 9291,
      "cưng": 9292,
      "Anth": 9293,
      "287": 9294,
      "Toà": 9295,
      "SGO": 9296,
      "Back": 9297,
      "MBA": 9298,
      "Capgem": 9299,
      "PGD": 9300,
      "sonic": 9301,
      "Vía": 9302,
      "đuối": 9303,
      "Big4": 9304,
      "basa": 9305,
      "Statista": 9306,
      "Basel": 9307,
      "Bessent": 9308,
      "Cassidy": 9309,
      "Capgemini": 9310,
      "%…": 9311,
      "339": 9312,
      "575": 9313,
      "Ace": 9314,
      "Cl": 9315,
      "Foo": 9316,
      "Ger": 9317,
      "Leo": 9318,
      "MẠNH": 9319,
      "Niên": 9320,
      "RAM": 9321,
      "R0118": 9322,
      "Sóng": 9323,
      "Tần": 9324,
      "UF": 9325,
      "eBay": 9326,
      "vặt": 9327,
      "vót": 9328,
      "ỐN": 9329,
      "ỘC": 9330,
      "ngấm": 9331,
      "khstan": 9332,
      "Thẫm": 9333,
      "Giúp": 9334,
      "tỉa": 9335,
      "30A": 9336,
      "chum": 9337,
      "1930": 9338,
      "iah": 9339,
      "cụt": 9340,
      "705": 9341,
      "389": 9342,
      "84A": 9343,
      "84C": 9344,
      "Chubb": 9345,
      "ROA": 9346,
      "671": 9347,
      "zakhstan": 9348,
      "81A": 9349,
      "key": 9350,
      "market": 9351,
      "shipper": 9352,
      "Guat": 9353,
      "prop": 9354,
      "Kazakhstan": 9355,
      "CVV": 9356,
      "ïnå": 9357,
      "IATA": 9358,
      "slot": 9359,
      "Griffith": 9360,
      "Number": 9361,
      "vanced": 9362,
      "Touchstone": 9363,
      "R011838": 9364,
      "902": 9365,
      "Bội": 9366,
      "Brow": 9367,
      "Dây": 9368,
      "EPA": 9369,
      "Lil": 9370,
      "LNTT": 9371,
      "SÁCH": 9372,
      "Tồn": 9373,
      "VGC": 9374,
      "cis": 9375,
      "eff": 9376,
      "đắng": 9377,
      "nhọc": 9378,
      "1983": 9379,
      "503": 9380,
      "lah": 9381,
      "Thuốc": 9382,
      "itte": 9383,
      "liance": 9384,
      "605": 9385,
      "CON": 9386,
      "462": 9387,
      "MBV": 9388,
      "BHNN": 9389,
      "huỳnh": 9390,
      "HAH": 9391,
      "Economic": 9392,
      "HBM": 9393,
      "University": 9394,
      "+/-": 9395,
      "399": 9396,
      "525": 9397,
      "6m": 9398,
      "Cậu": 9399,
      "Dải": 9400,
      "Hel": 9401,
      "Spo": 9402,
      "Zhao": 9403,
      "let": 9404,
      "nôi": 9405,
      "tex": 9406,
      "ÍCH": 9407,
      "ìa": 9408,
      "trói": 9409,
      "gio": 9410,
      "amco": 9411,
      "Trảng": 9412,
      "rove": 9413,
      "1984": 9414,
      "362": 9415,
      "care": 9416,
      "598": 9417,
      "Robot": 9418,
      "Aramco": 9419,
      "ska": 9420,
      "LEGO": 9421,
      "with": 9422,
      "THUẾ": 9423,
      "ault": 9424,
      "Larry": 9425,
      "Beauty": 9426,
      "KienlongBank": 9427,
      "Panasonic": 9428,
      "facebook": 9429,
      "VICOFA": 9430,
      "585": 9431,
      "632": 9432,
      "A4": 9433,
      "A321": 9434,
      "BXD": 9435,
      "JO": 9436,
      "Kra": 9437,
      "Momo": 9438,
      "Out": 9439,
      "arabica": 9440,
      "fest": 9441,
      "hận": 9442,
      "sạ": 9443,
      "tå": 9444,
      "xốp": 9445,
      "kha": 9446,
      "Tru": 9447,
      "Hor": 9448,
      "Tool": 9449,
      "454": 9450,
      "369": 9451,
      "486": 9452,
      "Biti": 9453,
      "Prodezi": 9454,
      "FiT": 9455,
      "lection": 9456,
      "Complex": 9457,
      "Mangrove": 9458,
      "Talent": 9459,
      "General": 9460,
      "Pepsi": 9461,
      "Frasers": 9462,
      "327": 9463,
      "446": 9464,
      "713": 9465,
      "?;": 9466,
      "?\",": 9467,
      "?\".": 9468,
      "Cẩn": 9469,
      "EGM": 9470,
      "Gai": 9471,
      "Hera": 9472,
      "Kẻ": 9473,
      "Miếu": 9474,
      "Sale": 9475,
      "Tak": 9476,
      "Vay": 9477,
      "bọt": 9478,
      "diều": 9479,
      "lứt": 9480,
      "pla": 9481,
      "pris": 9482,
      "silicon": 9483,
      "yan": 9484,
      "ẶT": 9485,
      "thốn": 9486,
      "phốt": 9487,
      "loitte": 9488,
      "304": 9489,
      "1987": 9490,
      "Vien": 9491,
      "Bandon": 9492,
      "Toshi": 9493,
      "271": 9494,
      "272": 9495,
      "liêng": 9496,
      "Forum": 9497,
      "396": 9498,
      "gacy": 9499,
      "657": 9500,
      "564": 9501,
      "technolo": 9502,
      "Adrian": 9503,
      "Johan": 9504,
      "Morning": 9505,
      "Asso": 9506,
      "Organi": 9507,
      "Chanin": 9508,
      "Của": 9509,
      "Victo": 9510,
      "Matth": 9511,
      "HANOI": 9512,
      "Vikki": 9513,
      "Dunes": 9514,
      "Sergey": 9515,
      "study": 9516,
      "miligam": 9517,
      "445": 9518,
      "535": 9519,
      "634": 9520,
      "919": 9521,
      "Bính": 9522,
      "Blink": 9523,
      "CW": 9524,
      "Dal": 9525,
      "Fal": 9526,
      "FID": 9527,
      "Jong": 9528,
      "Mộng": 9529,
      "Mum": 9530,
      "MXH": 9531,
      "NFL": 9532,
      "Som": 9533,
      "VMS": 9534,
      "hal": 9535,
      "nương": 9536,
      "nành": 9537,
      "nel": 9538,
      "ẮC": 9539,
      "ụn": 9540,
      "chắt": 9541,
      "trũng": 9542,
      "pharm": 9543,
      "iểng": 9544,
      "Thử": 9545,
      "Tháo": 9546,
      "Thòn": 9547,
      "Thôn": 9548,
      "TTH": 9549,
      "emala": 9550,
      "283": 9551,
      "cky": 9552,
      "Vinfast": 9553,
      "Shang": 9554,
      "mati": 9555,
      "irst": 9556,
      "441": 9557,
      "TOÀN": 9558,
      "BOE": 9559,
      "Advanced": 9560,
      "sorts": 9561,
      "NGHỆ": 9562,
      "Mont": 9563,
      "Chinhphu": 9564,
      "Millen": 9565,
      "Guatemala": 9566,
      "prises": 9567,
      "515": 9568,
      "541": 9569,
      "694": 9570,
      "911": 9571,
      "Feli": 9572,
      "Fred": 9573,
      "JM": 9574,
      "Món": 9575,
      "Nina": 9576,
      "Rim": 9577,
      "Wh": 9578,
      "má": 9579,
      "múi": 9580,
      "meta": 9581,
      "tê": 9582,
      "vùi": 9583,
      "ỏm": 9584,
      "giacaphe": 9585,
      "ima": 9586,
      "cep": 9587,
      "VietJet": 9588,
      "291": 9589,
      "384": 9590,
      "555": 9591,
      "557": 9592,
      "482": 9593,
      "Airbn": 9594,
      "562": 9595,
      "size": 9596,
      "Short": 9597,
      "Vinacon": 9598,
      "Deloitte": 9599,
      "Lyn": 9600,
      "Edmicro": 9601,
      "Waterpoint": 9602,
      "worth": 9603,
      "NMĐ": 9604,
      "Wenfeng": 9605,
      "Colum": 9606,
      "igus": 9607,
      "Acecook": 9608,
      "Mumbai": 9609,
      "Airbnb": 9610,
      "475": 9611,
      "639": 9612,
      "845": 9613,
      "?\"": 9614,
      "BQL": 9615,
      "Clau": 9616,
      "Gừng": 9617,
      "IDP": 9618,
      "JD": 9619,
      "PDD": 9620,
      "Vươn": 9621,
      "VỰC": 9622,
      "cội": 9623,
      "hard": 9624,
      "nấy": 9625,
      "nano": 9626,
      "râm": 9627,
      "ĐỀ": 9628,
      "Đam": 9629,
      "Đôn": 9630,
      "ĐIỀU": 9631,
      "ẢNG": 9632,
      "Ổn": 9633,
      "cháo": 9634,
      "chart": 9635,
      "khiếp": 9636,
      "phia": 9637,
      "Nhàn": 9638,
      "lino": 9639,
      "NGÀNH": 9640,
      "TSC": 9641,
      "MoU": 9642,
      "Seiko": 9643,
      "IMA": 9644,
      "appy": 9645,
      "————————————————": 9646,
      "GDĐT": 9647,
      "Gautam": 9648,
      "Circle": 9649,
      "alysis": 9650,
      "IDICO": 9651,
      "cision": 9652,
      "311": 9653,
      "329": 9654,
      "Adi": 9655,
      "Bền": 9656,
      "Cat": 9657,
      "DF": 9658,
      "Dần": 9659,
      "HAI": 9660,
      "HƯỚNG": 9661,
      "Happy": 9662,
      "ISC": 9663,
      "Lầu": 9664,
      "Micron": 9665,
      "Nỗi": 9666,
      "Pres": 9667,
      "Vệ": 9668,
      "Wood": 9669,
      "Xero": 9670,
      "dôi": 9671,
      "dama": 9672,
      "hộc": 9673,
      "mb": 9674,
      "mương": 9675,
      "néo": 9676,
      "Đáy": 9677,
      "đùn": 9678,
      "ếm": 9679,
      "ngóc": 9680,
      "charm": 9681,
      "phai": 9682,
      "Thiền": 9683,
      "SDĐ": 9684,
      "ert": 9685,
      "1973": 9686,
      "buil": 9687,
      "NHƯ": 9688,
      "CBTT": 9689,
      "THỐNG": 9690,
      "THỜI": 9691,
      "551": 9692,
      "Chip": 9693,
      "Michel": 9694,
      "664": 9695,
      "hub": 9696,
      "mega": 9697,
      "Legacy": 9698,
      "Kodama": 9699,
      "Realbox": 9700,
      "basis": 9701,
      "KSND": 9702,
      "Italia": 9703,
      "North": 9704,
      "factu": 9705,
      "members": 9706,
      "AZEC": 9707,
      "1m": 9708,
      "415": 9709,
      "528": 9710,
      "678": 9711,
      "960": 9712,
      "Ether": 9713,
      "HẢI": 9714,
      "HIỂM": 9715,
      "KDC": 9716,
      "TÁC": 9717,
      "Ueda": 9718,
      "WCM": 9719,
      "ade": 9720,
      "bol": 9721,
      "cca": 9722,
      "lờ": 9723,
      "mẩn": 9724,
      "nấc": 9725,
      "rách": 9726,
      "đàng": 9727,
      "…”.": 9728,
      "nhé": 9729,
      "nhả": 9730,
      "thê": 9731,
      "chập": 9732,
      "chắp": 9733,
      "giục": 9734,
      "Chiêm": 9735,
      "ency": 9736,
      "VNE": 9737,
      "VNDIRE": 9738,
      "Vim": 9739,
      "990": 9740,
      "458": 9741,
      "real": 9742,
      "363": 9743,
      "Shera": 9744,
      "346": 9745,
      "chẽm": 9746,
      "Camera": 9747,
      "Resorts": 9748,
      "469": 9749,
      "PHI": 9750,
      "yoga": 9751,
      "AEA": 9752,
      "Maybank": 9753,
      "Youtube": 9754,
      "Stone": 9755,
      "Insights": 9756,
      "TUẤN": 9757,
      "Axie": 9758,
      "Highlands": 9759,
      "Associa": 9760,
      "Vinaconex": 9761,
      "VNDIRECT": 9762,
      "Sheraton": 9763,
      "3m": 9764,
      "CAP": 9765,
      "Fla": 9766,
      "Giếng": 9767,
      "HM": 9768,
      "HIỆU": 9769,
      "Kai": 9770,
      "Kak": 9771,
      "ML": 9772,
      "Pat": 9773,
      "Sê": 9774,
      "TUY": 9775,
      "lầu": 9776,
      "rằm": 9777,
      "sá": 9778,
      "strong": 9779,
      "ted": 9780,
      "ure": 9781,
      "wai": 9782,
      "đong": 9783,
      "ẮT": 9784,
      "nga": 9785,
      "chà": 9786,
      "pher": 9787,
      "Chồng": 9788,
      "rah": 9789,
      "301": 9790,
      "12h": 9791,
      "1955": 9792,
      "50m2": 9793,
      "imis": 9794,
      "bat": 9795,
      "500MW": 9796,
      "atex": 9797,
      "read": 9798,
      "TIỀN": 9799,
      "379": 9800,
      "Mei": 9801,
      "sons": 9802,
      "Davis": 9803,
      "lywood": 9804,
      "PC1": 9805,
      "Worldwide": 9806,
      "VHC": 9807,
      "guồng": 9808,
      "GMP": 9809,
      "InterContinental": 9810,
      "Celano": 9811,
      "Strategic": 9812,
      "Belarus": 9813,
      "Connect": 9814,
      "NXB": 9815,
      "Victoria": 9816,
      "facturing": 9817,
      "331": 9818,
      "516": 9819,
      "687": 9820,
      "823": 9821,
      "986": 9822,
      "BMI": 9823,
      "CBNV": 9824,
      "EZ": 9825,
      "Joo": 9826,
      "MG": 9827,
      "Mbps": 9828,
      "Till": 9829,
      "Var": 9830,
      "eMagazine": 9831,
      "rành": 9832,
      "vênh": 9833,
      "íu": 9834,
      "ệch": 9835,
      "ngự": 9836,
      "giận": 9837,
      "Chase": 9838,
      "vian": 9839,
      "rom": 9840,
      "Lump": 9841,
      "Domin": 9842,
      "iac": 9843,
      "Ant": 9844,
      "Anton": 9845,
      "ites": 9846,
      "hat": 9847,
      "ican": 9848,
      "Tea": 9849,
      "387": 9850,
      "TIÊU": 9851,
      "349": 9852,
      "vest": 9853,
      "elling": 9854,
      "Agrico": 9855,
      "Agrise": 9856,
      "Marco": 9857,
      "Suzuki": 9858,
      "VN30F24": 9859,
      "BaoViet": 9860,
      "ThaiBinh": 9861,
      "FOMC": 9862,
      "Kuala": 9863,
      "Armstrong": 9864,
      "Advisors": 9865,
      "Falcon": 9866,
      "metaverse": 9867,
      "Tillman": 9868,
      "Lumpur": 9869,
      "Agriseco": 9870,
      ".)": 9871,
      "337": 9872,
      "439": 9873,
      "544": 9874,
      "611": 9875,
      "BG": 9876,
      "C1": 9877,
      "Cur": 9878,
      "HL": 9879,
      "Hani": 9880,
      "Kate": 9881,
      "LÃI": 9882,
      "Mưa": 9883,
      "Né": 9884,
      "NÓNG": 9885,
      "Nệm": 9886,
      "ORS": 9887,
      "Vu": 9888,
      "Wul": 9889,
      "XVI": 9890,
      "Yeo": 9891,
      "lỏi": 9892,
      "lẩu": 9893,
      "rạ": 9894,
      "zan": 9895,
      "ĐIỂM": 9896,
      "ẨM": 9897,
      "thỉnh": 9898,
      "Philli": 9899,
      "muồi": 9900,
      "insu": 9901,
      "tui": 9902,
      "Khmer": 9903,
      "1945": 9904,
      "NGO": 9905,
      "408": 9906,
      "Colin": 9907,
      "VIAC": 9908,
      "CNY": 9909,
      "cabin": 9910,
      "deau": 9911,
      "EVNHANOI": 9912,
      "PVcomBank": 9913,
      "Now": 9914,
      "Prop": 9915,
      "QUA": 9916,
      "SUẤT": 9917,
      "Benedi": 9918,
      "Imper": 9919,
      "Eaton": 9920,
      "HHV": 9921,
      "Schwar": 9922,
      "Danang": 9923,
      "VOV": 9924,
      "Chemical": 9925,
      "Clean": 9926,
      "itomo": 9927,
      "Murty": 9928,
      "NovaWorld": 9929,
      "flower": 9930,
      "Matthew": 9931,
      "Benedict": 9932,
      "Schwarz": 9933,
      "9h30": 9934,
      "Apa": 9935,
      "G6": 9936,
      "Gã": 9937,
      "HẠN": 9938,
      "JT": 9939,
      "Kem": 9940,
      "NVP": 9941,
      "Pew": 9942,
      "STA": 9943,
      "XANH": 9944,
      "bồ": 9945,
      "her": 9946,
      "Đột": 9947,
      "thóc": 9948,
      "chém": 9949,
      "chèn": 9950,
      "tràng": 9951,
      "Tree": 9952,
      "002": 9953,
      "Chống": 9954,
      "Chun": 9955,
      "Ngư": 9956,
      "Khơi": 9957,
      "30m2": 9958,
      "concept": 9959,
      "elsen": 9960,
      "070": 9961,
      "hak": 9962,
      "359": 9963,
      "thanol": 9964,
      "567": 9965,
      "MISA": 9966,
      "581": 9967,
      "SMC": 9968,
      "POPS": 9969,
      "Patri": 9970,
      "Advan": 9971,
      "alore": 9972,
      "Greenland": 9973,
      "Hermes": 9974,
      "ïnë": 9975,
      "Kusto": 9976,
      "Georgia": 9977,
      "CafeF": 9978,
      "chultz": 9979,
      "Eric": 9980,
      "Kursk": 9981,
      "Organization": 9982,
      "Wuling": 9983,
      "324": 9984,
      "4m": 9985,
      "4ha": 9986,
      "426": 9987,
      "542": 9988,
      "715": 9989,
      "786": 9990,
      "833": 9991,
      "965": 9992,
      "Bờ": 9993,
      "BES": 9994,
      "BANK": 9995,
      "KỲ": 9996,
      "KTTH": 9997,
      "Niệm": 9998,
      "PRO": 9999,
      "Rong": 10000,
      "Sứ": 10001,
      "T1": 10002,
      "TTr": 10003,
      "TỤC": 10004,
      "UK": 10005,
      "VÀNG": 10006,
      "VỐN": 10007,
      "Wu": 10008,
      "Wy": 10009,
      "bity": 10010,
      "bran": 10011,
      "eTax": 10012,
      "hn": 10013,
      "jaya": 10014,
      "rẫy": 10015,
      "sứa": 10016,
      "vak": 10017,
      "world": 10018,
      "Đổng": 10019,
      "ĐMST": 10020,
      "Đăk": 10021,
      "ngực": 10022,
      "ging": 10023,
      "aná": 10024,
      "titan": 10025,
      "khiêu": 10026,
      "mura": 10027,
      "Khép": 10028,
      "Khiêm": 10029,
      "1979": 10030,
      "502": 10031,
      "tage": 10032,
      "TTHT": 10033,
      "40m2": 10034,
      "Tek": 10035,
      "cadem": 10036,
      "Ri6": 10037,
      "467": 10038,
      "berry": 10039,
      "Phantom": 10040,
      "Fac": 10041,
      "PVCom": 10042,
      "GIỚI": 10043,
      "Rabity": 10044,
      "share": 10045,
      "GEX": 10046,
      "earn": 10047,
      "ative": 10048,
      "Hiro": 10049,
      "Aug": 10050,
      "McDonald": 10051,
      "Sheng": 10052,
      "Formosa": 10053,
      "rupiah": 10054,
      "Desk": 10055,
      "Science": 10056,
      "AAA": 10057,
      "tiane": 10058,
      "Infra": 10059,
      "Xoài": 10060,
      "scale": 10061,
      "Discovery": 10062,
      "Vientiane": 10063,
      "Kakao": 10064,
      "407": 10065,
      "402": 10066,
      "729": 10067,
      "Ae": 10068,
      "Alan": 10069,
      "A320": 10070,
      "Bé": 10071,
      "CƯỜNG": 10072,
      "Mun": 10073,
      "NTM": 10074,
      "Nino": 10075,
      "].": 10076,
      "hen": 10077,
      "hít": 10078,
      "kal": 10079,
      "lõ": 10080,
      "mó": 10081,
      "té": 10082,
      "xít": 10083,
      "nhác": 10084,
      "thằng": 10085,
      "Ngọ": 10086,
      "mul": 10087,
      "vụn": 10088,
      "Nhì": 10089,
      "10m": 10090,
      "SDL": 10091,
      "1953": 10092,
      "1978": 10093,
      "tag": 10094,
      "1688": 10095,
      "NGƯỜ": 10096,
      "279": 10097,
      "Vinatex": 10098,
      "ghe": 10099,
      "pine": 10100,
      "572": 10101,
      "Alpine": 10102,
      "xide": 10103,
      "bóp": 10104,
      "Wink": 10105,
      "minimis": 10106,
      "Valen": 10107,
      "Sumitomo": 10108,
      "ERP": 10109,
      "korn": 10110,
      "ATTP": 10111,
      "yeh": 10112,
      "Brown": 10113,
      "Haniyeh": 10114,
      "NGƯỜI": 10115,
      "328": 10116,
      "437": 10117,
      "865": 10118,
      "BP": 10119,
      "D2": 10120,
      "Dao": 10121,
      "Dành": 10122,
      "DCM": 10123,
      "DẪN": 10124,
      "Has": 10125,
      "Kno": 10126,
      "Kéo": 10127,
      "KBNN": 10128,
      "Zo": 10129,
      "cù": 10130,
      "clink": 10131,
      "fron": 10132,
      "lừng": 10133,
      "nọ": 10134,
      "vạ": 10135,
      "nhối": 10136,
      "phin": 10137,
      "quẩn": 10138,
      "Thục": 10139,
      "tie": 10140,
      "time": 10141,
      "nghêu": 10142,
      "tino": 10143,
      "1240": 10144,
      "CMND": 10145,
      "tap": 10146,
      "TTT": 10147,
      "bach": 10148,
      "usion": 10149,
      "HĐT": 10150,
      "rey": 10151,
      "chợt": 10152,
      "dea": 10153,
      "CHÂU": 10154,
      "487": 10155,
      "Lithium": 10156,
      "464": 10157,
      "save": 10158,
      "meda": 10159,
      "674": 10160,
      "VCBF": 10161,
      "Halong": 10162,
      "NSNN": 10163,
      "StreetAsia": 10164,
      "Rubio": 10165,
      "Vicem": 10166,
      "AUD": 10167,
      "DealStreetAsia": 10168,
      "Public": 10169,
      "alleng": 10170,
      "clinker": 10171,
      "423": 10172,
      "627": 10173,
      "695": 10174,
      "747": 10175,
      "CIC": 10176,
      "Dim": 10177,
      "DỊCH": 10178,
      "Fun": 10179,
      "Fico": 10180,
      "Hài": 10181,
      "HÌNH": 10182,
      "Kao": 10183,
      "Kor": 10184,
      "KAI": 10185,
      "MAI": 10186,
      "Mùi": 10187,
      "Pear": 10188,
      "RJO": 10189,
      "Suy": 10190,
      "STI": 10191,
      "Way": 10192,
      "bau": 10193,
      "cày": 10194,
      "hốt": 10195,
      "kẹp": 10196,
      "ploy": 10197,
      "sình": 10198,
      "zak": 10199,
      "ĨNH": 10200,
[...]
