{
  "version": "1.0",
  "truncation": null,
  "padding": null,
  "added_tokens": [
    {
      "id": 0,
      "content": "<pad>",
      "single_word": false,
      "lstrip": false,
      "rstrip": false,
      "normalized": false,
      "special": true
    },
    {
      "id": 1,
      "content": "<unk>",
      "single_word": false,
      "lstrip": false,
      "rstrip": false,
      "normalized": false,
      "special": true
    },
    {
      "id": 2,
      "content": "<s>",
      "single_word": false,
      "lstrip": false,
      "rstrip": false,
      "normalized": false,
      "special": true
    },
    {
      "id": 3,
      "content": "</s>",
      "single_word": false,
      "lstrip": false,
      "rstrip": false,
      "normalized": false,
      "special": true
    },
    {
      "id": 4,
      "content": "<mask>",
      "single_word": false,
      "lstrip": false,
      "rstrip": false,
      "normalized": false,
      "special": true
    }
  ],
  "normalizer": {
    "type": "NFC"
  },
  "pre_tokenizer": {
    "type": "Whitespace"
  },
  "post_processor": null,
  "decoder": null,
  "model": {
    "type": "BPE",
    "dropout": null,
    "unk_token": null,
    "continuing_subword_prefix": null,
    "end_of_word_suffix": null,
    "fuse_unk": false,
    "byte_fallback": false,
    "ignore_merges": false,
    "vocab": {
      "<pad>": 0,
      "<unk>": 1,
      "<s>": 2,
      "</s>": 3,
      "<mask>": 4,
      "\b": 5,
      "0": 6,
      "1": 7,
      "2": 8,
      "3": 9,
      "4": 10,
      "5": 11,
      "6": 12,
      "7": 13,
      "8": 14,
      "9": 15,
      "<": 16,
      ">": 17,
      "A": 18,
      "B": 19,
      "C": 20,
      "D": 21,
      "E": 22,
      "F": 23,
      "G": 24,
      "H": 25,
      "I": 26,
      "J": 27,
      "K": 28,
      "L": 29,
      "M": 30,
      "N": 31,
      "O": 32,
      "P": 33,
      "Q": 34,
      "R": 35,
      "S": 36,
      "T": 37,
      "U": 38,
      "V": 39,
      "W": 40,
      "X": 41,
      "Y": 42,
      "Z": 43,
      "[": 44,
      "\\": 45,
      "]": 46,
      "_": 47,
      "a": 48,
      "b": 49,
      "c": 50,
      "d": 51,
      "e": 52,
      "f": 53,
      "g": 54,
      "h": 55,
      "i": 56,
      "j": 57,
      "k": 58,
      "l": 59,
      "m": 60,
      "n": 61,
      "o": 62,
      "p": 63,
      "q": 64,
      "r": 65,
      "s": 66,
      "t": 67,
      "u": 68,
      "v": 69,
      "w": 70,
      "x": 71,
      "y": 72,
      "z": 73,
      "É": 74,
      "Ó": 75,
      "Ö": 76,
      "à": 77,
      "á": 78,
      "â": 79,
      "ã": 80,
      "ä": 81,
      "å": 82,
      "æ": 83,
      "ç": 84,
      "è": 85,
      "é": 86,
      "ê": 87,
      "ë": 88,
      "ì": 89,
      "í": 90,
      "ñ": 91,
      "ò": 92,
      "ó": 93,
      "ô": 94,
      "ö": 95,
      "ø": 96,
      "ù": 97,
      "ú": 98,
      "ü": 99,
      "ý": 100,
      "ă": 101,
      "ć": 102,
      "č": 103,
      "Đ": 104,
      "đ": 105,
      "ē": 106,
      "ğ": 107,
      "ĩ": 108,
      "ı": 109,
      "ł": 110,
      "ń": 111,
      "ş": 112,
      "Š": 113,
      "š": 114,
      "ũ": 115,
      "ū": 116,
      "ż": 117,
      "Ž": 118,
      "ž": 119,
      "ơ": 120,
      "ư": 121,
      "а": 122,
      "в": 123,
      "е": 124,
      "н": 125,
      "о": 126,
      "п": 127,
      "р": 128,
      "ạ": 129,
      "Ả": 130,
      "ả": 131,
      "ấ": 132,
      "ầ": 133,
      "ẩ": 134,
      "ẫ": 135,
      "ậ": 136,
      "ắ": 137,
      "ằ": 138,
      "ẻ": 139,
      "ế": 140,
      "ề": 141,
      "ể": 142,
      "ễ": 143,
      "ệ": 144,
      "ỉ": 145,
      "ị": 146,
      "Ọ": 147,
      "ố": 148,
      "ồ": 149,
      "ộ": 150,
      "ớ": 151,
      "ờ": 152,
      "ở": 153,
      "ợ": 154,
      "ụ": 155,
      "ủ": 156,
      "ứ": 157,
      "ừ": 158,
      "ữ": 159,
      "ự": 160,
      "ỹ": 161,
      "宇": 162,
      "宙": 163,
      "構": 164,
      "機": 165,
      "発": 166,
      "研": 167,
      "究": 168,
      "空": 169,
      "航": 170,
      "開": 171,
      "in": 172,
      "an": 173,
      "on": 174,
      "US": 175,
      "USD": 176,
      "er": 177,
      "ar": 178,
      "es": 179,
      "TP": 180,
      "al": 181,
      "et": 182,
      "en": 183,
      "or": 184,
      "CM": 185,
      "st": 186,
      "am": 187,
      "ro": 188,
      "HCM": 189,
      "it": 190,
      "ank": 191,
      "el": 192,
      "ic": 193,
      "om": 194,
      "ine": 195,
      "at": 196,
      "ch": 197,
      "il": 198,
      "TT": 199,
      "ia": 200,
      "VN": 201,
      "Vi": 202,
      "BN": 203,
      "ing": 204,
      "up": 205,
      "In": 206,
      "um": 207,
      "ou": 208,
      "Viet": 209,
      "line": 210,
      "ra": 211,
      "UBN": 212,
      "UBND": 213,
      "ce": 214,
      "id": 215,
      "Tr": 216,
      "CP": 217,
      "On": 218,
      "ol": 219,
      "ent": 220,
      "ump": 221,
      "II": 222,
      "ex": 223,
      "Trump": 224,
      "TPHCM": 225,
      "ed": 226,
      "ap": 227,
      "as": 228,
      "Online": 229,
      "ot": 230,
      "ew": 231,
      "NH": 232,
      "is": 233,
      "art": 234,
      "TS": 235,
      "em": 236,
      "Bank": 237,
      "lo": 238,
      "bank": 239,
      "le": 240,
      "re": 241,
      "oo": 242,
      "Ind": 243,
      "and": 244,
      "ong": 245,
      "PT": 246,
      "ay": 247,
      "Vin": 248,
      "co": 249,
      "CT": 250,
      "Sh": 251,
      "ad": 252,
      "CB": 253,
      "us": 254,
      "ark": 255,
      "TV": 256,
      "Ph": 257,
      "im": 258,
      "ga": 259,
      "ig": 260,
      "com": 261,
      "un": 262,
      "ck": 263,
      "NN": 264,
      "roup": 265,
      "ee": 266,
      "Ch": 267,
      "00": 268,
      "vid": 269,
      "SE": 270,
      "SJ": 271,
      "ut": 272,
      "ha": 273,
      "New": 274,
      "SJC": 275,
      "est": 276,
      "ri": 277,
      "DI": 278,
      "MT": 279,
      "XVN": 280,
      "TTXVN": 281,
      "ion": 282,
      "ur": 283,
      "DP": 284,
      "Nga": 285,
      "St": 286,
      "artup": 287,
      "oun": 288,
      "op": 289,
      "CE": 290,
      "ech": 291,
      "Sa": 292,
      "ore": 293,
      "iv": 294,
      "For": 295,
      "Fed": 296,
      "ir": 297,
      "ID": 298,
      "la": 299,
      "ang": 300,
      "Fa": 301,
      "combank": 302,
      "eb": 303,
      "th": 304,
      "CO": 305,
      "pp": 306,
      "ud": 307,
      "Index": 308,
      "ik": 309,
      "KTS": 310,
      "nam": 311,
      "startup": 312,
      "GP": 313,
      "CN": 314,
      "ers": 315,
      "GMT": 316,
      "ok": 317,
      "con": 318,
      "KTSG": 319,
      "Co": 320,
      "Group": 321,
      "TNH": 322,
      "ow": 323,
      "ag": 324,
      "TNHH": 325,
      "Sing": 326,
      "ald": 327,
      "NHNN": 328,
      "bes": 329,
      "ist": 330,
      "Don": 331,
      "GDP": 332,
      "apore": 333,
      "Singapore": 334,
      "FDI": 335,
      "FPT": 336,
      "TC": 337,
      "ics": 338,
      "one": 339,
      "web": 340,
      "ter": 341,
      "Donald": 342,
      "CEO": 343,
      "SG": 344,
      "os": 345,
      "ort": 346,
      "ma": 347,
      "WS": 348,
      "of": 349,
      "ines": 350,
      "if": 351,
      "News": 352,
      "ity": 353,
      "ounce": 354,
      "EVN": 355,
      "etro": 356,
      "AN": 357,
      "VI": 358,
      "ak": 359,
      "Forbes": 360,
      "BC": 361,
      "ob": 362,
      "III": 363,
      "EU": 364,
      "our": 365,
      "EWS": 366,
      "Tech": 367,
      "log": 368,
      "BNEWS": 369,
      "ov": 370,
      "Vietnam": 371,
      "CC": 372,
      "ust": 373,
      "io": 374,
      "ada": 375,
      "ct": 376,
      "ones": 377,
      "ul": 378,
      "car": 379,
      "itco": 380,
      "ital": 381,
      "MB": 382,
      "Al": 383,
      "Can": 384,
      "Air": 385,
      "CTCP": 386,
      "ell": 387,
      "sh": 388,
      "istics": 389,
      "ation": 390,
      "bon": 391,
      "erg": 392,
      "amp": 393,
      "VTV": 394,
      "Phan": 395,
      "Ma": 396,
      "sia": 397,
      "onesia": 398,
      "ht": 399,
      "Indonesia": 400,
      "Re": 401,
      "TPO": 402,
      "ub": 403,
      "ill": 404,
      "ite": 405,
      "ard": 406,
      "Shark": 407,
      "ab": 408,
      "ond": 409,
      "Ag": 410,
      "TM": 411,
      "Cap": 412,
      "port": 413,
      "MW": 414,
      "30": 415,
      "BH": 416,
      "carbon": 417,
      "logistics": 418,
      "Canada": 419,
      "Pl": 420,
      "old": 421,
      "itcoin": 422,
      "Camp": 423,
      "VP": 424,
      "ico": 425,
      "m2": 426,
      "VA": 427,
      "ance": 428,
      "ain": 429,
      "row": 430,
      "Se": 431,
      "RE": 432,
      "uch": 433,
      "eo": 434,
      "tel": 435,
      "Mal": 436,
      "ip": 437,
      "SI": 438,
      "PV": 439,
      "ement": 440,
      "App": 441,
      "DN": 442,
      "Tok": 443,
      "km": 444,
      "boo": 445,
      "uchia": 446,
      "Campuchia": 447,
      "ung": 448,
      "od": 449,
      "Tem": 450,
      "ph": 451,
      "kV": 452,
      "AI": 453,
      "AS": 454,
      "vi": 455,
      "El": 456,
      "vidia": 457,
      "Vietcombank": 458,
      "tern": 459,
      "ream": 460,
      "XH": 461,
      "Nvidia": 462,
      "online": 463,
      "ser": 464,
      "VND": 465,
      "PG": 466,
      "EC": 467,
      "inh": 468,
      "Fast": 469,
      "Capital": 470,
      "Goo": 471,
      "Tik": 472,
      "hom": 473,
      "ies": 474,
      "Mus": 475,
      "TH": 476,
      "do": 477,
      "BID": 478,
      "Temu": 479,
      "Bitcoin": 480,
      "liv": 481,
      "ral": 482,
      "ASE": 483,
      "VinFast": 484,
      "ork": 485,
      "City": 486,
      "ne": 487,
      "gle": 488,
      "ipp": 489,
      "IV": 490,
      "Mar": 491,
      "aud": 492,
      "Uk": 493,
      "Ukra": 494,
      "eta": 495,
      "Ukraine": 496,
      "ASEAN": 497,
      "Google": 498,
      "HO": 499,
      "ews": 500,
      "conom": 501,
      "ue": 502,
      "NG": 503,
      "Musk": 504,
      "VF": 505,
      "Pr": 506,
      "ial": 507,
      "Agri": 508,
      "news": 509,
      "uong": 510,
      "man": 511,
      "En": 512,
      "Mex": 513,
      "Res": 514,
      "Mexico": 515,
      "Jo": 516,
      "Go": 517,
      "eep": 518,
      "MS": 519,
      "TA": 520,
      "bal": 521,
      "Ex": 522,
      "Phil": 523,
      "hi": 524,
      "An": 525,
      "se": 526,
      "Mic": 527,
      "Bnews": 528,
      "ood": 529,
      "Malay": 530,
      "are": 531,
      "Malaysia": 532,
      "ink": 533,
      "estream": 534,
      "PN": 535,
      "video": 536,
      "Agribank": 537,
      "Fin": 538,
      "arket": 539,
      "ACB": 540,
      "for": 541,
      "ran": 542,
      "thuong": 543,
      "Apple": 544,
      "Cong": 545,
      "igon": 546,
      "sup": 547,
      "CS": 548,
      "TN": 549,
      "ate": 550,
      "Bra": 551,
      "Your": 552,
      "Congthuong": 553,
      "imes": 554,
      "Wh": 555,
      "not": 556,
      "og": 557,
      "ff": 558,
      "ina": 559,
      "BIDV": 560,
      "livestream": 561,
      "audio": 562,
      "Ving": 563,
      "support": 564,
      "DO": 565,
      "NT": 566,
      "Vingroup": 567,
      "rowser": 568,
      "browser": 569,
      "does": 570,
      "Philipp": 571,
      "element": 572,
      "BHXH": 573,
      "Viettel": 574,
      "PNJ": 575,
      "conomy": 576,
      "Pro": 577,
      "ie": 578,
      "Intern": 579,
      "Deep": 580,
      "ass": 581,
      "Bo": 582,
      "20": 583,
      "5G": 584,
      "ry": 585,
      "AP": 586,
      "site": 587,
      "ife": 588,
      "Philippines": 589,
      "uro": 590,
      "Shop": 591,
      "Techcombank": 592,
      "TikTok": 593,
      "de": 594,
      "SH": 595,
      "ris": 596,
      "Ar": 597,
      "ert": 598,
      "ac": 599,
      "Me": 600,
      "eek": 601,
      "Man": 602,
      "Cent": 603,
      "all": 604,
      "HOSE": 605,
      "lobal": 606,
      "Com": 607,
      "Op": 608,
      "anc": 609,
      "Br": 610,
      "Braz": 611,
      "Ho": 612,
      "Hu": 613,
      "Le": 614,
      "Petro": 615,
      "10": 616,
      "PC": 617,
      "ai": 618,
      "ros": 619,
      "Brazil": 620,
      "Con": 621,
      "HD": 622,
      "iz": 623,
      "mart": 624,
      "ess": 625,
      "website": 626,
      "Covid": 627,
      "maz": 628,
      "HN": 629,
      "50": 630,
      "PM": 631,
      "As": 632,
      "Global": 633,
      "500": 634,
      "book": 635,
      "Seek": 636,
      "RO": 637,
      "SM": 638,
      "DeepSeek": 639,
      "Tes": 640,
      "Tesla": 641,
      "rab": 642,
      "VTVGo": 643,
      "CK": 644,
      "ile": 645,
      "homes": 646,
      "24": 647,
      "KH": 648,
      "SC": 649,
      "av": 650,
      "iden": 651,
      "ster": 652,
      "oft": 653,
      "ock": 654,
      "Face": 655,
      "Mo": 656,
      "IM": 657,
      "ams": 658,
      "berg": 659,
      "SGGP": 660,
      "Vinhomes": 661,
      "PP": 662,
      "te": 663,
      "ld": 664,
      "AC": 665,
      "IC": 666,
      "TTg": 667,
      "amil": 668,
      "enAI": 669,
      "hy": 670,
      "uters": 671,
      "VTC": 672,
      "BO": 673,
      "Reuters": 674,
      "ESG": 675,
      "Net": 676,
      "Times": 677,
      "ens": 678,
      "era": 679,
      "AM": 680,
      "Har": 681,
      "lines": 682,
      "metro": 683,
      "Aust": 684,
      "COP": 685,
      "Park": 686,
      "Airlines": 687,
      "Un": 688,
      "ail": 689,
      "orld": 690,
      "LC": 691,
      "ant": 692,
      "LNG": 693,
      "ica": 694,
      "Facebook": 695,
      "VCC": 696,
      "Be": 697,
      "ps": 698,
      "ings": 699,
      "Elon": 700,
      "ST": 701,
      "Blo": 702,
      "end": 703,
      "SA": 704,
      "viet": 705,
      "bot": 706,
      "bo": 707,
      "ear": 708,
      "Sams": 709,
      "ton": 710,
      "Austral": 711,
      "ug": 712,
      "Phone": 713,
      "kWh": 714,
      "ian": 715,
      "Samsung": 716,
      "World": 717,
      "Pow": 718,
      "han": 719,
      "ED": 720,
      "York": 721,
      "TTTT": 722,
      "Gr": 723,
      "ures": 724,
      "Amaz": 725,
      "JI": 726,
      "ba": 727,
      "ky": 728,
      "MC": 729,
      "Sp": 730,
      "PO": 731,
      "Rob": 732,
      "mail": 733,
      "AG": 734,
      "RS": 735,
      "Sy": 736,
      "ind": 737,
      "Amazon": 738,
      "eng": 739,
      "iPhone": 740,
      "Is": 741,
      "ast": 742,
      "Australia": 743,
      "ero": 744,
      "HNX": 745,
      "TVT": 746,
      "AB": 747,
      "GTVT": 748,
      "Ad": 749,
      "aland": 750,
      "TMCP": 751,
      "mer": 752,
      "oy": 753,
      "jet": 754,
      "15": 755,
      "Vietjet": 756,
      "ata": 757,
      "Tp": 758,
      "DC": 759,
      "ergy": 760,
      "Vina": 761,
      "tech": 762,
      "ei": 763,
      "qu": 764,
      "Tra": 765,
      "14": 766,
      "OpenAI": 767,
      "VPBank": 768,
      "LP": 769,
      "Vietin": 770,
      "ment": 771,
      "ver": 772,
      "Saigon": 773,
      "az": 774,
      "SSI": 775,
      "ly": 776,
      "Bl": 777,
      "ure": 778,
      "OCOP": 779,
      "Energy": 780,
      "Ser": 781,
      "Hond": 782,
      "DOJI": 783,
      "mp": 784,
      "orn": 785,
      "Micros": 786,
      "san": 787,
      "vietnam": 788,
      "ien": 789,
      "Internet": 790,
      "Microsoft": 791,
      "SGGPO": 792,
      "Honda": 793,
      "Hold": 794,
      "Vinamil": 795,
      "ive": 796,
      "Gold": 797,
      "Vinamilk": 798,
      "olf": 799,
      "Market": 800,
      "ib": 801,
      "000": 802,
      "My": 803,
      "yo": 804,
      "TO": 805,
      "Han": 806,
      "cent": 807,
      "hn": 808,
      "VN30": 809,
      "chain": 810,
      "Food": 811,
      "oi": 812,
      "email": 813,
      "Hy": 814,
      "ey": 815,
      "ack": 816,
      "chinh": 817,
      "GPT": 818,
      "ala": 819,
      "ash": 820,
      "Cl": 821,
      "Med": 822,
      "AE": 823,
      "cam": 824,
      "ome": 825,
      "FLC": 826,
      "cl": 827,
      "gam": 828,
      "ckchain": 829,
      "Tank": 830,
      "VCCI": 831,
      "stock": 832,
      "Master": 833,
      "Th": 834,
      "GT": 835,
      "ice": 836,
      "Vent": 837,
      "Petrovietnam": 838,
      "Email": 839,
      "tain": 840,
      "AF": 841,
      "BTC": 842,
      "Land": 843,
      "Sacombank": 844,
      "CI": 845,
      "NQ": 846,
      "ah": 847,
      "der": 848,
      "HS": 849,
      "500kV": 850,
      "Play": 851,
      "htt": 852,
      "MTV": 853,
      "app": 854,
      "Mob": 855,
      "uck": 856,
      "DA": 857,
      "Nov": 858,
      "Pay": 859,
      "rid": 860,
      "GE": 861,
      "IT": 862,
      "ick": 863,
      "Meta": 864,
      "ji": 865,
      "Arab": 866,
      "BCT": 867,
      "Mas": 868,
      "VCB": 869,
      "age": 870,
      "Bang": 871,
      "ec": 872,
      "BS": 873,
      "Vn": 874,
      "PTNT": 875,
      "ett": 876,
      "TK": 877,
      "BTTTT": 878,
      "VGP": 879,
      "BV": 880,
      "https": 881,
      "HoSE": 882,
      "ev": 883,
      "Chat": 884,
      "son": 885,
      "ake": 886,
      "tra": 887,
      "Vne": 888,
      "Biden": 889,
      "ott": 890,
      "Bam": 891,
      "land": 892,
      "und": 893,
      "ron": 894,
      "aw": 895,
      "ouse": 896,
      "alo": 897,
      "VietinBank": 898,
      "12": 899,
      "VAT": 900,
      "Bamboo": 901,
      "Vietstock": 902,
      "Kh": 903,
      "Gre": 904,
      "ential": 905,
      "Car": 906,
      "CG": 907,
      "ND": 908,
      "PA": 909,
      "CTD": 910,
      "DX": 911,
      "olog": 912,
      "Prud": 913,
      "Prudential": 914,
      "18": 915,
      "Life": 916,
      "SHB": 917,
      "Do": 918,
      "Share": 919,
      "Sav": 920,
      "RI": 921,
      "One": 922,
      "Ventures": 923,
      "Cal": 924,
      "ek": 925,
      "ET": 926,
      "VIB": 927,
      "TNCN": 928,
      "Vneconomy": 929,
      "ills": 930,
      "way": 931,
      "QR": 932,
      "Par": 933,
      "John": 934,
      "VID": 935,
      "Fax": 936,
      "Masan": 937,
      "TTCK": 938,
      "att": 939,
      "Finance": 940,
      "XV": 941,
      "enn": 942,
      "cp": 943,
      "ww": 944,
      "MWG": 945,
      "TB": 946,
      "uc": 947,
      "dro": 948,
      "Kong": 949,
      "VE": 950,
      "ama": 951,
      "ii": 952,
      "Shopee": 953,
      "KCN": 954,
      "CPI": 955,
      "otel": 956,
      "TL": 957,
      "Euro": 958,
      "CA": 959,
      "Powell": 960,
      "COVID": 961,
      "robot": 962,
      "PGS": 963,
      "usta": 964,
      "ram": 965,
      "lor": 966,
      "uk": 967,
      "Holdings": 968,
      "GS": 969,
      "VH": 970,
      "euro": 971,
      "gon": 972,
      "Hal": 973,
      "po": 974,
      "HPG": 975,
      "nolog": 976,
      "lack": 977,
      "earch": 978,
      "iel": 979,
      "Col": 980,
      "Eco": 981,
      "orp": 982,
      "ight": 983,
      "ix": 984,
      "FTA": 985,
      "urance": 986,
      "Gen": 987,
      "mar": 988,
      "market": 989,
      "org": 990,
      "Tel": 991,
      "Central": 992,
      "Research": 993,
      "ier": 994,
      "af": 995,
      "Exim": 996,
      "ao": 997,
      "TKV": 998,
      "DR": 999,
      "Plug": 1000,
      "oc": 1001,
      "ChatGPT": 1002,
      "Eximbank": 1003,
      "Startup": 1004,
      "Huang": 1005,
      "per": 1006,
      "Bloom": 1007,
      "Sil": 1008,
      "QH": 1009,
      "ABank": 1010,
      "Qu": 1011,
      "vest": 1012,
      "rael": 1013,
      "Israel": 1014,
      "TW": 1015,
      "za": 1016,
      "VARS": 1017,
      "tainer": 1018,
      "ley": 1019,
      "Asia": 1020,
      "golf": 1021,
      "Sol": 1022,
      "Blue": 1023,
      "IS": 1024,
      "KO": 1025,
      "esa": 1026,
      "ON": 1027,
      "ich": 1028,
      "ES": 1029,
      "ike": 1030,
      "pr": 1031,
      "int": 1032,
      "Zalo": 1033,
      "banc": 1034,
      "Novaland": 1035,
      "HDBank": 1036,
      "ational": 1037,
      "CMC": 1038,
      "AV": 1039,
      "cean": 1040,
      "LG": 1041,
      "dong": 1042,
      "Ocean": 1043,
      "ence": 1044,
      "Harris": 1045,
      "ook": 1046,
      "ire": 1047,
      "OB": 1048,
      "assurance": 1049,
      "esaigon": 1050,
      "Da": 1051,
      "container": 1052,
      "VR": 1053,
      "esh": 1054,
      "Bu": 1055,
      "Po": 1056,
      "ide": 1057,
      "Dra": 1058,
      "SK": 1059,
      "igital": 1060,
      "TI": 1061,
      "Black": 1062,
      "TCTD": 1063,
      "etail": 1064,
      "Iran": 1065,
      "Inst": 1066,
      "Savills": 1067,
      "game": 1068,
      "Technolog": 1069,
      "You": 1070,
      "box": 1071,
      "Zero": 1072,
      "Bloomberg": 1073,
      "ys": 1074,
      "Inn": 1075,
      "off": 1076,
      "Big": 1077,
      "VIII": 1078,
      "Grand": 1079,
      "marketing": 1080,
      "Pet": 1081,
      "Intel": 1082,
      "Tokyo": 1083,
      "Foun": 1084,
      "ondon": 1085,
      "Economy": 1086,
      "Doji": 1087,
      "London": 1088,
      "RA": 1089,
      "Retail": 1090,
      "TCB": 1091,
      "ber": 1092,
      "ota": 1093,
      "ony": 1094,
      "Green": 1095,
      "ase": 1096,
      "OCB": 1097,
      "Sun": 1098,
      "SB": 1099,
      "ish": 1100,
      "MI": 1101,
      "N9": 1102,
      "fin": 1103,
      "RON9": 1104,
      "atdong": 1105,
      "atdongsan": 1106,
      "Comp": 1107,
      "bancassurance": 1108,
      "ans": 1109,
      "PS": 1110,
      "SN": 1111,
      "ach": 1112,
      "agi": 1113,
      "Sc": 1114,
      "ime": 1115,
      "h30": 1116,
      "Wall": 1117,
      "LPBank": 1118,
      "SeABank": 1119,
      "Prop": 1120,
      "Calif": 1121,
      "shop": 1122,
      "VnEconomy": 1123,
      "Robusta": 1124,
      "CBRE": 1125,
      "Win": 1126,
      "da": 1127,
      "Invest": 1128,
      "BOT": 1129,
      "CL": 1130,
      "DG": 1131,
      "IPO": 1132,
      "icon": 1133,
      "ornia": 1134,
      "Arabica": 1135,
      "California": 1136,
      "forbes": 1137,
      "Yagi": 1138,
      "link": 1139,
      "He": 1140,
      "Star": 1141,
      "FC": 1142,
      "ace": 1143,
      "blo": 1144,
      "tr": 1145,
      "Am": 1146,
      "Vis": 1147,
      "ult": 1148,
      "RC": 1149,
      "UP": 1150,
      "100": 1151,
      "Mart": 1152,
      "ington": 1153,
      "arm": 1154,
      "lect": 1155,
      "vel": 1156,
      "International": 1157,
      "Paris": 1158,
      "show": 1159,
      "imm": 1160,
      "Dragon": 1161,
      "QCG": 1162,
      "Halal": 1163,
      "Serv": 1164,
      "Jens": 1165,
      "MBS": 1166,
      "ho": 1167,
      "kok": 1168,
      "Batdongsan": 1169,
      "Vy": 1170,
      "camera": 1171,
      "Bangkok": 1172,
      "kong": 1173,
      "DIA": 1174,
      "VHM": 1175,
      "VL": 1176,
      "VNG": 1177,
      "MO": 1178,
      "GR": 1179,
      "Sky": 1180,
      "pha": 1181,
      "UOB": 1182,
      "ana": 1183,
      "iesel": 1184,
      "ern": 1185,
      "MSN": 1186,
      "ways": 1187,
      "HC": 1188,
      "vis": 1189,
      "Jensen": 1190,
      "Innov": 1191,
      "Lot": 1192,
      "16": 1193,
      "FED": 1194,
      "lb": 1195,
      "ric": 1196,
      "tok": 1197,
      "Corp": 1198,
      "ise": 1199,
      "Hanoi": 1200,
      "Tow": 1201,
      "bus": 1202,
      "eing": 1203,
      "Mer": 1204,
      "work": 1205,
      "Mekong": 1206,
      "Toy": 1207,
      "Wash": 1208,
      "ale": 1209,
      "Airways": 1210,
      "Rat": 1211,
      "cur": 1212,
      "Brent": 1213,
      "Ed": 1214,
      "pro": 1215,
      "view": 1216,
      "ETF": 1217,
      "Gu": 1218,
      "oll": 1219,
      "Fut": 1220,
      "ani": 1221,
      "GM": 1222,
      "Mark": 1223,
      "diesel": 1224,
      "kin": 1225,
      "TCCT": 1226,
      "Metro": 1227,
      "brid": 1228,
      "ith": 1229,
      "Tha": 1230,
      "fan": 1231,
      "Washington": 1232,
      "BY": 1233,
      "Boeing": 1234,
      "GRDP": 1235,
      "Sch": 1236,
      "MA": 1237,
      "erty": 1238,
      "Center": 1239,
      "ACO": 1240,
      "OP": 1241,
      "ucker": 1242,
      "CH": 1243,
      "REA": 1244,
      "Technology": 1245,
      "VietTimes": 1246,
      "Toyota": 1247,
      "pt": 1248,
      "Part": 1249,
      "Wat": 1250,
      "Fi": 1251,
      "ward": 1252,
      "Alex": 1253,
      "Kitco": 1254,
      "ces": 1255,
      "aba": 1256,
      "Nam": 1257,
      "ath": 1258,
      "Resort": 1259,
      "PPP": 1260,
      "eck": 1261,
      "Ass": 1262,
      "25": 1263,
      "HBC": 1264,
      "CNTT": 1265,
      "HT": 1266,
      "rist": 1267,
      "FA": 1268,
      "Wal": 1269,
      "eg": 1270,
      "Smart": 1271,
      "BT": 1272,
      "Zucker": 1273,
      "ann": 1274,
      "And": 1275,
      "EVNN": 1276,
      "Zuckerberg": 1277,
      "LE": 1278,
      "Mot": 1279,
      "AD": 1280,
      "ino": 1281,
      "cons": 1282,
      "ge": 1283,
      "ery": 1284,
      "Mega": 1285,
      "ices": 1286,
      "CO2": 1287,
      "Met": 1288,
      "David": 1289,
      "blockchain": 1290,
      "hydro": 1291,
      "red": 1292,
      "Mike": 1293,
      "ign": 1294,
      "iss": 1295,
      "any": 1296,
      "mm": 1297,
      "Bus": 1298,
      "ates": 1299,
      "ME": 1300,
      "UN": 1301,
      "ulife": 1302,
      "Residen": 1303,
      "Manulife": 1304,
      "Pan": 1305,
      "Bill": 1306,
      "CTG": 1307,
      "iness": 1308,
      "RT": 1309,
      "VNPT": 1310,
      "iam": 1311,
      "VNe": 1312,
      "Cons": 1313,
      "imex": 1314,
      "VIC": 1315,
      "Property": 1316,
      "Mc": 1317,
      "Hom": 1318,
      "ium": 1319,
      "AND": 1320,
      "KD": 1321,
      "sen": 1322,
      "acc": 1323,
      "Jer": 1324,
      "Link": 1325,
      "och": 1326,
      "sp": 1327,
      "WTI": 1328,
      "page": 1329,
      "EL": 1330,
      "ade": 1331,
      "AEON": 1332,
      "Jos": 1333,
      "NDT": 1334,
      "Pla": 1335,
      "Kon": 1336,
      "THACO": 1337,
      "Leg": 1338,
      "intern": 1339,
      "Form": 1340,
      "ECB": 1341,
      "Je": 1342,
      "ect": 1343,
      "enh": 1344,
      "ions": 1345,
      "ACV": 1346,
      "Ac": 1347,
      "TPBank": 1348,
      "Blockchain": 1349,
      "ein": 1350,
      "kg": 1351,
      "form": 1352,
      "Partn": 1353,
      "Del": 1354,
      "Lu": 1355,
      "internet": 1356,
      "39": 1357,
      "19": 1358,
      "Or": 1359,
      "Live": 1360,
      "BCG": 1361,
      "Media": 1362,
      "Home": 1363,
      "BYD": 1364,
      "MSB": 1365,
      "to": 1366,
      "VietNam": 1367,
      "E5": 1368,
      "De": 1369,
      "Mat": 1370,
      "VC": 1371,
      "ous": 1372,
      "Sail": 1373,
      "IR": 1374,
      "Sup": 1375,
      "ban": 1376,
      "uct": 1377,
      "TPDN": 1378,
      "Oly": 1379,
      "HoREA": 1380,
      "Olymp": 1381,
      "tour": 1382,
      "house": 1383,
      "Silicon": 1384,
      "22": 1385,
      "NHTM": 1386,
      "FE": 1387,
      "QL": 1388,
      "oz": 1389,
      "We": 1390,
      "Nas": 1391,
      "press": 1392,
      "Peter": 1393,
      "VinaCapital": 1394,
      "Partners": 1395,
      "ASA": 1396,
      "Khang": 1397,
      "Alpha": 1398,
      "ney": 1399,
      "Jerome": 1400,
      "Digital": 1401,
      "VietNamNet": 1402,
      "Mel": 1403,
      "gin": 1404,
      "Ste": 1405,
      "ty": 1406,
      "ube": 1407,
      "Pal": 1408,
      "VNeID": 1409,
      "Vincom": 1410,
      "sk": 1411,
      "Aut": 1412,
      "EV": 1413,
      "ware": 1414,
      "AFP": 1415,
      "Ze": 1416,
      "QH15": 1417,
      "220": 1418,
      "B2": 1419,
      "Lat": 1420,
      "ng": 1421,
      "CCC": 1422,
      "Homes": 1423,
      "Olympic": 1424,
      "TSE": 1425,
      "udi": 1426,
      "ffee": 1427,
      "CNBC": 1428,
      "SME": 1429,
      "Hotel": 1430,
      "Val": 1431,
      "Ba": 1432,
      "Elect": 1433,
      "Flor": 1434,
      "its": 1435,
      "ancial": 1436,
      "17": 1437,
      "Power": 1438,
      "arma": 1439,
      "Post": 1440,
      "Award": 1441,
      "cap": 1442,
      "me": 1443,
      "ical": 1444,
      "GTGT": 1445,
      "Legend": 1446,
      "SCB": 1447,
      "lad": 1448,
      "vell": 1449,
      "lin": 1450,
      "zo": 1451,
      "room": 1452,
      "gen": 1453,
      "HSBC": 1454,
      "Ber": 1455,
      "Grimm": 1456,
      "Mobile": 1457,
      "VNM": 1458,
      "Coffee": 1459,
      "STB": 1460,
      "OTP": 1461,
      "Roy": 1462,
      "Mobi": 1463,
      "Services": 1464,
      "Log": 1465,
      "ivers": 1466,
      "Jack": 1467,
      "otec": 1468,
      "IDC": 1469,
      "Zealand": 1470,
      "Far": 1471,
      "Mil": 1472,
      "ithi": 1473,
      "ithium": 1474,
      "60": 1475,
      "agement": 1476,
      "Express": 1477,
      "220kV": 1478,
      "Grab": 1479,
      "Nik": 1480,
      "Network": 1481,
      "accine": 1482,
      "13": 1483,
      "Nob": 1484,
      "bitcoin": 1485,
      "ory": 1486,
      "GB": 1487,
      "Wang": 1488,
      "Mod": 1489,
      "pl": 1490,
      "MoMo": 1491,
      "House": 1492,
      "Petrol": 1493,
      "Thom": 1494,
      "smart": 1495,
      "vaccine": 1496,
      "hybrid": 1497,
      "Syn": 1498,
      "www": 1499,
      "Tower": 1500,
      "Sailun": 1501,
      "Oil": 1502,
      "ca": 1503,
      "ited": 1504,
      "Bar": 1505,
      "Data": 1506,
      "chat": 1507,
      "NVL": 1508,
      "Per": 1509,
      "Red": 1510,
      "Int": 1511,
      "TSMC": 1512,
      "BHNT": 1513,
      "Fone": 1514,
      "VPB": 1515,
      "IMF": 1516,
      "MobiFone": 1517,
      "ano": 1518,
      "Sal": 1519,
      "yn": 1520,
      "igh": 1521,
      "Financial": 1522,
      "70": 1523,
      "40": 1524,
      "won": 1525,
      "Ta": 1526,
      "times": 1527,
      "Motor": 1528,
      "Fest": 1529,
      "ops": 1530,
      "Joe": 1531,
      "Petrolimex": 1532,
      "Ur": 1533,
      "VEC": 1534,
      "jo": 1535,
      "Marvell": 1536,
      "KT": 1537,
      "Laz": 1538,
      "oud": 1539,
      "11": 1540,
      "ox": 1541,
      "this": 1542,
      "Goldman": 1543,
      "merce": 1544,
      "EM": 1545,
      "eon": 1546,
      "oney": 1547,
      "Golden": 1548,
      "IN": 1549,
      "ke": 1550,
      "ary": 1551,
      "DL": 1552,
      "TPP": 1553,
      "stone": 1554,
      "ita": 1555,
      "ouch": 1556,
      "110": 1557,
      "9h": 1558,
      "EVNNPT": 1559,
      "Plaza": 1560,
      "DK": 1561,
      "daq": 1562,
      "DS": 1563,
      "Real": 1564,
      "SIP": 1565,
      "IB": 1566,
      "aper": 1567,
      "NVI": 1568,
      "VV": 1569,
      "ve": 1570,
      "Management": 1571,
      "Space": 1572,
      "Logistics": 1573,
      "Cotec": 1574,
      "LV": 1575,
      "xy": 1576,
      "anta": 1577,
      "organ": 1578,
      "Coteccons": 1579,
      "CPTPP": 1580,
      "CoM": 1581,
      "Mall": 1582,
      "phu": 1583,
      "NVIDIA": 1584,
      "CLB": 1585,
      "Zh": 1586,
      "rup": 1587,
      "oul": 1588,
      "Indust": 1589,
      "Nasdaq": 1590,
      "5m": 1591,
      "iti": 1592,
      "03": 1593,
      "Li": 1594,
      "hael": 1595,
      "DNN": 1596,
      "lac": 1597,
      "SGD": 1598,
      "IP": 1599,
      "pe": 1600,
      "VEAM": 1601,
      "OS": 1602,
      "Coin": 1603,
      "UPCoM": 1604,
      "GI": 1605,
      "Tex": 1606,
      "ura": 1607,
      "ini": 1608,
      "phone": 1609,
      "aly": 1610,
      "Kenh": 1611,
      "Found": 1612,
      "Business": 1613,
      "fl": 1614,
      "ities": 1615,
      "thesaigon": 1616,
      "thesaigontimes": 1617,
      "HAG": 1618,
      "Ke": 1619,
      "ord": 1620,
      "ara": 1621,
      "000m2": 1622,
      "Kenh14": 1623,
      "Synops": 1624,
      "Synopsys": 1625,
      "200": 1626,
      "FT": 1627,
      "YouT": 1628,
      "IA": 1629,
      "ific": 1630,
      "Michael": 1631,
      "8h": 1632,
      "FO": 1633,
      "West": 1634,
      "Masterise": 1635,
      "Lazada": 1636,
      "Gam": 1637,
      "Ji": 1638,
      "Pharma": 1639,
      "Sach": 1640,
      "NCB": 1641,
      "Put": 1642,
      "UAE": 1643,
      "Secur": 1644,
      "DXY": 1645,
      "Cool": 1646,
      "Pol": 1647,
      "Su": 1648,
      "ta": 1649,
      "rop": 1650,
      "Shein": 1651,
      "A3": 1652,
      "THPT": 1653,
      "fintech": 1654,
      "Futures": 1655,
      "Cup": 1656,
      "Ham": 1657,
      "des": 1658,
      "uy": 1659,
      "otline": 1660,
      "chatbot": 1661,
      "ival": 1662,
      "35": 1663,
      "Os": 1664,
      "by": 1665,
      "cast": 1666,
      "paper": 1667,
      "Vid": 1668,
      "ute": 1669,
      "agram": 1670,
      "arn": 1671,
      "own": 1672,
      "ips": 1673,
      "01": 1674,
      "Te": 1675,
      "MBB": 1676,
      "Plus": 1677,
      "ATM": 1678,
      "Ram": 1679,
      "gov": 1680,
      "pol": 1681,
      "utions": 1682,
      "HU": 1683,
      "Mon": 1684,
      "kinht": 1685,
      "Foods": 1686,
      "BCTC": 1687,
      "Ge": 1688,
      "AR": 1689,
      "At": 1690,
      "ari": 1691,
      "str": 1692,
      "Hyund": 1693,
      "Hyundai": 1694,
      "ding": 1695,
      "lithium": 1696,
      "VietstockFinance": 1697,
      "fanpage": 1698,
      "kinhtesaigon": 1699,
      "BR": 1700,
      "Her": 1701,
      "ym": 1702,
      "CTCK": 1703,
      "Series": 1704,
      "La": 1705,
      "cy": 1706,
      "Investment": 1707,
      "res": 1708,
      "rans": 1709,
      "Instagram": 1710,
      "Lab": 1711,
      "OPEC": 1712,
      "iamond": 1713,
      "BIM": 1714,
      "Gem": 1715,
      "pot": 1716,
      "Gates": 1717,
      "Chinh": 1718,
      "GW": 1719,
      "WB": 1720,
      "Ins": 1721,
      "anda": 1722,
      "Saudi": 1723,
      "Ha": 1724,
      "KS": 1725,
      "low": 1726,
      "Asset": 1727,
      "Ben": 1728,
      "Dat": 1729,
      "LL": 1730,
      "ator": 1731,
      "Dr": 1732,
      "SP": 1733,
      "margin": 1734,
      "TAND": 1735,
      "Urban": 1736,
      "oug": 1737,
      "RON95": 1738,
      "LO": 1739,
      "eral": 1740,
      "Stre": 1741,
      "elex": 1742,
      "Innovation": 1743,
      "Sachs": 1744,
      "26": 1745,
      "CNN": 1746,
      "Sum": 1747,
      "BoJ": 1748,
      "HA": 1749,
      "NIM": 1750,
      "XIII": 1751,
      "Stan": 1752,
      "ross": 1753,
      "VCBS": 1754,
      "38": 1755,
      "Gra": 1756,
      "Ow": 1757,
      "Vietl": 1758,
      "BVBank": 1759,
      "Foundation": 1760,
      "cond": 1761,
      "ellig": 1762,
      "Elite": 1763,
      "RON92": 1764,
      "110kV": 1765,
      "Ab": 1766,
      "Fran": 1767,
      "ext": 1768,
      "isco": 1769,
      "Solutions": 1770,
      "Av": 1771,
      "Vig": 1772,
      "clip": 1773,
      "irect": 1774,
      "act": 1775,
      "awei": 1776,
      "lacera": 1777,
      "Vietlott": 1778,
      "Viglacera": 1779,
      "21": 1780,
      "CR": 1781,
      "Web": 1782,
      "Marina": 1783,
      "DKRA": 1784,
      "ena": 1785,
      "baht": 1786,
      "Texas": 1787,
      "IU": 1788,
      "illa": 1789,
      "TTO": 1790,
      "SpaceX": 1791,
      "Diamond": 1792,
      "GC": 1793,
      "High": 1794,
      "Tal": 1795,
      "WTO": 1796,
      "Ford": 1797,
      "deal": 1798,
      "Huawei": 1799,
      "Lotus": 1800,
      "YC": 1801,
      "aj": 1802,
      "KOL": 1803,
      "Crow": 1804,
      "LX": 1805,
      "bet": 1806,
      "gas": 1807,
      "ler": 1808,
      "VFTA": 1809,
      "Prem": 1810,
      "HRC": 1811,
      "Jones": 1812,
      "Soft": 1813,
      "he": 1814,
      "Yu": 1815,
      "ston": 1816,
      "Econom": 1817,
      "td": 1818,
      "Marketing": 1819,
      "elligence": 1820,
      "NAP": 1821,
      "UBC": 1822,
      "ham": 1823,
      "Mac": 1824,
      "able": 1825,
      "alaxy": 1826,
      "NAPAS": 1827,
      "UBCK": 1828,
      "05": 1829,
      "BA": 1830,
      "PCE": 1831,
      "sand": 1832,
      "Asan": 1833,
      "Nikk": 1834,
      "1A": 1835,
      "CASA": 1836,
      "Imp": 1837,
      "data": 1838,
      "udio": 1839,
      "Adani": 1840,
      "Ky": 1841,
      "UV": 1842,
      "ict": 1843,
      "China": 1844,
      "Christ": 1845,
      "Founder": 1846,
      "IDO": 1847,
      "DOC": 1848,
      "Becam": 1849,
      "Vision": 1850,
      "Asanzo": 1851,
      "Becamex": 1852,
      "ibaba": 1853,
      "Video": 1854,
      "Im": 1855,
      "STTTT": 1856,
      "mod": 1857,
      "YouTube": 1858,
      "Street": 1859,
      "Cam": 1860,
      "DNCC": 1861,
      "Owl": 1862,
      "GAS": 1863,
      "KYC": 1864,
      "LK": 1865,
      "Mor": 1866,
      "Pe": 1867,
      "cle": 1868,
      "ania": 1869,
      "odcast": 1870,
      "Fintech": 1871,
      "Amer": 1872,
      "Kam": 1873,
      "med": 1874,
      "2G": 1875,
      "War": 1876,
      "DXG": 1877,
      "smartphone": 1878,
      "Dev": 1879,
      "24h": 1880,
      "class": 1881,
      "ield": 1882,
      "Next": 1883,
      "ador": 1884,
      "Alibaba": 1885,
      "series": 1886,
      "Ask": 1887,
      "PVN": 1888,
      "Commerce": 1889,
      "Securities": 1890,
      "Galaxy": 1891,
      "Min": 1892,
      "Vol": 1893,
      "Awards": 1894,
      "VT": 1895,
      "out": 1896,
      "arter": 1897,
      "HDB": 1898,
      "Myan": 1899,
      "Cloud": 1900,
      "ousing": 1901,
      "Alphabet": 1902,
      "BRI": 1903,
      "istan": 1904,
      "Sm": 1905,
      "eco": 1906,
      "HH": 1907,
      "KBC": 1908,
      "uss": 1909,
      "SHS": 1910,
      "Art": 1911,
      "Myanmar": 1912,
      "4G": 1913,
      "Ev": 1914,
      "It": 1915,
      "check": 1916,
      "Ne": 1917,
      "Merce": 1918,
      "VSIP": 1919,
      "Jeff": 1920,
      "UBCKNN": 1921,
      "Jers": 1922,
      "Ang": 1923,
      "condotel": 1924,
      "Mercedes": 1925,
      "Jersey": 1926,
      "bl": 1927,
      "park": 1928,
      "vir": 1929,
      "Thaco": 1930,
      "redit": 1931,
      "h00": 1932,
      "Putin": 1933,
      "Dong": 1934,
      "King": 1935,
      "ats": 1936,
      "Industri": 1937,
      "Dow": 1938,
      "HLV": 1939,
      "Tw": 1940,
      "ner": 1941,
      "Festival": 1942,
      "Cas": 1943,
      "ER": 1944,
      "DIG": 1945,
      "her": 1946,
      "ABBank": 1947,
      "LPB": 1948,
      "BRICS": 1949,
      "Housing": 1950,
      "mazut": 1951,
      "etty": 1952,
      "Instit": 1953,
      "By": 1954,
      "ren": 1955,
      "Str": 1956,
      "Ros": 1957,
      "eF": 1958,
      "umer": 1959,
      "Max": 1960,
      "Holding": 1961,
      "Nikkei": 1962,
      "ODA": 1963,
      "aut": 1964,
      "Electron": 1965,
      "VS": 1966,
      "VRE": 1967,
      "inch": 1968,
      "Tiki": 1969,
      "NS": 1970,
      "CBDC": 1971,
      "Sen": 1972,
      "let": 1973,
      "REE": 1974,
      "Institute": 1975,
      "FTSE": 1976,
      "Ltd": 1977,
      "NO": 1978,
      "ative": 1979,
      "GPU": 1980,
      "cm": 1981,
      "ree": 1982,
      "CCCD": 1983,
      "EE": 1984,
      "KP": 1985,
      "SSB": 1986,
      "Intelligence": 1987,
      "ICE": 1988,
      "els": 1989,
      "Enter": 1990,
      "KHCN": 1991,
      "IUU": 1992,
      "Pak": 1993,
      "Sony": 1994,
      "ins": 1995,
      "Ecopark": 1996,
      "Lux": 1997,
      "Dan": 1998,
      "Em": 1999,
      "May": 2000,
      "Up": 2001,
      "omy": 2002,
      "Dub": 2003,
      "Seoul": 2004,
      "PayPal": 2005,
      "Flores": 2006,
      "GVR": 2007,
      "Km": 2008,
      "oan": 2009,
      "Banking": 2010,
      "riv": 2011,
      "Jojo": 2012,
      "chinhphu": 2013,
      "Residences": 2014,
      "Valley": 2015,
      "Brand": 2016,
      "Dus": 2017,
      "Gate": 2018,
      "GenAI": 2019,
      "Lim": 2020,
      "Mits": 2021,
      "ECD": 2022,
      "250": 2023,
      "GD": 2024,
      "Son": 2025,
      "USA": 2026,
      "COM": 2027,
      "card": 2028,
      "Dusit": 2029,
      "3D": 2030,
      "Pa": 2031,
      "CTR": 2032,
      "HTX": 2033,
      "300": 2034,
      "Sw": 2035,
      "ida": 2036,
      "Masteri": 2037,
      "Aeon": 2038,
      "Ku": 2039,
      "KIDO": 2040,
      "Cont": 2041,
      "Ratings": 2042,
      "OECD": 2043,
      "Fl": 2044,
      "PDR": 2045,
      "chem": 2046,
      "rupee": 2047,
      "DNNVV": 2048,
      "sandbox": 2049,
      "80": 2050,
      "mate": 2051,
      "Kamala": 2052,
      "EVFTA": 2053,
      "TE": 2054,
      "Tiktok": 2055,
      "Arabia": 2056,
      "Mank": 2057,
      "earl": 2058,
      "Sunsh": 2059,
      "Josh": 2060,
      "Miss": 2061,
      "Inc": 2062,
      "Mankind": 2063,
      "Sunshine": 2064,
      "Book": 2065,
      "Golf": 2066,
      "dney": 2067,
      "alth": 2068,
      "oung": 2069,
      "Sydney": 2070,
      "C3": 2071,
      "EF": 2072,
      "Robot": 2073,
      "Fr": 2074,
      "Mos": 2075,
      "ger": 2076,
      "Marri": 2077,
      "ford": 2078,
      "BSV": 2079,
      "LED": 2080,
      "Berk": 2081,
      "ori": 2082,
      "ors": 2083,
      "live": 2084,
      "ishery": 2085,
      "33": 2086,
      "Tim": 2087,
      "Work": 2088,
      "test": 2089,
      "Dubai": 2090,
      "Si": 2091,
      "ishi": 2092,
      "PMI": 2093,
      "BOJ": 2094,
      "Sab": 2095,
      "Consumer": 2096,
      "29": 2097,
      "Pw": 2098,
      "SV": 2099,
      "cook": 2100,
      "PwC": 2101,
      "Getty": 2102,
      "bas": 2103,
      "ika": 2104,
      "Lotte": 2105,
      "AT": 2106,
      "Cel": 2107,
      "digital": 2108,
      "outh": 2109,
      "ull": 2110,
      "Banglad": 2111,
      "Watch": 2112,
      "Des": 2113,
      "Auto": 2114,
      "Thomas": 2115,
      "Bangladesh": 2116,
      "Lee": 2117,
      "MXV": 2118,
      "UE": 2119,
      "Buff": 2120,
      "Cat": 2121,
      "Fund": 2122,
      "Hotline": 2123,
      "eKYC": 2124,
      "Chan": 2125,
      "KOC": 2126,
      "Money": 2127,
      "sy": 2128,
      "logan": 2129,
      "Marriott": 2130,
      "Frid": 2131,
      "KBSV": 2132,
      "Sport": 2133,
      "Xia": 2134,
      "ason": 2135,
      "rian": 2136,
      "Uni": 2137,
      "cel": 2138,
      "pris": 2139,
      "zos": 2140,
      "DPPA": 2141,
      "24K": 2142,
      "Water": 2143,
      "Fan": 2144,
      "Kid": 2145,
      "MIC": 2146,
      "ka": 2147,
      "va": 2148,
      "ola": 2149,
      "uru": 2150,
      "stem": 2151,
      "Prime": 2152,
      "Bezos": 2153,
      "WinCommerce": 2154,
      "Super": 2155,
      "CF": 2156,
      "HVN": 2157,
      "HSG": 2158,
      "ki": 2159,
      "oh": 2160,
      "Jour": 2161,
      "Mad": 2162,
      "SMS": 2163,
      "emb": 2164,
      "ury": 2165,
      "GPBank": 2166,
      "Faros": 2167,
      "23": 2168,
      "Aqu": 2169,
      "Best": 2170,
      "SUV": 2171,
      "Young": 2172,
      "ool": 2173,
      "itter": 2174,
      "BB": 2175,
      "Ng": 2176,
      "Roll": 2177,
      "Inter": 2178,
      "Vietinbank": 2179,
      "Corpor": 2180,
      "Residence": 2181,
      "Hamas": 2182,
      "Club": 2183,
      "Jackpot": 2184,
      "Electronics": 2185,
      "Luc": 2186,
      "ility": 2187,
      "Open": 2188,
      "ave": 2189,
      "Caf": 2190,
      "Credit": 2191,
      "HP": 2192,
      "review": 2193,
      "AGR": 2194,
      "Point": 2195,
      "5ha": 2196,
      "Bro": 2197,
      "SPC": 2198,
      "li": 2199,
      "itch": 2200,
      "une": 2201,
      "TOD": 2202,
      "Buffett": 2203,
      "Cy": 2204,
      "QC": 2205,
      "Rich": 2206,
      "ya": 2207,
      "zi": 2208,
      "ental": 2209,
      "IIP": 2210,
      "Vinachem": 2211,
      "Cty": 2212,
      "GO": 2213,
      "HAN": 2214,
      "ages": 2215,
      "Friday": 2216,
      "Bao": 2217,
      "gent": 2218,
      "TPB": 2219,
      "CEP": 2220,
      "DGC": 2221,
      "Twitter": 2222,
      "MIT": 2223,
      "nal": 2224,
      "net": 2225,
      "ste": 2226,
      "coin": 2227,
      "ICT": 2228,
      "OI": 2229,
      "Xtra": 2230,
      "onomy": 2231,
      "02": 2232,
      "Jam": 2233,
      "Nis": 2234,
      "Sign": 2235,
      "token": 2236,
      "ADB": 2237,
      "America": 2238,
      "NLG": 2239,
      "OM": 2240,
      "ora": 2241,
      "ider": 2242,
      "hack": 2243,
      "EX": 2244,
      "Pac": 2245,
      "ush": 2246,
      "Innova": 2247,
      "UB": 2248,
      "84": 2249,
      "ella": 2250,
      "TTTM": 2251,
      "cept": 2252,
      "Latinh": 2253,
      "Fox": 2254,
      "NK": 2255,
      "Oak": 2256,
      "VNI": 2257,
      "Show": 2258,
      "EVNSPC": 2259,
      "Island": 2260,
      "Trade": 2261,
      "Journal": 2262,
      "Raj": 2263,
      "soo": 2264,
      "18K": 2265,
      "Fiin": 2266,
      "HAGL": 2267,
      "Askonomy": 2268,
      "Limited": 2269,
      "Bac": 2270,
      "Ye": 2271,
      "opment": 2272,
      "Report": 2273,
      "ubishi": 2274,
      "ody": 2275,
      "Marc": 2276,
      "Mitsubishi": 2277,
      "BCM": 2278,
      "YT": 2279,
      "uit": 2280,
      "SEC": 2281,
      "Expo": 2282,
      "45": 2283,
      "ua": 2284,
      "ago": 2285,
      "osite": 2286,
      "ABB": 2287,
      "OneHousing": 2288,
      "KL": 2289,
      "Stand": 2290,
      "Mastercard": 2291,
      "oucher": 2292,
      "FRT": 2293,
      "Zel": 2294,
      "24H": 2295,
      "Tele": 2296,
      "Nissan": 2297,
      "NP": 2298,
      "ih": 2299,
      "uan": 2300,
      "eso": 2301,
      "Alt": 2302,
      "ELSA": 2303,
      "98": 2304,
      "IAV": 2305,
      "RB": 2306,
      "big": 2307,
      "uda": 2308,
      "arden": 2309,
      "Hotels": 2310,
      "Franc": 2311,
      "Ah": 2312,
      "Es": 2313,
      "Kore": 2314,
      "field": 2315,
      "erry": 2316,
      "isa": 2317,
      "estay": 2318,
      "gami": 2319,
      "Coolmate": 2320,
      "PHC": 2321,
      "Fort": 2322,
      "ship": 2323,
      "ISO": 2324,
      "Devel": 2325,
      "Drop": 2326,
      "GF": 2327,
      "Gaz": 2328,
      "Liv": 2329,
      "Rivers": 2330,
      "XIV": 2331,
      "bia": 2332,
      "dr": 2333,
      "VinVentures": 2334,
      "Canc": 2335,
      "Dropbox": 2336,
      "Band": 2337,
      "tu": 2338,
      "PTI": 2339,
      "Stri": 2340,
      "HNP": 2341,
      "E5RON92": 2342,
      "5km": 2343,
      "AA": 2344,
      "Bas": 2345,
      "MP": 2346,
      "Morgan": 2347,
      "met": 2348,
      "Chris": 2349,
      "Sagami": 2350,
      "iii": 2351,
      "Pacific": 2352,
      "Fu": 2353,
      "Hub": 2354,
      "Kin": 2355,
      "Kaz": 2356,
      "Lar": 2357,
      "ken": 2358,
      "VNDirect": 2359,
      "homestay": 2360,
      "Riverside": 2361,
      "CAGR": 2362,
      "NA": 2363,
      "Sard": 2364,
      "kh": 2365,
      "mit": 2366,
      "ravel": 2367,
      "Code": 2368,
      "VPCP": 2369,
      "ESCO": 2370,
      "400": 2371,
      "go": 2372,
      "aylor": 2373,
      "opXtra": 2374,
      "000ha": 2375,
      "Sardana": 2376,
      "zone": 2377,
      "amin": 2378,
      "exco": 2379,
      "Store": 2380,
      "GEN": 2381,
      "Gene": 2382,
      "Blackstone": 2383,
      "Standard": 2384,
      "Doug": 2385,
      "Riv": 2386,
      "bur": 2387,
      "voucher": 2388,
      "Vir": 2389,
      "asp": 2390,
      "Cham": 2391,
      "sale": 2392,
      "eev": 2393,
      "SHTT": 2394,
      "Royal": 2395,
      "Pakistan": 2396,
      "Gl": 2397,
      "Wind": 2398,
      "ez": 2399,
      "Vietravel": 2400,
      "Airbus": 2401,
      "ization": 2402,
      "ROE": 2403,
      "Robert": 2404,
      "Travel": 2405,
      "Enterpris": 2406,
      "Ak": 2407,
      "Jap": 2408,
      "Mood": 2409,
      "Ry": 2410,
      "Rock": 2411,
      "arl": 2412,
      "shire": 2413,
      "Joy": 2414,
      "Andro": 2415,
      "Argent": 2416,
      "General": 2417,
      "Scien": 2418,
      "shophouse": 2419,
      "Future": 2420,
      "Consult": 2421,
      "USAID": 2422,
      "Telecom": 2423,
      "Moody": 2424,
      "Act": 2425,
      "Bi": 2426,
      "Est": 2427,
      "VD": 2428,
      "ichi": 2429,
      "aku": 2430,
      "View": 2431,
      "uki": 2432,
      "Beta": 2433,
      "WHO": 2434,
      "peso": 2435,
      "MBBank": 2436,
      "ateg": 2437,
      "SCIC": 2438,
      "struct": 2439,
      "Dy": 2440,
      "Emp": 2441,
      "Soc": 2442,
      "aton": 2443,
      "Chile": 2444,
      "Cost": 2445,
      "VIX": 2446,
      "VPS": 2447,
      "Acc": 2448,
      "Rolls": 2449,
      "Corporation": 2450,
      "VIS": 2451,
      "Royce": 2452,
      "Nobel": 2453,
      "poly": 2454,
      "UEH": 2455,
      "Argentina": 2456,
      "800": 2457,
      "Riel": 2458,
      "XSK": 2459,
      "atar": 2460,
      "GPLX": 2461,
      "Android": 2462,
      "2ha": 2463,
      "36": 2464,
      "EB": 2465,
      "Guru": 2466,
      "HF": 2467,
      "PY": 2468,
      "TD": 2469,
      "orth": 2470,
      "VASE": 2471,
      "Telio": 2472,
      "Delhi": 2473,
      "TNG": 2474,
      "VCI": 2475,
      "base": 2476,
      "ny": 2477,
      "hoay": 2478,
      "Altman": 2479,
      "Cancro": 2480,
      "BAV": 2481,
      "Tata": 2482,
      "omo": 2483,
      "ANK": 2484,
      "ollar": 2485,
      "Georg": 2486,
      "CX": 2487,
      "EIB": 2488,
      "Rap": 2489,
      "ona": 2490,
      "Composite": 2491,
      "pearl": 2492,
      "upper": 2493,
      "Vinpearl": 2494,
      "ado": 2495,
      "opmart": 2496,
      "Arm": 2497,
      "Him": 2498,
      "Kien": 2499,
      "Lake": 2500,
      "San": 2501,
      "min": 2502,
      "mic": 2503,
      "slogan": 2504,
      "uel": 2505,
      "ons": 2506,
      "oto": 2507,
      "Arn": 2508,
      "Netfl": 2509,
      "Netflix": 2510,
      "Dollar": 2511,
      "be": 2512,
      "ira": 2513,
      "Forest": 2514,
      "ACBS": 2515,
      "Bel": 2516,
      "JC": 2517,
      "Penn": 2518,
      "Russ": 2519,
      "South": 2520,
      "Francisco": 2521,
      "Development": 2522,
      "Citi": 2523,
      "EA": 2524,
      "Podcast": 2525,
      "TR": 2526,
      "Ty": 2527,
      "rel": 2528,
      "wa": 2529,
      "omen": 2530,
      "eFishery": 2531,
      "BIC": 2532,
      "omi": 2533,
      "aya": 2534,
      "iana": 2535,
      "OceanBank": 2536,
      "BRG": 2537,
      "Zelens": 2538,
      "Cross": 2539,
      "FMC": 2540,
      "IFC": 2541,
      "Jar": 2542,
      "MAC": 2543,
      "uf": 2544,
      "WinMart": 2545,
      "Metric": 2546,
      "hydrogen": 2547,
      "PropertyGuru": 2548,
      "Salv": 2549,
      "HNG": 2550,
      "rover": 2551,
      "ima": 2552,
      "Singh": 2553,
      "KDH": 2554,
      "Jung": 2555,
      "wood": 2556,
      "Trans": 2557,
      "asoan": 2558,
      "EVNFinance": 2559,
      "Univers": 2560,
      "Adv": 2561,
      "Company": 2562,
      "MEDIA": 2563,
      "toasoan": 2564,
      "Images": 2565,
      "Bal": 2566,
      "CSI": 2567,
      "deep": 2568,
      "ows": 2569,
      "Under": 2570,
      "BSR": 2571,
      "CAR": 2572,
      "finity": 2573,
      "Sports": 2574,
      "CCN": 2575,
      "GFDI": 2576,
      "Lob": 2577,
      "Nar": 2578,
      "NBC": 2579,
      "SO": 2580,
      "Ter": 2581,
      "VB": 2582,
      "CME": 2583,
      "Inf": 2584,
      "ras": 2585,
      "idg": 2586,
      "aily": 2587,
      "VASEP": 2588,
      "VO": 2589,
      "bert": 2590,
      "hel": 2591,
      "CPC": 2592,
      "sey": 2593,
      "Berkshire": 2594,
      "Dav": 2595,
      "EP": 2596,
      "bi": 2597,
      "vers": 2598,
      "itiz": 2599,
      "ote": 2600,
      "hai": 2601,
      "DOGE": 2602,
      "Harald": 2603,
      "Modi": 2604,
      "43": 2605,
      "HR": 2606,
      "Wei": 2607,
      "economy": 2608,
      "ml": 2609,
      "System": 2610,
      "Service": 2611,
      "Korea": 2612,
      "Kn": 2613,
      "NSM": 2614,
      "Sem": 2615,
      "iev": 2616,
      "Key": 2617,
      "NVCC": 2618,
      "SPS": 2619,
      "lu": 2620,
      "vo": 2621,
      "report": 2622,
      "CTV": 2623,
      "Solar": 2624,
      "Strateg": 2625,
      "Salvador": 2626,
      "NSMO": 2627,
      "Dance": 2628,
      "TEC": 2629,
      "Ul": 2630,
      "buck": 2631,
      "trans": 2632,
      "TTC": 2633,
      "PGBank": 2634,
      "HDG": 2635,
      "ST25": 2636,
      "Starbuck": 2637,
      "trend": 2638,
      "Stanley": 2639,
      "Cub": 2640,
      "Lum": 2641,
      "Tupper": 2642,
      "Wo": 2643,
      "rew": 2644,
      "VietBank": 2645,
      "CNV": 2646,
      "Panama": 2647,
      "RCEP": 2648,
      "bu": 2649,
      "kW": 2650,
      "pall": 2651,
      "loay": 2652,
      "United": 2653,
      "endra": 2654,
      "bao": 2655,
      "virus": 2656,
      "Byte": 2657,
      "Xiaomi": 2658,
      "Az": 2659,
      "Dis": 2660,
      "file": 2661,
      "AIA": 2662,
      "API": 2663,
      "Coun": 2664,
      "sw": 2665,
      "Vik": 2666,
      "Brain": 2667,
      "Laco": 2668,
      "LLM": 2669,
      "Equ": 2670,
      "FI": 2671,
      "hacker": 2672,
      "ByteDance": 2673,
      "Off": 2674,
      "Ro": 2675,
      "mon": 2676,
      "top": 2677,
      "ati": 2678,
      "startups": 2679,
      "EDA": 2680,
      "Teleg": 2681,
      "Liang": 2682,
      "arning": 2683,
      "Zelensky": 2684,
      "MACD": 2685,
      "Starbucks": 2686,
      "Lacoste": 2687,
      "Garden": 2688,
      "Wen": 2689,
      "fake": 2690,
      "oshi": 2691,
      "Alexa": 2692,
      "Paul": 2693,
      "Aqua": 2694,
      "XSKT": 2695,
      "Selex": 2696,
      "bar": 2697,
      "lic": 2698,
      "well": 2699,
      "ineken": 2700,
      "Stream": 2701,
      "ange": 2702,
      "over": 2703,
      "mann": 2704,
      "BoC": 2705,
      "POS": 2706,
      "Heineken": 2707,
      "athon": 2708,
      "uyen": 2709,
      "B3": 2710,
      "F250": 2711,
      "cu": 2712,
      "udy": 2713,
      "obile": 2714,
      "Mach": 2715,
      "THX": 2716,
      "aste": 2717,
      "point": 2718,
      "abaco": 2719,
      "B2B": 2720,
      "VSDC": 2721,
      "James": 2722,
      "AU": 2723,
      "Dabaco": 2724,
      "Ri": 2725,
      "iOS": 2726,
      "set": 2727,
      "uo": 2728,
      "ature": 2729,
      "TCH": 2730,
      "MSCI": 2731,
      "Benz": 2732,
      "Warren": 2733,
      "blue": 2734,
      "letter": 2735,
      "Consulting": 2736,
      "Fri": 2737,
      "F24": 2738,
      "br": 2739,
      "can": 2740,
      "cert": 2741,
      "oit": 2742,
      "rome": 2743,
      "Chem": 2744,
      "este": 2745,
      "ague": 2746,
      "EVNGEN": 2747,
      "DNSE": 2748,
      "Abo": 2749,
      "Bay": 2750,
      "Dream": 2751,
      "Jan": 2752,
      "Kiev": 2753,
      "Moun": 2754,
      "VTP": 2755,
      "sum": 2756,
      "VinBrain": 2757,
      "Charm": 2758,
      "VRG": 2759,
      "GMV": 2760,
      "Andrew": 2761,
      "39B": 2762,
      "Aboitiz": 2763,
      "88": 2764,
      "Cr": 2765,
      "Ea": 2766,
      "RP": 2767,
      "lv": 2768,
      "asek": 2769,
      "Charter": 2770,
      "phong": 2771,
      "League": 2772,
      "166": 2773,
      "Andy": 2774,
      "A2": 2775,
      "Will": 2776,
      "als": 2777,
      "Phen": 2778,
      "Che": 2779,
      "Stev": 2780,
      "amily": 2781,
      "Trading": 2782,
      "B1": 2783,
      "Eth": 2784,
      "Hol": 2785,
      "Ja": 2786,
      "Vlad": 2787,
      "gan": 2788,
      "stra": 2789,
      "ray": 2790,
      "Shun": 2791,
      "comm": 2792,
      "Coco": 2793,
      "ifah": 2794,
      "Temasek": 2795,
      "ASTA": 2796,
      "Huza": 2797,
      "SMEs": 2798,
      "Crowd": 2799,
      "Huzaifah": 2800,
      "Gelex": 2801,
      "PVI": 2802,
      "VNA": 2803,
      "VNR": 2804,
      "PTC3": 2805,
      "Plat": 2806,
      "180": 2807,
      "Gamuda": 2808,
      "ikaa": 2809,
      "Phenikaa": 2810,
      "7ha": 2811,
      "Bos": 2812,
      "MH": 2813,
      "ui": 2814,
      "ven": 2815,
      "CBCNV": 2816,
      "iger": 2817,
      "Newsletter": 2818,
      "Chartered": 2819,
      "Jet": 2820,
      "LDG": 2821,
      "Villa": 2822,
      "XS": 2823,
      "nb": 2824,
      "iser": 2825,
      "ista": 2826,
      "ASO": 2827,
      "ROS": 2828,
      "ienphong": 2829,
      "EuroCham": 2830,
      "Robotics": 2831,
      "Gaza": 2832,
      "Woori": 2833,
      "lvania": 2834,
      "1ha": 2835,
      "DD": 2836,
      "KQ": 2837,
      "Make": 2838,
      "Ost": 2839,
      "food": 2840,
      "que": 2841,
      "ball": 2842,
      "LEX": 2843,
      "Jose": 2844,
      "Morris": 2845,
      "Angel": 2846,
      "Industries": 2847,
      "Tupperware": 2848,
      "MVA": 2849,
      "Pou": 2850,
      "Tag": 2851,
      "UBS": 2852,
      "gg": 2853,
      "war": 2854,
      "itt": 2855,
      "edan": 2856,
      "imir": 2857,
      "ials": 2858,
      "508": 2859,
      "SCG": 2860,
      "enger": 2861,
      "VnExpress": 2862,
      "TBM": 2863,
      "Qual": 2864,
      "70508": 2865,
      "03166": 2866,
      "Casper": 2867,
      "Contin": 2868,
      "33A": 2869,
      "Ostrover": 2870,
      "0316670508": 2871,
      "Pat": 2872,
      "UAV": 2873,
      "TTHC": 2874,
      "Infinity": 2875,
      "Indoch": 2876,
      "nect": 2877,
      "CIO": 2878,
      "Visa": 2879,
      "Rating": 2880,
      "Zhang": 2881,
      "Social": 2882,
      "Russell": 2883,
      "Vladimir": 2884,
      "DBC": 2885,
      "Daily": 2886,
      "ETH": 2887,
      "Wake": 2888,
      "Zann": 2889,
      "USDA": 2890,
      "CMG": 2891,
      "SEMI": 2892,
      "GPMB": 2893,
      "CNC": 2894,
      "prote": 2895,
      "Melody": 2896,
      "Frank": 2897,
      "Zannier": 2898,
      "Ay": 2899,
      "CV": 2900,
      "Cle": 2901,
      "Jim": 2902,
      "Lou": 2903,
      "Mur": 2904,
      "ax": 2905,
      "nhan": 2906,
      "arch": 2907,
      "erson": 2908,
      "EVNCPC": 2909,
      "VPBankS": 2910,
      "150": 2911,
      "Avis": 2912,
      "Era": 2913,
      "Hur": 2914,
      "Taylor": 2915,
      "Vict": 2916,
      "XII": 2917,
      "Economics": 2918,
      "Lobster": 2919,
      "Bre": 2920,
      "BAF": 2921,
      "R1": 2922,
      "Tak": 2923,
      "Tour": 2924,
      "blog": 2925,
      "feng": 2926,
      "long": 2927,
      "sil": 2928,
      "adium": 2929,
      "ift": 2930,
      "BoE": 2931,
      "10h": 2932,
      "TBA": 2933,
      "Alexand": 2934,
      "NKG": 2935,
      "Er": 2936,
      "SZ": 2937,
      "yu": 2938,
      "ami": 2939,
      "inger": 2940,
      "CBAM": 2941,
      "inhan": 2942,
      "APEC": 2943,
      "resort": 2944,
      "Timor": 2945,
      "Continental": 2946,
      "Grow": 2947,
      "Kr": 2948,
      "bps": 2949,
      "kor": 2950,
      "sters": 2951,
      "Shinhan": 2952,
      "BHYT": 2953,
      "THCS": 2954,
      "Walmart": 2955,
      "Talk": 2956,
      "Italy": 2957,
      "Strike": 2958,
      "Costco": 2959,
      "FMCG": 2960,
      "Hil": 2961,
      "LH": 2962,
      "Mill": 2963,
      "Ore": 2964,
      "Wong": 2965,
      "xx": 2966,
      "anh": 2967,
      "studio": 2968,
      "Chrome": 2969,
      "Masters": 2970,
      "SAV": 2971,
      "GIZ": 2972,
      "burg": 2973,
      "G20": 2974,
      "Laud": 2975,
      "Top": 2976,
      "ko": 2977,
      "athan": 2978,
      "ili": 2979,
      "BNV": 2980,
      "Chic": 2981,
      "post": 2982,
      "YouNet": 2983,
      "Lauder": 2984,
      "Ap": 2985,
      "GAP": 2986,
      "Pack": 2987,
      "eas": 2988,
      "pla": 2989,
      "code": 2990,
      "ular": 2991,
      "Boston": 2992,
      "POW": 2993,
      "ABA": 2994,
      "6h": 2995,
      "Cook": 2996,
      "Gas": 2997,
      "IEL": 2998,
      "NTT": 2999,
      "atch": 3000,
      "ila": 3001,
      "PVD": 3002,
      "Arch": 3003,
      "SoftBank": 3004,
      "cookie": 3005,
      "Tags": 3006,
      "Chicago": 3007,
      "4ha": 3008,
      "EPS": 3009,
      "Gran": 3010,
      "KR": 3011,
      "caf": 3012,
      "gym": 3013,
      "jek": 3014,
      "eda": 3015,
      "Phill": 3016,
      "gaz": 3017,
      "Bridg": 3018,
      "Carbon": 3019,
      "Europe": 3020,
      "UPCOM": 3021,
      "Town": 3022,
      "Premium": 3023,
      "NOXH": 3024,
      "TECx": 3025,
      "SAVVi": 3026,
      "IELTS": 3027,
      "600": 3028,
      "BW": 3029,
      "Sim": 3030,
      "Women": 3031,
      "di": 3032,
      "vit": 3033,
      "inc": 3034,
      "DIC": 3035,
      "Coinbase": 3036,
      "7km": 3037,
      "Ever": 3038,
      "FTS": 3039,
      "GA": 3040,
      "Leste": 3041,
      "enc": 3042,
      "chips": 3043,
      "ille": 3044,
      "Trust": 3045,
      "ower": 3046,
      "PVS": 3047,
      "15h": 3048,
      "Crown": 3049,
      "embers": 3050,
      "Shuns": 3051,
      "Yang": 3052,
      "dit": 3053,
      "ja": 3054,
      "vin": 3055,
      "Thai": 3056,
      "Steel": 3057,
      "Cush": 3058,
      "Gut": 3059,
      "Pre": 3060,
      "Sn": 3061,
      "WOM": 3062,
      "vard": 3063,
      "ison": 3064,
      "comp": 3065,
      "Extra": 3066,
      "ESOP": 3067,
      "Walter": 3068,
      "Florida": 3069,
      "Keiser": 3070,
      "Atl": 3071,
      "Daniel": 3072,
      "Enterprise": 3073,
      "micro": 3074,
      "Cushman": 3075,
      "6ha": 3076,
      "Af": 3077,
      "Dom": 3078,
      "WD": 3079,
      "XD": 3080,
      "xAI": 3081,
      "SEA": 3082,
      "ront": 3083,
      "offline": 3084,
      "Wakefield": 3085,
      "Shunsaku": 3086,
      "BMW": 3087,
      "Gi": 3088,
      "Jun": 3089,
      "No": 3090,
      "Pad": 3091,
      "Pai": 3092,
      "Rad": 3093,
      "mph": 3094,
      "rick": 3095,
      "rob": 3096,
      "aka": 3097,
      "Eng": 3098,
      "ights": 3099,
      "Steph": 3100,
      "Yuanta": 3101,
      "sylvania": 3102,
      "Pennsylvania": 3103,
      "Care": 3104,
      "EIA": 3105,
      "Tony": 3106,
      "XRP": 3107,
      "mil": 3108,
      "agen": 3109,
      "Seed": 3110,
      "baot": 3111,
      "formation": 3112,
      "DongA": 3113,
      "Design": 3114,
      "Oakland": 3115,
      "2m": 3116,
      "90": 3117,
      "BI": 3118,
      "SD": 3119,
      "Wiz": 3120,
      "duct": 3121,
      "stan": 3122,
      "Gojek": 3123,
      "ienco": 3124,
      "Markets": 3125,
      "MOU": 3126,
      "EVNNPC": 3127,
      "McKin": 3128,
      "17h": 3129,
      "Fortune": 3130,
      "baochinhphu": 3131,
      "CD": 3132,
      "Cop": 3133,
      "Jak": 3134,
      "Na": 3135,
      "Pra": 3136,
      "Panda": 3137,
      "VU": 3138,
      "Ven": 3139,
      "Wond": 3140,
      "fund": 3141,
      "oon": 3142,
      "oco": 3143,
      "ild": 3144,
      "Technologies": 3145,
      "Stanford": 3146,
      "Cocoon": 3147,
      "robusta": 3148,
      "Bit": 3149,
      "Cad": 3150,
      "Cienco": 3151,
      "Hung": 3152,
      "Mid": 3153,
      "Nap": 3154,
      "PBoC": 3155,
      "gar": 3156,
      "iro": 3157,
      "xn": 3158,
      "itz": 3159,
      "India": 3160,
      "cont": 3161,
      "akh": 3162,
      "ustin": 3163,
      "shan": 3164,
      "team": 3165,
      "KPI": 3166,
      "Avison": 3167,
      "Bh": 3168,
      "Ghan": 3169,
      "esk": 3170,
      "cow": 3171,
      "uth": 3172,
      "Studio": 3173,
      "Construct": 3174,
      "izer": 3175,
      "PMG": 3176,
      "Scott": 3177,
      "UNESCO": 3178,
      "Haus": 3179,
      "ablecoin": 3180,
      "Cyber": 3181,
      "VDSC": 3182,
      "McKinsey": 3183,
      "Construction": 3184,
      "06": 3185,
      "28": 3186,
      "2km": 3187,
      "3km": 3188,
      "Bern": 3189,
      "HB": 3190,
      "Ren": 3191,
      "WEF": 3192,
      "bai": 3193,
      "eed": 3194,
      "iet": 3195,
      "win": 3196,
      "entany": 3197,
      "Books": 3198,
      "Moscow": 3199,
      "khang": 3200,
      "entanyl": 3201,
      "Bol": 3202,
      "FL": 3203,
      "Kar": 3204,
      "Tab": 3205,
      "leball": 3206,
      "Lead": 3207,
      "Qualcomm": 3208,
      "baotienphong": 3209,
      "BGTVT": 3210,
      "Cor": 3211,
      "F1": 3212,
      "Mira": 3213,
      "PCCC": 3214,
      "Serg": 3215,
      "au": 3216,
      "city": 3217,
      "fentanyl": 3218,
      "hal": 3219,
      "lex": 3220,
      "mark": 3221,
      "ese": 3222,
      "ickleball": 3223,
      "Colom": 3224,
      "ierre": 3225,
      "Tax": 3226,
      "Mountain": 3227,
      "Indochina": 3228,
      "Brian": 3229,
      "Hop": 3230,
      "HQC": 3231,
      "KPMG": 3232,
      "MTT": 3233,
      "Priv": 3234,
      "cc": 3235,
      "cxn": 3236,
      "hip": 3237,
      "m3": 3238,
      "Vinat": 3239,
      "NTL": 3240,
      "Centre": 3241,
      "Comex": 3242,
      "Tracxn": 3243,
      "Hana": 3244,
      "ThS": 3245,
      "price": 3246,
      "Sendo": 3247,
      "Narendra": 3248,
      "SZC": 3249,
      "gazine": 3250,
      "Hungary": 3251,
      "5m2": 3252,
      "Farm": 3253,
      "FGF": 3254,
      "Irel": 3255,
      "Squ": 3256,
      "anime": 3257,
      "arta": 3258,
      "estone": 3259,
      "Symph": 3260,
      "Telegram": 3261,
      "CrowdStrike": 3262,
      "Ireland": 3263,
      "Symphony": 3264,
      "GSM": 3265,
      "Sam": 3266,
      "Vo": 3267,
      "WGC": 3268,
      "iy": 3269,
      "lap": 3270,
      "CMS": 3271,
      "loy": 3272,
      "Saf": 3273,
      "FedWatch": 3274,
      "enny": 3275,
      "Motors": 3276,
      "Madrid": 3277,
      "MTTQ": 3278,
      "DW": 3279,
      "Mess": 3280,
      "Matt": 3281,
      "PHS": 3282,
      "Than": 3283,
      "lot": 3284,
      "made": 3285,
      "sal": 3286,
      "Finra": 3287,
      "White": 3288,
      "000km": 3289,
      "Organ": 3290,
      "deepfake": 3291,
      "Bridgestone": 3292,
      "Nada": 3293,
      "Ple": 3294,
      "Sor": 3295,
      "ju": 3296,
      "ound": 3297,
      "osa": 3298,
      "Agr": 3299,
      "Search": 3300,
      "Micro": 3301,
      "AMD": 3302,
      "BVH": 3303,
      "sensia": 3304,
      "Deal": 3305,
      "Caty": 3306,
      "Essensia": 3307,
      "Family": 3308,
      "Il": 3309,
      "Mang": 3310,
      "SX": 3311,
      "TEU": 3312,
      "Thy": 3313,
      "UF": 3314,
      "eWOM": 3315,
      "su": 3316,
      "Maz": 3317,
      "Sea": 3318,
      "CST": 3319,
      "Summit": 3320,
      "Richard": 3321,
      "Japan": 3322,
      "palladium": 3323,
      "34": 3324,
      "IO": 3325,
      "Ora": 3326,
      "pay": 3327,
      "yr": 3328,
      "conn": 3329,
      "SMR": 3330,
      "CAD": 3331,
      "Autom": 3332,
      "Foxconn": 3333,
      "Systems": 3334,
      "ASI": 3335,
      "Ga": 3336,
      "SDG": 3337,
      "Ten": 3338,
      "bum": 3339,
      "ism": 3340,
      "ision": 3341,
      "Magazine": 3342,
      "Harvard": 3343,
      "Johnson": 3344,
      "true": 3345,
      "showroom": 3346,
      "Linked": 3347,
      "Electric": 3348,
      "Peru": 3349,
      "Smile": 3350,
      "Fanpage": 3351,
      "Kell": 3352,
      "PL": 3353,
      "Pf": 3354,
      "Pri": 3355,
      "Qatar": 3356,
      "Sub": 3357,
      "ft": 3358,
      "ker": 3359,
      "mobile": 3360,
      "che": 3361,
      "Vietbank": 3362,
      "Shin": 3363,
      "ester": 3364,
      "ural": 3365,
      "ude": 3366,
      "ove": 3367,
      "PVC": 3368,
      "balife": 3369,
      "Comput": 3370,
      "VLA": 3371,
      "MOHO": 3372,
      "Sciences": 3373,
      "Jakarta": 3374,
      "Bur": 3375,
      "Cement": 3376,
      "Fred": 3377,
      "FWD": 3378,
      "MM": 3379,
      "ble": 3380,
      "cill": 3381,
      "iVI": 3382,
      "stablecoin": 3383,
      "omware": 3384,
      "ingo": 3385,
      "abad": 3386,
      "TNCS": 3387,
      "Reddit": 3388,
      "Insider": 3389,
      "laptop": 3390,
      "Pfizer": 3391,
      "iVIVU": 3392,
      "BL": 3393,
      "BTS": 3394,
      "Hill": 3395,
      "gate": 3396,
      "lan": 3397,
      "ater": 3398,
      "ilding": 3399,
      "read": 3400,
      "Charl": 3401,
      "concert": 3402,
      "shark": 3403,
      "ECH": 3404,
      "ugh": 3405,
      "astic": 3406,
      "Carl": 3407,
      "GMD": 3408,
      "Oscill": 3409,
      "Rajeev": 3410,
      "Rapexco": 3411,
      "protein": 3412,
      "Louis": 3413,
      "Oscillator": 3414,
      "Bain": 3415,
      "Dun": 3416,
      "Kha": 3417,
      "MV": 3418,
      "QT": 3419,
      "Sand": 3420,
      "Tur": 3421,
      "Ver": 3422,
      "BNN": 3423,
      "raq": 3424,
      "combo": 3425,
      "iki": 3426,
      "seed": 3427,
      "Guard": 3428,
      "Gemini": 3429,
      "Kienlong": 3430,
      "ASOCIO": 3431,
      "Taboo": 3432,
      "Mirae": 3433,
      "Mazda": 3434,
      "Oracle": 3435,
      "Ol": 3436,
      "sc": 3437,
      "start": 3438,
      "cherry": 3439,
      "iacap": 3440,
      "upe": 3441,
      "DIRE": 3442,
      "Stoch": 3443,
      "VPI": 3444,
      "Mont": 3445,
      "River": 3446,
      "Hurry": 3447,
      "Colombia": 3448,
      "iacaphe": 3449,
      "Ax": 3450,
      "CII": 3451,
      "Misa": 3452,
      "NAB": 3453,
      "NASA": 3454,
      "Pte": 3455,
      "RK": 3456,
      "Sur": 3457,
      "hor": 3458,
      "life": 3459,
      "members": 3460,
      "rat": 3461,
      "CMI": 3462,
      "Capita": 3463,
      "CSQR": 3464,
      "Manila": 3465,
      "10K": 3466,
      "BOC": 3467,
      "QH14": 3468,
      "Amkor": 3469,
      "play": 3470,
      "Labs": 3471,
      "Impack": 3472,
      "Mineral": 3473,
      "Sabin": 3474,
      "NATO": 3475,
      "CapitaLand": 3476,
      "CSQRT": 3477,
      "Bin": 3478,
      "Ko": 3479,
      "Kus": 3480,
      "NI": 3481,
      "Vic": 3482,
      "nix": 3483,
      "pre": 3484,
      "Mavis": 3485,
      "Brun": 3486,
      "COP26": 3487,
      "GELEX": 3488,
      "Oils": 3489,
      "Website": 3490,
      "vitamin": 3491,
      "1m2": 3492,
      "Nm": 3493,
      "T3": 3494,
      "VII": 3495,
      "wan": 3496,
      "Shar": 3497,
      "ations": 3498,
      "ublic": 3499,
      "Hugg": 3500,
      "Connect": 3501,
      "amillo": 3502,
      "Cooltrans": 3503,
      "Jaramillo": 3504,
      "ABACooltrans": 3505,
      "Gutierre": 3506,
      "Gutierrez": 3507,
      "5S": 3508,
      "Cir": 3509,
      "Four": 3510,
      "How": 3511,
      "Iv": 3512,
      "JO": 3513,
      "Lav": 3514,
      "S3": 3515,
      "XL": 3516,
      "flow": 3517,
      "ely": 3518,
      "CBBank": 3519,
      "PCI": 3520,
      "ilever": 3521,
      "AGM": 3522,
      "Hyatt": 3523,
      "Medical": 3524,
      "Venture": 3525,
      "QLDA": 3526,
      "drone": 3527,
      "Windows": 3528,
      "Stochastic": 3529,
      "4h30": 3530,
      "7h": 3531,
      "Aman": 3532,
      "Bor": 3533,
      "Cz": 3534,
      "Fre": 3535,
      "H2": 3536,
      "MDR": 3537,
      "Nic": 3538,
      "So": 3539,
      "SCM": 3540,
      "four": 3541,
      "ene": 3542,
      "rough": 3543,
      "Champ": 3544,
      "AIG": 3545,
      "ippon": 3546,
      "ize": 3547,
      "indu": 3548,
      "Mater": 3549,
      "22h": 3550,
      "Ramesh": 3551,
      "Software": 3552,
      "Cuba": 3553,
      "Fried": 3554,
      "Czech": 3555,
      "MDRT": 3556,
      "5h": 3557,
      "6km": 3558,
      "Card": 3559,
      "Port": 3560,
      "Pav": 3561,
      "REU": 3562,
      "Sel": 3563,
      "gi": 3564,
      "podcast": 3565,
      "ilon": 3566,
      "VinUni": 3567,
      "VinRobotics": 3568,
      "ifi": 3569,
      "EUDR": 3570,
      "Whats": 3571,
      "Unilever": 3572,
      "Grac": 3573,
      "TERS": 3574,
      "Lucence": 3575,
      "EBIT": 3576,
      "Steve": 3577,
      "Victor": 3578,
      "Minerals": 3579,
      "REUTERS": 3580,
      "Bir": 3581,
      "Bul": 3582,
      "Ish": 3583,
      "JPM": 3584,
      "Justin": 3585,
      "NX": 3586,
      "Opp": 3587,
      "eh": 3588,
      "mas": 3589,
      "ux": 3590,
      "raph": 3591,
      "Marathon": 3592,
      "Ant": 3593,
      "Blu": 3594,
      "05S": 3595,
      "UBTV": 3596,
      "Generali": 3597,
      "Arnaud": 3598,
      "LinkedIn": 3599,
      "Hills": 3600,
      "Nav": 3601,
      "Out": 3602,
      "PLX": 3603,
      "Well": 3604,
      "rand": 3605,
      "zen": 3606,
      "CC1": 3607,
      "Product": 3608,
      "Nova": 3609,
      "BVMT": 3610,
      "prop": 3611,
      "Metals": 3612,
      "FERI": 3613,
      "Western": 3614,
      "55": 3615,
      "EG": 3616,
      "Gri": 3617,
      "NL": 3618,
      "Ox": 3619,
      "face": 3620,
      "zero": 3621,
      "reen": 3622,
      "HDC": 3623,
      "Vissan": 3624,
      "3943": 3625,
      "iscover": 3626,
      "HFIC": 3627,
      "Equity": 3628,
      "180CST": 3629,
      "3ha": 3630,
      "Di": 3631,
      "Happ": 3632,
      "Kum": 3633,
      "Long": 3634,
      "VJC": 3635,
      "ject": 3636,
      "my": 3637,
      "icond": 3638,
      "Ageas": 3639,
      "Beach": 3640,
      "MCH": 3641,
      "Cola": 3642,
      "Chanut": 3643,
      "verse": 3644,
      "Semicond": 3645,
      "funding": 3646,
      "Tencent": 3647,
      "JPMorgan": 3648,
      "Semiconduct": 3649,
      "Cry": 3650,
      "Ecu": 3651,
      "Kur": 3652,
      "PR": 3653,
      "fest": 3654,
      "wide": 3655,
      "ane": 3656,
      "rai": 3657,
      "oth": 3658,
      "iku": 3659,
      "ECI": 3660,
      "Health": 3661,
      "Square": 3662,
      "37": 3663,
      "BKS": 3664,
      "Carter": 3665,
      "Gar": 3666,
      "Hon": 3667,
      "IF": 3668,
      "IPC": 3669,
      "VGI": 3670,
      "lama": 3671,
      "tone": 3672,
      "villa": 3673,
      "uduc": 3674,
      "EUR": 3675,
      "TNMT": 3676,
      "100km": 3677,
      "ricular": 3678,
      "curricular": 3679,
      "Extracurricular": 3680,
      "Ghanem": 3681,
      "Ecuador": 3682,
      "700": 3683,
      "Discover": 3684,
      "Fly": 3685,
      "Iraq": 3686,
      "Kw": 3687,
      "Mun": 3688,
      "PAG": 3689,
      "Pao": 3690,
      "group": 3691,
      "hotline": 3692,
      "ness": 3693,
      "ont": 3694,
      "asa": 3695,
      "otive": 3696,
      "Cha": 3697,
      "AGRI": 3698,
      "Thuduc": 3699,
      "60m2": 3700,
      "Materials": 3701,
      "WhatsApp": 3702,
      "Griff": 3703,
      "Ele": 3704,
      "Jr": 3705,
      "MAS": 3706,
      "Sat": 3707,
      "iPad": 3708,
      "album": 3709,
      "Coca": 3710,
      "TikToker": 3711,
      "iano": 3712,
      "Spir": 3713,
      "SBT": 3714,
      "HCV": 3715,
      "Oilprice": 3716,
      "Snap": 3717,
      "Hel": 3718,
      "LA": 3719,
      "sedan": 3720,
      "TPA": 3721,
      "banking": 3722,
      "igub": 3723,
      "SGT": 3724,
      "osh": 3725,
      "30m2": 3726,
      "VFA": 3727,
      "50ha": 3728,
      "visa": 3729,
      "Herbalife": 3730,
      "NextTech": 3731,
      "Bob": 3732,
      "Cen": 3733,
      "Fold": 3734,
      "Hit": 3735,
      "IDI": 3736,
      "Line": 3737,
      "Ori": 3738,
      "PBOC": 3739,
      "Tor": 3740,
      "ring": 3741,
      "alys": 3742,
      "umi": 3743,
      "osp": 3744,
      "All": 3745,
      "Meet": 3746,
      "VCCorp": 3747,
      "Beaut": 3748,
      "back": 3749,
      "Advis": 3750,
      "14h": 3751,
      "Eurozone": 3752,
      "Educ": 3753,
      "UNDP": 3754,
      "A330": 3755,
      "ransomware": 3756,
      "Kido": 3757,
      "Hilton": 3758,
      "Thani": 3759,
      "BSI": 3760,
      "Der": 3761,
      "Nippon": 3762,
      "fre": 3763,
      "pickleball": 3764,
      "ole": 3765,
      "learning": 3766,
      "istic": 3767,
      "Panote": 3768,
      "spa": 3769,
      "Barry": 3770,
      "Ultra": 3771,
      "120": 3772,
      "FV": 3773,
      "Fitch": 3774,
      "HSC": 3775,
      "ING": 3776,
      "Los": 3777,
      "Map": 3778,
      "Pink": 3779,
      "Rub": 3780,
      "Rab": 3781,
      "Ripp": 3782,
      "Sri": 3783,
      "Touch": 3784,
      "gal": 3785,
      "ition": 3786,
      "Vietcap": 3787,
      "Fact": 3788,
      "through": 3789,
      "pper": 3790,
      "aki": 3791,
      "force": 3792,
      "Hybrid": 3793,
      "Quoc": 3794,
      "spin": 3795,
      "VTRE": 3796,
      "FiinGroup": 3797,
      "Pleiku": 3798,
      "Education": 3799,
      "Ripple": 3800,
      "8km": 3801,
      "DH": 3802,
      "Dest": 3803,
      "Fel": 3804,
      "G7": 3805,
      "Kod": 3806,
      "Ok": 3807,
      "na": 3808,
      "slot": 3809,
      "tom": 3810,
      "alia": 3811,
      "rad": 3812,
      "Trigub": 3813,
      "Chang": 3814,
      "aby": 3815,
      "abin": 3816,
      "VFS": 3817,
      "Price": 3818,
      "Asian": 3819,
      "Saigonbank": 3820,
      "CIEM": 3821,
      "MAX": 3822,
      "ochoi": 3823,
      "Wealth": 3824,
      "Pollo": 3825,
      "Investments": 3826,
      "Swift": 3827,
      "Signature": 3828,
      "Ahmed": 3829,
      "Break": 3830,
      "Messenger": 3831,
      "seeding": 3832,
      "Triguboff": 3833,
      "AWS": 3834,
      "BSC": 3835,
      "Cla": 3836,
      "Direct": 3837,
      "FDA": 3838,
      "Jew": 3839,
      "JPY": 3840,
      "Lib": 3841,
      "More": 3842,
      "Simm": 3843,
      "Yama": 3844,
      "Mail": 3845,
      "html": 3846,
      "itect": 3847,
      "APAC": 3848,
      "Guo": 3849,
      "Model": 3850,
      "11h": 3851,
      "Liu": 3852,
      "Premier": 3853,
      "Yeah": 3854,
      "Napas": 3855,
      "Computer": 3856,
      "Semiconductor": 3857,
      "Yamaha": 3858,
      "Bike": 3859,
      "Eag": 3860,
      "HEV": 3861,
      "Que": 3862,
      "VDS": 3863,
      "Yoo": 3864,
      "jan": 3865,
      "oline": 3866,
      "stic": 3867,
      "rom": 3868,
      "ourist": 3869,
      "imco": 3870,
      "igam": 3871,
      "SECC": 3872,
      "ulip": 3873,
      "Campero": 3874,
      "Brin": 3875,
      "Caleb": 3876,
      "MICE": 3877,
      "McCaleb": 3878,
      "IBM": 3879,
      "Osaka": 3880,
      "model": 3881,
      "Nguyen": 3882,
      "Office": 3883,
      "Geleximco": 3884,
      "DWT": 3885,
      "6m": 3886,
      "CTS": 3887,
      "Coo": 3888,
      "CRE": 3889,
      "ECO": 3890,
      "Hat": 3891,
      "Num": 3892,
      "Rod": 3893,
      "Tina": 3894,
      "Van": 3895,
      "dy": 3896,
      "jee": 3897,
      "arus": 3898,
      "etter": 3899,
      "Union": 3900,
      "14K": 3901,
      "Clin": 3902,
      "DXS": 3903,
      "Oregon": 3904,
      "Jewel": 3905,
      "350": 3906,
      "CTP": 3907,
      "CSGT": 3908,
      "DV": 3909,
      "Dal": 3910,
      "ITA": 3911,
      "LI": 3912,
      "TAS": 3913,
      "WHA": 3914,
      "word": 3915,
      "arab": 3916,
      "enue": 3917,
      "olla": 3918,
      "los": 3919,
      "ayak": 3920,
      "Choi": 3921,
      "Coind": 3922,
      "VPSA": 3923,
      "Michel": 3924,
      "CSR": 3925,
      "pool": 3926,
      "Quanta": 3927,
      "gener": 3928,
      "Milano": 3929,
      "Highland": 3930,
      "Smith": 3931,
      "Industrial": 3932,
      "Livestream": 3933,
      "Yeah1": 3934,
      "Coindesk": 3935,
      "6m2": 3936,
      "Ace": 3937,
      "Cit": 3938,
      "DT": 3939,
      "Jenn": 3940,
      "Sas": 3941,
      "Waste": 3942,
      "XX": 3943,
      "YTL": 3944,
      "nm": 3945,
      "ria": 3946,
      "town": 3947,
      "rack": 3948,
      "edict": 3949,
      "ution": 3950,
      "Airline": 3951,
      "REIT": 3952,
      "STEM": 3953,
      "Buyo": 3954,
      "Jean": 3955,
      "Impact": 3956,
      "ufact": 3957,
      "Private": 3958,
      "Automotive": 3959,
      "Kelly": 3960,
      "Simmons": 3961,
      "A1": 3962,
      "BK": 3963,
      "Bak": 3964,
      "Biz": 3965,
      "BKHCN": 3966,
      "Cake": 3967,
      "EN": 3968,
      "Gyu": 3969,
      "Light": 3970,
      "OF": 3971,
      "we": 3972,
      "atista": 3973,
      "Alp": 3974,
      "shipp": 3975,
      "anced": 3976,
      "FAA": 3977,
      "flu": 3978,
      "ABBANK": 3979,
      "Tyson": 3980,
      "Platform": 3981,
      "SCMP": 3982,
      "Spirit": 3983,
      "Ari": 3984,
      "Bad": 3985,
      "Dar": 3986,
      "Kel": 3987,
      "Llama": 3988,
      "Pindu": 3989,
      "Seng": 3990,
      "fast": 3991,
      "les": 3992,
      "TPG": 3993,
      "ican": 3994,
      "VinFuture": 3995,
      "Sher": 3996,
      "Chub": 3997,
      "VICO": 3998,
      "oduo": 3999,
      "Arena": 4000,
      "Peps": 4001,
      "Glass": 4002,
      "Binance": 4003,
      "Pinduoduo": 4004,
      "Bess": 4005,
      "Dec": 4006,
      "Ia": 4007,
      "IEA": 4008,
      "KIS": 4009,
      "Law": 4010,
      "Mr": 4011,
      "North": 4012,
      "WSJ": 4013,
      "hee": 4014,
      "mi": 4015,
      "iah": 4016,
      "olas": 4017,
      "comBank": 4018,
      "AgriS": 4019,
      "Nobu": 4020,
      "Avenue": 4021,
      "Luxury": 4022,
      "Virgin": 4023,
      "EVNGENCO": 4024,
      "4km": 4025,
      "Tam": 4026,
      "TMT": 4027,
      "air": 4028,
      "bour": 4029,
      "dio": 4030,
      "lim": 4031,
      "nh": 4032,
      "nick": 4033,
      "sa": 4034,
      "onia": 4035,
      "eth": 4036,
      "rove": 4037,
      "anka": 4038,
      "iler": 4039,
      "idy": 4040,
      "eway": 4041,
      "IDS": 4042,
      "Anth": 4043,
      "Shopp": 4044,
      "Harry": 4045,
      "trade": 4046,
      "1250": 4047,
      "Buy": 4048,
      "Steam": 4049,
      "Thomson": 4050,
      "Sabeco": 4051,
      "Huggies": 4052,
      "EBITDA": 4053,
      "Eagle": 4054,
      "2C": 4055,
      "Cass": 4056,
      "EPA": 4057,
      "Ly": 4058,
      "Lump": 4059,
      "Ts": 4060,
      "hran": 4061,
      "key": 4062,
      "tal": 4063,
      "TPCP": 4064,
      "hajee": 4065,
      "iko": 4066,
      "logistic": 4067,
      "CSX": 4068,
      "ffili": 4069,
      "ICA": 4070,
      "Savan": 4071,
      "Suphajee": 4072,
      "ski": 4073,
      "Games": 4074,
      "Tehran": 4075,
      "Baochinhphu": 4076,
      "OIL": 4077,
      "tuabin": 4078,
      "Davos": 4079,
      "Wonder": 4080,
      "SXKD": 4081,
      "39431250": 4082,
      "ffiliate": 4083,
      "AZ": 4084,
      "Dou": 4085,
      "IQ": 4086,
      "T2": 4087,
      "TCM": 4088,
      "cas": 4089,
      "fer": 4090,
      "ksw": 4091,
      "ere": 4092,
      "Viess": 4093,
      "commerce": 4094,
      "Johan": 4095,
      "20h": 4096,
      "PPI": 4097,
      "AFF": 4098,
      "16h": 4099,
      "Matth": 4100,
      "Milk": 4101,
      "Volksw": 4102,
      "Stephen": 4103,
      "ASIC": 4104,
      "Jewelry": 4105,
      "Viessmann": 4106,
      "Volkswagen": 4107,
      "1m": 4108,
      "APG": 4109,
      "Back": 4110,
      "East": 4111,
      "JLL": 4112,
      "Made": 4113,
      "Pu": 4114,
      "RMIT": 4115,
      "VCG": 4116,
      "foun": 4117,
      "gem": 4118,
      "kov": 4119,
      "tulip": 4120,
      "with": 4121,
      "eria": 4122,
      "aris": 4123,
      "real": 4124,
      "ander": 4125,
      "oda": 4126,
      "Carol": 4127,
      "Industry": 4128,
      "PYN": 4129,
      "Angeles": 4130,
      "Ayala": 4131,
      "EraBlue": 4132,
      "SDGs": 4133,
      "Breakthrough": 4134,
      "founder": 4135,
      "Du": 4136,
      "Ka": 4137,
      "Ot": 4138,
      "iang": 4139,
      "iba": 4140,
      "las": 4141,
      "neo": 4142,
      "Statista": 4143,
      "SGO": 4144,
      "MBA": 4145,
      "Capgem": 4146,
      "PGD": 4147,
      "ffect": 4148,
      "Big4": 4149,
      "basa": 4150,
      "Basel": 4151,
      "Estate": 4152,
      "Chubb": 4153,
      "Bessent": 4154,
      "Cassidy": 4155,
      "Capgemini": 4156,
      "4m": 4157,
      "81A": 4158,
      "CVV": 4159,
      "Kat": 4160,
      "Kasp": 4161,
      "Miz": 4162,
      "Mind": 4163,
      "R01": 4164,
      "Som": 4165,
      "Sap": 4166,
      "Sof": 4167,
      "eBay": 4168,
      "less": 4169,
      "zh": 4170,
      "star": 4171,
      "atit": 4172,
      "loc": 4173,
      "30A": 4174,
      "Comm": 4175,
      "izza": 4176,
      "50m2": 4177,
      "ROA": 4178,
      "iane": 4179,
      "1838": 4180,
      "Guat": 4181,
      "IATA": 4182,
      "84A": 4183,
      "84C": 4184,
      "Kazakh": 4185,
      "Chemical": 4186,
      "Griffith": 4187,
      "Touchstone": 4188,
      "Number": 4189,
      "shipper": 4190,
      "R011838": 4191,
      "Kazakhstan": 4192,
      "Brow": 4193,
      "CAP": 4194,
      "LNTT": 4195,
      "VGC": 4196,
      "day": 4197,
      "ration": 4198,
      "uring": 4199,
      "thong": 4200,
      "usto": 4201,
      "MBV": 4202,
      "BHNN": 4203,
      "earn": 4204,
      "HAH": 4205,
      "Economic": 4206,
      "University": 4207,
      "HBM": 4208,
      "3m": 4209,
      "A4": 4210,
      "Core": 4211,
      "Fal": 4212,
      "Ful": 4213,
      "ICO": 4214,
      "Tom": 4215,
      "Zha": 4216,
      "den": 4217,
      "sm": 4218,
      "inn": 4219,
      "amco": 4220,
      "rol": 4221,
      "ashi": 4222,
      "rix": 4223,
      "CSC": 4224,
      "Aramco": 4225,
      "orning": 4226,
      "LEGO": 4227,
      "Panason": 4228,
      "Larry": 4229,
      "KienlongBank": 4230,
      "facebook": 4231,
      "VICOFA": 4232,
      "diox": 4233,
      "Panasonic": 4234,
      "Biti": 4235,
      "BXD": 4236,
      "Fras": 4237,
      "Gaut": 4238,
      "Id": 4239,
      "Mum": 4240,
      "Momo": 4241,
      "Tool": 4242,
      "ze": 4243,
      "oka": 4244,
      "elling": 4245,
      "Agris": 4246,
      "Plan": 4247,
      "Prode": 4248,
      "Project": 4249,
      "Lega": 4250,
      "Complex": 4251,
      "lection": 4252,
      "FiT": 4253,
      "A321": 4254,
      "ough": 4255,
      "Talent": 4256,
      "cafe": 4257,
      "Mangrove": 4258,
      "arabica": 4259,
      "Pepsi": 4260,
      "Frasers": 4261,
      "Prodezi": 4262,
      "27": 4263,
      "48": 4264,
      "EGM": 4265,
      "ITC": 4266,
      "Morning": 4267,
      "Toshi": 4268,
      "Var": 4269,
      "tube": 4270,
      "vn": 4271,
      "study": 4272,
      "chi": 4273,
      "emy": 4274,
      "Short": 4275,
      "Forum": 4276,
      "illas": 4277,
      "Bever": 4278,
      "Spot": 4279,
      "ABS": 4280,
      "Adrian": 4281,
      "40m2": 4282,
      "HANOI": 4283,
      "Bandon": 4284,
      "George": 4285,
      "Vikki": 4286,
      "oitte": 4287,
      "silicon": 4288,
      "Architect": 4289,
      "miligam": 4290,
      "Sergey": 4291,
      "Dunes": 4292,
      "CW": 4293,
      "FID": 4294,
      "Jong": 4295,
      "Ki": 4296,
      "Lo": 4297,
      "Lyn": 4298,
      "Mak": 4299,
      "MXH": 4300,
      "Ny": 4301,
      "Nom": 4302,
      "NFL": 4303,
      "Pen": 4304,
      "Sar": 4305,
      "TCT": 4306,
      "VMS": 4307,
      "WA": 4308,
      "bit": 4309,
      "ci": 4310,
      "xi": 4311,
      "iav": 4312,
      "emala": 4313,
      "Vinfast": 4314,
      "Shang": 4315,
      "irst": 4316,
      "Moon": 4317,
      "BOE": 4318,
      "technolog": 4319,
      "Blink": 4320,
      "ible": 4321,
      "Medi": 4322,
      "oci": 4323,
      "Zhu": 4324,
      "Suz": 4325,
      "Chinhphu": 4326,
      "Chanin": 4327,
      "Advanced": 4328,
      "Domin": 4329,
      "Guatemala": 4330,
      "Fer": 4331,
      "Gall": 4332,
      "JM": 4333,
      "Kim": 4334,
      "Lil": 4335,
      "Nina": 4336,
      "Sale": 4337,
      "Tet": 4338,
      "Wi": 4339,
      "bnb": 4340,
      "giacaphe": 4341,
      "mes": 4342,
      "meta": 4343,
      "size": 4344,
      "via": 4345,
      "Vim": 4346,
      "VietJet": 4347,
      "igus": 4348,
      "uling": 4349,
      "Airbnb": 4350,
      "uber": 4351,
      "ieu": 4352,
      "Colum": 4353,
      "Edmicro": 4354,
      "Deloitte": 4355,
      "Waterpoint": 4356,
      "Wenfeng": 4357,
      "Acecook": 4358,
      "Brown": 4359,
      "Mumbai": 4360,
      "BQL": 4361,
      "C2": 4362,
      "HK": 4363,
      "Hong": 4364,
      "Hab": 4365,
      "IDP": 4366,
      "JD": 4367,
      "PDD": 4368,
      "Thi": 4369,
      "Wood": 4370,
      "nes": 4371,
      "vent": 4372,
      "TTH": 4373,
      "TSC": 4374,
      "hak": 4375,
      "iff": 4376,
      "Alli": 4377,
      "Seiko": 4378,
      "MoU": 4379,
      "Unit": 4380,
      "Millenn": 4381,
      "Circle": 4382,
      "IDICO": 4383,
      "alysis": 4384,
      "Gautam": 4385,
      "Binh": 4386,
      "DF": 4387,
      "HM": 4388,
      "ISC": 4389,
      "Now": 4390,
      "Natt": 4391,
      "Xero": 4392,
      "har": 4393,
      "hub": 4394,
      "resh": 4395,
      "ual": 4396,
      "van": 4397,
      "olate": 4398,
      "CBTT": 4399,
      "usa": 4400,
      "hie": 4401,
      "Micron": 4402,
      "Manufact": 4403,
      "128": 4404,
      "Realbox": 4405,
      "KSND": 4406,
      "Italia": 4407,
      "basis": 4408,
      "Happy": 4409,
      "Kodama": 4410,
      "AZEC": 4411,
      "Legacy": 4412,
      "Base": 4413,
      "Cur": 4414,
      "EZ": 4415,
      "FP": 4416,
      "G6": 4417,
      "Hor": 4418,
      "Kak": 4419,
      "KDC": 4420,
      "Mag": 4421,
      "Slo": 4422,
      "Ueda": 4423,
      "WCM": 4424,
      "col": 4425,
      "world": 4426,
      "VNE": 4427,
      "VNDIRE": 4428,
      "adel": 4429,
      "conex": 4430,
      "ffic": 4431,
      "Mans": 4432,
      "10km": 4433,
      "Vinaconex": 4434,
      "yoga": 4435,
      "AEA": 4436,
      "awa": 4437,
      "Youtube": 4438,
      "Resorts": 4439,
      "Associ": 4440,
      "mega": 4441,
      "Insights": 4442,
      "Camera": 4443,
      "Maybank": 4444,
      "Phillip": 4445,
      "Organization": 4446,
      "Axie": 4447,
      "Highlands": 4448,
      "Sheraton": 4449,
      "VNDIRECT": 4450,
      "Banc": 4451,
      "Ce": 4452,
      "DE": 4453,
      "Rel": 4454,
      "Till": 4455,
      "fit": 4456,
      "nano": 4457,
      "pok": 4458,
      "zb": 4459,
      "ency": 4460,
      "imis": 4461,
      "Stone": 4462,
      "Techn": 4463,
      "Bright": 4464,
      "PC1": 4465,
      "500MW": 4466,
      "Worldwide": 4467,
      "clink": 4468,
      "12h": 4469,
      "VHC": 4470,
      "GMP": 4471,
      "strong": 4472,
      "Celano": 4473,
      "InterContinental": 4474,
      "Belarus": 4475,
      "Davis": 4476,
      "Strategic": 4477,
      "Victoria": 4478,
      "NXB": 4479,
      "09": 4480,
      "1km": 4481,
      "CVC": 4482,
      "CBNV": 4483,
      "Joo": 4484,
      "Mbps": 4485,
      "bra": 4486,
      "eMagazine": 4487,
      "rum": 4488,
      "watt": 4489,
      "ito": 4490,
      "Chase": 4491,
      "Chern": 4492,
      "concept": 4493,
      "agu": 4494,
      "Good": 4495,
      "Marco": 4496,
      "Anton": 4497,
      "VN30F24": 4498,
      "FOMC": 4499,
      "Kuala": 4500,
      "BaoViet": 4501,
      "Armstrong": 4502,
      "Clean": 4503,
      "ThaiBinh": 4504,
      "Advisors": 4505,
      "Lumpur": 4506,
      "Falcon": 4507,
      "Agriseco": 4508,
      "Suzuki": 4509,
      "metaverse": 4510,
      "Tillman": 4511,
      "4m2": 4512,
      "66": 4513,
      "Ball": 4514,
      "Dem": 4515,
      "Eaton": 4516,
      "HG": 4517,
      "ILO": 4518,
      "JE": 4519,
      "Jul": 4520,
      "Kate": 4521,
      "ORS": 4522,
      "Public": 4523,
      "Sus": 4524,
      "Sung": 4525,
      "STA": 4526,
      "UK": 4527,
      "XVI": 4528,
      "cot": 4529,
      "sol": 4530,
      "itomo": 4531,
      "iab": 4532,
      "rive": 4533,
      "CNY": 4534,
      "EVNHANOI": 4535,
      "VIAC": 4536,
      "Plas": 4537,
      "PVcomBank": 4538,
      "20ha": 4539,
      "Khmer": 4540,
      "Colin": 4541,
      "Gener": 4542,
      "Schwar": 4543,
      "Benedict": 4544,
      "HHV": 4545,
      "Danang": 4546,
      "VOV": 4547,
      "Murty": 4548,
      "flower": 4549,
      "NovaWorld": 4550,
      "Matthew": 4551,
      "Zhao": 4552,
      "9h30": 4553,
      "Dig": 4554,
      "JT": 4555,
      "NVP": 4556,
      "Pew": 4557,
      "SS": 4558,
      "Wuling": 4559,
      "alore": 4560,
      "ites": 4561,
      "Tree": 4562,
      "adi": 4563,
      "ount": 4564,
      "ulf": 4565,
      "ancy": 4566,
      "SMC": 4567,
      "POPS": 4568,
      "Greenland": 4569,
      "MISA": 4570,
      "ultz": 4571,
      "Hermes": 4572,
      "CafeF": 4573,
      "Georgia": 4574,
      "Kursk": 4575,
      "Aug": 4576,
      "BMI": 4577,
      "Hen": 4578,
      "Hou": 4579,
      "Hiro": 4580,
      "KTTH": 4581,
      "Luk": 4582,
      "Mass": 4583,
      "Nut": 4584,
      "Ob": 4585,
      "PRO": 4586,
      "T1": 4587,
      "Tai": 4588,
      "Tek": 4589,
      "VG": 4590,
      "Wy": 4591,
      "eTax": 4592,
      "get": 4593,
      "king": 4594,
      "oster": 4595,
      "ele": 4596,
      "TTr": 4597,
      "TTHT": 4598,
      "Vient": 4599,
      "uman": 4600,
      "ents": 4601,
      "rey": 4602,
      "Sheng": 4603,
      "Check": 4604,
      "Phantom": 4605,
      "PVCom": 4606,
      "Ell": 4607,
      "anca": 4608,
      "10m": 4609,
      "inda": 4610,
      "GEX": 4611,
      "afood": 4612,
      "berry": 4613,
      "McDonald": 4614,
      "Formosa": 4615,
      "rupiah": 4616,
      "media": 4617,
      "Desk": 4618,
      "AAA": 4619,
      "Science": 4620,
      "Infra": 4621,
      "Ri6": 4622,
      "Agrico": 4623,
      "Discovery": 4624,
      "Rabity": 4625,
      "iavang": 4626,
      "Kakao": 4627,
      "Vientiane": 4628,
      "Bah": 4629,
      "Kev": 4630,
      "NTM": 4631,
      "Niel": 4632,
      "RL": 4633,
      "Suk": 4634,
      "Wa": 4635,
      "Wink": 4636,
      "sberg": 4637,
      "tap": 4638,
      "uz": 4639,
      "zym": 4640,
      "enu": 4641,
      "omer": 4642,
      "ilot": 4643,
      "VIE": 4644,
      "ourt": 4645,
      "share": 4646,
      "Haniy": 4647,
      "A320": 4648,
      "Sumitomo": 4649,
      "ERP": 4650,
      "ATTP": 4651,
      "Cafe": 4652,
      "minimis": 4653,
      "Vinatex": 4654,
      "Alpine": 4655,
      "Haniyeh": 4656,
      "Aur": 4657,
      "Boll": 4658,
      "DCM": 4659,
      "FS": 4660,
      "Jin": 4661,
      "Jon": 4662,
      "KBNN": 4663,
      "Lithium": 4664,
      "ML": 4665,
      "OMO": 4666,
      "Ron": 4667,
      "Vel": 4668,
      "fe": 4669,
      "front": 4670,
      "hold": 4671,
      "oice": 4672,
      "CMND": 4673,
      "chart": 4674,
      "TTT": 4675,
      "Shah": 4676,
      "usion": 4677,
      "lab": 4678,
      "Alan": 4679,
      "DNA": 4680,
      "Exp": 4681,
      "Box": 4682,
      "alleng": 4683,
      "Medis": 4684,
      "VCBF": 4685,
      "Halong": 4686,
      "Ecos": 4687,
      "StreetAsia": 4688,
      "NSNN": 4689,
      "AUD": 4690,
      "DealStreetAsia": 4691,
      "Vicem": 4692,
      "Rubio": 4693,
      "clinker": 4694,
      "75": 4695,
      "CIC": 4696,
      "Fico": 4697,
      "Fish": 4698,
      "Jason": 4699,
      "Kor": 4700,
      "KAI": 4701,
      "Kao": 4702,
      "RJO": 4703,
      "Vit": 4704,
      "Way": 4705,
      "die": 4706,
      "down": 4707,
      "kha": 4708,
      "ated": 4709,
      "Information": 4710,
      "ident": 4711,
      "imi": 4712,
      "rik": 4713,
      "ersky": 4714,
      "VietnamPlas": 4715,
      "Review": 4716,
      "SAT": 4717,
      "Johnathan": 4718,
      "Starlink": 4719,
      "100ha": 4720,
      "host": 4721,
      "QLTT": 4722,
      "Noble": 4723,
      "9h00": 4724,
      "Tea": 4725,
      "Citibank": 4726,
      "Nomura": 4727,
      "Alliance": 4728,
      "Manufacturing": 4729,
      "iability": 4730,
      "Kevin": 4731,
      "Cust": 4732,
      "Hut": 4733,
      "Hero": 4734,
      "Job": 4735,
      "Lam": 4736,
      "LPG": 4737,
      "Luck": 4738,
      "NDA": 4739,
      "NAR": 4740,
      "Time": 4741,
      "del": 4742,
      "fa": 4743,
      "loun": 4744,
      "piano": 4745,
      "TPC": 4746,
      "atech": 4747,
      "Choice": 4748,
      "Start": 4749,
      "Forex": 4750,
      "ova": 4751,
      "lywood": 4752,
      "VN30F250": 4753,
      "Thong": 4754,
      "ecial": 4755,
      "Blackwell": 4756,
      "100m2": 4757,
      "Fibon": 4758,
      "WeChat": 4759,
      "FTX": 4760,
      "Pharmacity": 4761,
      "Poly": 4762,
      "SOHO": 4763,
      "Ishiba": 4764,
      "oniac": 4765,
      "Carolina": 4766,
      "Blinken": 4767,
      "Bollinger": 4768,
      "Medisave": 4769,
      "Buk": 4770,
      "BANK": 4771,
      "CZ": 4772,
      "Cray": 4773,
      "FIT": 4774,
      "Gib": 4775,
      "Hid": 4776,
      "LSE": 4777,
      "Leb": 4778,
      "Lag": 4779,
      "NFC": 4780,
      "Nino": 4781,
      "Ras": 4782,
      "Rita": 4783,
      "SW": 4784,
      "Sud": 4785,
      "Selling": 4786,
      "Villas": 4787,
      "dle": 4788,
      "effect": 4789,
      "ique": 4790,
      "oen": 4791,
      "pan": 4792,
      "sky": 4793,
      "tar": 4794,
      "USDT": 4795,
      "uts": 4796,
      "Stock": 4797,
      "Techcom": 4798,
      "phia": 4799,
      "home": 4800,
      "ience": 4801,
      "Hydro": 4802,
      "Clip": 4803,
      "Silver": 4804,
      "ather": 4805,
      "LEED": 4806,
      "Broad": 4807,
      "QCVN": 4808,
      "William": 4809,
      "Bosch": 4810,
      "Joseph": 4811,
      "Howard": 4812,
      "BuyMed": 4813,
      "Kaspersky": 4814,
      "PVCombank": 4815,
      "9km": 4816,
      "Avi": 4817,
      "DHA": 4818,
      "F2": 4819,
      "FSC": 4820,
      "Jas": 4821,
      "KKT": 4822,
      "Mand": 4823,
      "Mond": 4824,
      "MRB": 4825,
      "Yosh": 4826,
      "ehy": 4827,
      "stal": 4828,
      "TTTC": 4829,
      "Trude": 4830,
      "edia": 4831,
      "arton": 4832,
      "PTO": 4833,
      "unch": 4834,
      "illing": 4835,
      "dog": 4836,
      "Philadel": 4837,
      "Trailer": 4838,
      "Saigont": 4839,
      "CLD": 4840,
      "adept": 4841,
      "Valent": 4842,
      "paperflower": 4843,
      "Gemadept": 4844,
      "Maypaperflower": 4845,
      "Bands": 4846,
      "Ryan": 4847,
      "Display": 4848,
      "SDTT": 4849,
      "Soroco": 4850,
      "Cherng": 4851,
      "Trudeau": 4852,
      "Philadelphia": 4853,
      "A6": 4854,
      "Dol": 4855,
      "DTI": 4856,
      "Fe": 4857,
      "Fun": 4858,
      "IAEA": 4859,
      "PJI": 4860,
      "jing": 4861,
      "ethan": 4862,
      "ato": 4863,
      "iday": 4864,
      "NHTW": 4865,
      "arth": 4866,
      "una": 4867,
      "havi": 4868,
      "30ha": 4869,
      "odo": 4870,
      "Maris": 4871,
      "ROX": 4872,
      "SAB": 4873,
      "bach": 4874,
      "Adam": 4875,
      "camore": 4876,
      "Bangalore": 4877,
      "QH13": 4878,
      "Christine": 4879,
      "Weibo": 4880,
      "EVNGENCO2": 4881,
      "Village": 4882,
      "place": 4883,
      "IOC": 4884,
      "Priem": 4885,
      "Bruno": 4886,
      "technology": 4887,
      "Nielsen": 4888,
      "PJICO": 4889,
      "08": 4890,
      "2x": 4891,
      "Baby": 4892,
      "Civ": 4893,
      "Diana": 4894,
      "Ger": 4895,
      "KTV": 4896,
      "Mult": 4897,
      "Nid": 4898,
      "fut": 4899,
      "fur": 4900,
      "gy": 4901,
      "mus": 4902,
      "uri": 4903,
      "zak": 4904,
      "amoniac": 4905,
      "idge": 4906,
      "Bankman": 4907,
      "haway": 4908,
      "Forr": 4909,
      "ofa": 4910,
      "Sycamore": 4911,
      "hner": 4912,
      "Silk": 4913,
      "Quochoi": 4914,
      "Build": 4915,
      "BlackPink": 4916,
      "Delta": 4917,
      "Jackson": 4918,
      "Ramky": 4919,
      "American": 4920,
      "Volod": 4921,
      "viral": 4922,
      "uela": 4923,
      "Advant": 4924,
      "Keyword": 4925,
      "Strategy": 4926,
      "bright": 4927,
      "Hollywood": 4928,
      "Crystal": 4929,
      "A330neo": 4930,
      "Ahmedabad": 4931,
      "Hathaway": 4932,
      "Ecosoi": 4933,
      "Saigontourist": 4934,
      "Astra": 4935,
      "BP": 4936,
      "CDC": 4937,
      "Dim": 4938,
      "IPS": 4939,
      "Lex": 4940,
      "Raf": 4941,
      "Slack": 4942,
      "Vance": 4943,
      "Wu": 4944,
      "Wanda": 4945,
      "Yam": 4946,
      "hand": 4947,
      "ret": 4948,
      "yl": 4949,
      "inar": 4950,
      "exph": 4951,
      "edtech": 4952,
      "Shan": 4953,
      "ipt": 4954,
      "serv": 4955,
      "ICAF": 4956,
      "STE": 4957,
      "board": 4958,
      "Hynix": 4959,
      "GEE": 4960,
      "Collin": 4961,
      "business": 4962,
      "Andre": 4963,
      "Melania": 4964,
      "B2C": 4965,
      "ificial": 4966,
      "Imexph": 4967,
      "NPK": 4968,
      "Growth": 4969,
      "KRX": 4970,
      "Carlsberg": 4971,
      "Kushner": 4972,
      "NLTT": 4973,
      "AirlineRatings": 4974,
      "Gibran": 4975,
      "Aviation": 4976,
      "Imexpharm": 4977,
      "2m2": 4978,
      "3G": 4979,
      "7m2": 4980,
      "8ha": 4981,
      "Bud": 4982,
      "C1": 4983,
      "Hearn": 4984,
      "KAM": 4985,
      "Lut": 4986,
      "Naw": 4987,
      "NFT": 4988,
      "Pearl": 4989,
      "Pinc": 4990,
      "Sk": 4991,
      "To": 4992,
      "Uber": 4993,
      "Vico": 4994,
      "iHanoi": 4995,
      "kar": 4996,
      "oEn": 4997,
      "pic": 4998,
      "ville": 4999,
      "zy": 5000,
      "orough": 5001,
      "eley": 5002,
      "uma": 5003,
      "DPM": 5004,
      "Albert": 5005,
      "Airdog": 5006,
      "End": 5007,
      "10B": 5008,
      "000MW": 5009,
      "Draper": 5010,
      "Melbour": 5011,
      "Intuit": 5012,
      "DLAND": 5013,
      "ropic": 5014,
      "HUDLAND": 5015,
      "Roszak": 5016,
      "Points": 5017,
      "Larsen": 5018,
      "Empower": 5019,
      "Growatt": 5020,
      "Noel": 5021,
      "PepsiCo": 5022,
      "NattoEn": 5023,
      "poker": 5024,
      "Nidec": 5025,
      "ICAFIS": 5026,
      "Collins": 5027,
      "Pincus": 5028,
      "Vicostone": 5029,
      "Melbourne": 5030,
      "NattoEnzym": 5031,
      "ACT": 5032,
      "But": 5033,
      "Front": 5034,
      "Haw": 5035,
      "Kok": 5036,
      "LT": 5037,
      "Las": 5038,
      "Low": 5039,
      "Lien": 5040,
      "Mu": 5041,
      "Nih": 5042,
      "Soh": 5043,
      "Won": 5044,
      "ael": 5045,
      "cac": 5046,
      "hig": 5047,
      "jaya": 5048,
      "mb": 5049,
      "peng": 5050,
      "tor": 5051,
      "yle": 5052,
      "enko": 5053,
      "TSKH": 5054,
      "Force": 5055,
      "iket": 5056,
      "VIMC": 5057,
      "BCA": 5058,
      "PVOIL": 5059,
      "neider": 5060,
      "VFC": 5061,
      "Pres": 5062,
      "Analy": 5063,
      "ennis": 5064,
      "ocolate": 5065,
      "achi": 5066,
      "achel": 5067,
      "immy": 5068,
      "Schneider": 5069,
      "Motio": 5070,
      "Acad": 5071,
      "PostBank": 5072,
      "Miliket": 5073,
      "DNNY": 5074,
      "Berkeley": 5075,
      "23h": 5076,
      "Liver": 5077,
      "KienLong": 5078,
      "Guardian": 5079,
      "fluenc": 5080,
      "Virginia": 5081,
      "9X": 5082,
      "Blog": 5083,
      "EW": 5084,
      "FOB": 5085,
      "Flow": 5086,
      "F88": 5087,
      "Ken": 5088,
      "Kai": 5089,
      "Kiss": 5090,
      "Kusto": 5091,
      "Lips": 5092,
      "Nel": 5093,
      "Pic": 5094,
      "Q2": 5095,
      "Rang": 5096,
      "STT": 5097,
      "Sov": 5098,
      "farm": 5099,
      "global": 5100,
      "has": 5101,
      "ient": 5102,
      "je": 5103,
      "soc": 5104,
      "chultz": 5105,
      "Trip": 5106,
      "adhan": 5107,
      "Char": 5108,
      "Sta": 5109,
      "Fab": 5110,
      "eller": 5111,
      "abi": 5112,
      "50m": 5113,
      "Asc": 5114,
      "Austin": 5115,
      "Unich": 5116,
      "STI": 5117,
      "Ther": 5118,
      "GS25": 5119,
      "Colusa": 5120,
      "HUBA": 5121,
      "Everg": 5122,
      "Dongfeng": 5123,
      "Flam": 5124,
      "BBQ": 5125,
      "Machine": 5126,
      "Boss": 5127,
      "CeCA": 5128,
      "Forrest": 5129,
      "Volodym": 5130,
      "Nihon": 5131,
      "Liverpool": 5132,
      "Lipschultz": 5133,
      "04": 5134,
      "76": 5135,
      "Aj": 5136,
      "Cip": 5137,
      "ETC": 5138,
      "Fil": 5139,
      "Gro": 5140,
      "Hall": 5141,
      "IX": 5142,
      "ISA": 5143,
      "Kir": 5144,
      "Lisa": 5145,
      "Lado": 5146,
      "Oun": 5147,
      "Sis": 5148,
      "Tu": 5149,
      "bro": 5150,
      "cre": 5151,
      "korn": 5152,
      "pers": 5153,
      "sel": 5154,
      "ule": 5155,
      "val": 5156,
      "anha": 5157,
      "cha": 5158,
      "Onsen": 5159,
      "DIT": 5160,
      "DPR": 5161,
      "aldehy": 5162,
      "VIPA": 5163,
      "BCS": 5164,
      "ulk": 5165,
      "ardjo": 5166,
      "CSDL": 5167,
      "APP": 5168,
      "Learning": 5169,
      "ensor": 5170,
      "000m": 5171,
      "Stargate": 5172,
      "ulture": 5173,
      "bushel": 5174,
      "pto": 5175,
      "Jih": 5176,
      "Team": 5177,
      "KSV": 5178,
      "Warburg": 5179,
      "Brook": 5180,
      "ezuela": 5181,
      "VBMA": 5182,
      "Venezuela": 5183,
      "ollah": 5184,
      "Fulbright": 5185,
      "Crayola": 5186,
      "LSEG": 5187,
      "aldehyde": 5188,
      "6K": 5189,
      "Corn": 5190,
      "First": 5191,
      "Ialy": 5192,
      "ITPC": 5193,
      "Nich": 5194,
      "Oh": 5195,
      "Page": 5196,
      "SAIG": 5197,
      "Tj": 5198,
      "VWS": 5199,
      "nilon": 5200,
      "tri": 5201,
      "xing": 5202,
      "ining": 5203,
      "TPTM": 5204,
      "chocolate": 5205,
      "Shield": 5206,
      "lake": 5207,
      "VITAS": 5208,
      "Vietnamese": 5209,
      "VAMC": 5210,
      "odih": 5211,
      "phi": 5212,
      "MSC": 5213,
      "Michig": 5214,
      "Opus": 5215,
      "ONBANK": 5216,
      "Sunny": 5217,
      "MIK": 5218,
      "Hezb": 5219,
      "MEX": 5220,
      "zoNobel": 5221,
      "Christop": 5222,
      "Asko": 5223,
      "Celeb": 5224,
      "AkzoNobel": 5225,
      "Ryder": 5226,
      "Employ": 5227,
      "Engine": 5228,
      "Bitexco": 5229,
      "Cienco5": 5230,
      "Eleven": 5231,
      "Felix": 5232,
      "CREDIT": 5233,
      "casino": 5234,
      "128GB": 5235,
      "Builders": 5236,
      "iptodih": 5237,
      "Unicharm": 5238,
      "SAIGONBANK": 5239,
      "Tjiptodih": 5240,
      "Michigan": 5241,
      "Tjiptodihardjo": 5242,
      "Ase": 5243,
      "DVC": 5244,
      "E1": 5245,
      "ERE": 5246,
      "Hera": 5247,
      "LLC": 5248,
      "Lanka": 5249,
      "Of": 5250,
      "QS": 5251,
      "Rest": 5252,
      "Tan": 5253,
      "Vul": 5254,
      "YEG": 5255,
      "call": 5256,
      "eSports": 5257,
      "hol": 5258,
      "ts": 5259,
      "sten": 5260,
      "chine": 5261,
      "VietGAP": 5262,
      "Truth": 5263,
      "PTB": 5264,
      "PTF": 5265,
      "ckoff": 5266,
      "Chain": 5267,
      "CCL": 5268,
      "Whit": 5269,
      "BVB": 5270,
      "CGV": 5271,
      "Building": 5272,
      "oulith": 5273,
      "200m2": 5274,
      "Strong": 5275,
      "Siri": 5276,
      "Uniq": 5277,
      "Cadence": 5278,
      "Sasco": 5279,
      "Vimico": 5280,
      "JETP": 5281,
      "Houston": 5282,
      "Wyckoff": 5283,
      "Thongloun": 5284,
      "Rafael": 5285,
      "LienViet": 5286,
      "Sisoulith": 5287,
      "Vulcan": 5288,
      "C4": 5289,
      "Cre": 5290,
      "CFA": 5291,
      "Denny": 5292,
      "H1": 5293,
      "Judy": 5294,
      "LB": 5295,
      "Mix": 5296,
      "Q12": 5297,
      "Teck": 5298,
      "bin": 5299,
      "pal": 5300,
      "rent": 5301,
      "ias": 5302,
      "idu": 5303,
      "apatit": 5304,
      "irates": 5305,
      "ose": 5306,
      "obao": 5307,
      "Season": 5308,
      "dec": 5309,
      "Leon": 5310,
      "booking": 5311,
      "Moca": 5312,
      "PPA": 5313,
      "VECOM": 5314,
      "KOTO": 5315,
      "ESS": 5316,
      "FAO": 5317,
      "Abu": 5318,
      "KP6": 5319,
      "Emirates": 5320,
      "Road": 5321,
      "LHTN": 5322,
      "Bernard": 5323,
      "Charles": 5324,
      "Queen": 5325,
      "Clinton": 5326,
      "Jasm": 5327,
      "Civic": 5328,
      "Sovico": 5329,
      "07": 5330,
      "Ash": 5331,
      "Cra": 5332,
      "FR": 5333,
      "Hee": 5334,
      "Jed": 5335,
      "June": 5336,
      "National": 5337,
      "Us": 5338,
      "aS": 5339,
      "corp": 5340,
      "sov": 5341,
      "tiet": 5342,
      "wang": 5343,
      "zman": 5344,
      "anon": 5345,
      "Vios": 5346,
      "Shine": 5347,
      "use": 5348,
      "oke": 5349,
      "oku": 5350,
      "osung": 5351,
      "machine": 5352,
      "Alip": 5353,
      "Alloc": 5354,
      "ipal": 5355,
      "Philip": 5356,
      "sea": 5357,
      "500m2": 5358,
      "pson": 5359,
      "Hyosung": 5360,
      "CIR": 5361,
      "VneID": 5362,
      "VEPG": 5363,
      "Ratan": 5364,
      "School": 5365,
      "YouTuber": 5366,
      "Sense": 5367,
      "80km": 5368,
      "Works": 5369,
      "metan": 5370,
      "Balanha": 5371,
      "Disney": 5372,
      "SEMIExpo": 5373,
      "Boliv": 5374,
      "Dalat": 5375,
      "Toshiba": 5376,
      "MediShield": 5377,
      "Columbia": 5378,
      "Generative": 5379,
      "holding": 5380,
      "Valentine": 5381,
      "Academy": 5382,
      "Ounce": 5383,
      "Hezbollah": 5384,
      "StrongArm": 5385,
      "Alipay": 5386,
      "9m2": 5387,
      "ADN": 5388,
      "DJ": 5389,
      "DM": 5390,
      "Fit": 5391,
      "Fuk": 5392,
      "Gap": 5393,
      "HAB": 5394,
      "JA": 5395,
      "JCB": 5396,
      "KN": 5397,
      "Lago": 5398,
      "Sop": 5399,
      "Tanca": 5400,
      "Ve": 5401,
      "WIN": 5402,
      "batdongsan": 5403,
      "cess": 5404,
      "dra": 5405,
      "green": 5406,
      "mem": 5407,
      "o3": 5408,
      "oia": 5409,
      "ving": 5410,
      "worth": 5411,
      "inum": 5412,
      "eron": 5413,
      "arat": 5414,
      "HCMC": 5415,
      "itan": 5416,
      "expo": 5417,
      "CEPA": 5418,
      "ForbesWomen": 5419,
      "ctor": 5420,
      "ECS": 5421,
      "NGA": 5422,
      "Print": 5423,
      "Resour": 5424,
      "CSXH": 5425,
      "TNAM": 5426,
      "ava": 5427,
      "15m": 5428,
      "000m3": 5429,
      "Thread": 5430,
      "Caroline": 5431,
      "veer": 5432,
      "Christian": 5433,
      "Next100": 5434,
      "Byju": 5435,
      "Café": 5436,
      "Enterprises": 5437,
      "Knight": 5438,
      "building": 5439,
      "Atlanta": 5440,
      "Afresh": 5441,
      "Factory": 5442,
      "radar": 5443,
      "Shanghai": 5444,
      "Ellison": 5445,
      "Ronald": 5446,
      "Lexus": 5447,
      "Lutnick": 5448,
      "Frontier": 5449,
      "Sohu": 5450,
      "Flamingo": 5451,
      "Volodymyr": 5452,
      "Uniqlo": 5453,
      "Jasmine": 5454,
      "Allocca": 5455,
      "HABECO": 5456,
      "Threads": 5457,
      "Ae": 5458,
      "DSC": 5459,
      "Eston": 5460,
      "Hinh": 5461,
      "IPV": 5462,
      "LIN": 5463,
      "NV": 5464,
      "Nick": 5465,
      "Py": 5466,
      "Pur": 5467,
      "Pull": 5468,
      "QQ": 5469,
      "RY": 5470,
      "Reev": 5471,
      "Sco": 5472,
      "TX": 5473,
      "Tian": 5474,
      "VBA": 5475,
      "VBCS": 5476,
      "dam": 5477,
      "pd": 5478,
      "ss": 5479,
      "wase": 5480,
      "đi": 5481,
      "USB": 5482,
      "ering": 5483,
      "erkorn": 5484,
      "etsk": 5485,
      "itor": 5486,
      "omb": 5487,
      "idar": 5488,
      "ento": 5489,
      "aska": 5490,
      "come": 5491,
      "Chand": 5492,
      "Chhavi": 5493,
      "MTHF": 5494,
      "Sak": 5495,
      "lag": 5496,
      "lace": 5497,
      "Ref": 5498,
      "abhak": 5499,
      "Marvel": 5500,
      "CSV": 5501,
      "NTU": 5502,
      "Centro": 5503,
      "Moham": 5504,
      "SAF": 5505,
      "ABIC": 5506,
      "Medic": 5507,
      "This": 5508,
      "ZaloPay": 5509,
      "Metropol": 5510,
      "Assist": 5511,
      "Wallace": 5512,
      "annel": 5513,
      "Matrix": 5514,
      "Security": 5515,
      "Suis": 5516,
      "Atto": 5517,
      "rivadhan": 5518,
      "Flip": 5519,
      "Sirivadhan": 5520,
      "Universe": 5521,
      "Terra": 5522,
      "monella": 5523,
      "Platinum": 5524,
      "Patrick": 5525,
      "Hopper": 5526,
      "Derveer": 5527,
      "VanDerveer": 5528,
      "ference": 5529,
      "Haberkorn": 5530,
      "furt": 5531,
      "LienVietPostBank": 5532,
      "Juneja": 5533,
      "Pullman": 5534,
      "Reeves": 5535,
      "abhakdi": 5536,
      "Sirivadhanabhakdi": 5537,
      "8m2": 5538,
      "Dha": 5539,
      "Ef": 5540,
      "Gov": 5541,
      "JW": 5542,
      "Lamp": 5543,
      "LSP": 5544,
      "Nike": 5545,
      "NBA": 5546,
      "Tiger": 5547,
      "een": 5548,
      "gil": 5549,
      "vak": 5550,
      "wal": 5551,
      "VNLife": 5552,
      "ceut": 5553,
      "otes": 5554,
      "NHCSXH": 5555,
      "emi": 5556,
      "ady": 5557,
      "Cheng": 5558,
      "the": 5559,
      "ifood": 5560,
      "VIA": 5561,
      "Techfest": 5562,
      "VAMA": 5563,
      "ainment": 5564,
      "Sequ": 5565,
      "GoTo": 5566,
      "Manipal": 5567,
      "Concept": 5568,
      "50km": 5569,
      "Foodexpo": 5570,
      "etts": 5571,
      "Quick": 5572,
      "ansura": 5573,
      "achus": 5574,
      "Scan": 5575,
      "Martin": 5576,
      "Edge": 5577,
      "Pharmaceut": 5578,
      "Cameron": 5579,
      "Neil": 5580,
      "UpCom": 5581,
      "Swiss": 5582,
      "reviewer": 5583,
      "Signal": 5584,
      "Virgil": 5585,
      "Biwase": 5586,
      "Accord": 5587,
      "Luminar": 5588,
      "Frankfurt": 5589,
      "Alexander": 5590,
      "Phillips": 5591,
      "Nicolas": 5592,
      "Beauty": 5593,
      "Destino": 5594,
      "Bancassurance": 5595,
      "Massachus": 5596,
      "Nutifood": 5597,
      "Analyt": 5598,
      "fluencer": 5599,
      "Bolivia": 5600,
      "ansurace": 5601,
      "Ablo": 5602,
      "Arist": 5603,
      "C03": 5604,
      "EPC": 5605,
      "Emer": 5606,
      "Hort": 5607,
      "IG": 5608,
      "Nafood": 5609,
      "Ret": 5610,
      "Ray": 5611,
      "Rice": 5612,
      "Sant": 5613,
      "Upt": 5614,
      "Veg": 5615,
      "Ville": 5616,
      "Yin": 5617,
      "Yaris": 5618,
      "gn": 5619,
      "pa": 5620,
      "part": 5621,
      "êzen": 5622,
      "oni": 5623,
      "store": 5624,
      "omet": 5625,
      "agon": 5626,
      "ify": 5627,
      "ANZ": 5628,
      "ovo": 5629,
      "Ali": 5630,
      "Alaska": 5631,
      "ability": 5632,
      "VAS": 5633,
      "Sec": 5634,
      "Marub": 5635,
      "Prenn": 5636,
      "ertainment": 5637,
      "Special": 5638,
      "quar": 5639,
      "Chatbot": 5640,
      "BaF": 5641,
      "Baidu": 5642,
      "Insight": 5643,
      "Stripe": 5644,
      "Fuji": 5645,
      "plastic": 5646,
      "Oppo": 5647,
      "Kumar": 5648,
      "Mizu": 5649,
      "FIDT": 5650,
      "Winkle": 5651,
      "Aurora": 5652,
      "Lebanon": 5653,
      "điêzen": 5654,
      "Lampung": 5655,
      "Pharmaceutical": 5656,
      "Massachusetts": 5657,
      "Abloh": 5658,
      "1kg": 5659,
      "72": 5660,
      "9Pay": 5661,
      "ABO": 5662,
      "Apol": 5663,
      "Bot": 5664,
      "Bart": 5665,
      "Cond": 5666,
      "Dash": 5667,
      "DBW": 5668,
      "Eric": 5669,
      "HQ": 5670,
      "Iz": 5671,
      "IHG": 5672,
      "Jake": 5673,
      "KCX": 5674,
      "Mee": 5675,
      "NY": 5676,
      "Nile": 5677,
      "Raz": 5678,
      "dom": 5679,
      "lino": 5680,
      "mid": 5681,
      "mond": 5682,
      "ula": 5683,
      "inity": 5684,
      "story": 5685,
      "Inphi": 5686,
      "ries": 5687,
      "TCVN": 5688,
      "VIN": 5689,
      "PVFC": 5690,
      "Spa": 5691,
      "AGI": 5692,
      "center": 5693,
      "Collection": 5694,
      "VRT": 5695,
      "tratech": 5696,
      "HT1": 5697,
      "Walton": 5698,
      "Metlife": 5699,
      "VCBN": 5700,
      "Nikel": 5701,
      "GB05": 5702,
      "ynd": 5703,
      "Taobao": 5704,
      "Kepp": 5705,
      "SPX": 5706,
      "Sonata": 5707,
      "Semi": 5708,
      "Ultratech": 5709,
      "content": 5710,
      "CyberKid": 5711,
      "Muntok": 5712,
      "ospital": 5713,
      "freel": 5714,
      "generic": 5715,
      "dioxide": 5716,
      "Schwarzman": 5717,
      "VIETNAM": 5718,
      "Bukele": 5719,
      "Advantech": 5720,
      "President": 5721,
      "Christopher": 5722,
      "Nafoods": 5723,
      "Mizuho": 5724,
      "Meey": 5725,
      "BMP": 5726,
      "Cro": 5727,
      "CWS": 5728,
      "Drive": 5729,
      "Hav": 5730,
      "Mom": 5731,
      "Rem": 5732,
      "S1": 5733,
      "Sent": 5734,
      "Wing": 5735,
      "Yon": 5736,
      "Yong": 5737,
      "ault": 5738,
      "bio": 5739,
      "calo": 5740,
      "cale": 5741,
      "lam": 5742,
      "mal": 5743,
      "mati": 5744,
      "petro": 5745,
      "chure": 5746,
      "BNB": 5747,
      "rah": 5748,
      "rapper": 5749,
      "Shore": 5750,
      "Altern": 5751,
      "arde": 5752,
      "oldings": 5753,
      "ode": 5754,
      "500m": 5755,
      "IME": 5756,
      "Great": 5757,
      "Color": 5758,
      "100m": 5759,
      "Luf": 5760,
      "MediaTek": 5761,
      "Farnb": 5762,
      "Salmonella": 5763,
      "Drilling": 5764,
      "LOF": 5765,
      "Avatar": 5766,
      "21h": 5767,
      "Camry": 5768,
      "Access": 5769,
      "Wenjing": 5770,
      "Krem": 5771,
      "Apax": 5772,
      "Ariz": 5773,
      "Katy": 5774,
      "Sapo": 5775,
      "Hirosh": 5776,
      "Nawat": 5777,
      "Estonia": 5778,
      "Suisse": 5779,
      "PVFCCo": 5780,
      "Keppel": 5781,
      "ospitality": 5782,
      "Farnborough": 5783,
      "8K": 5784,
      "9K": 5785,
      "Ala": 5786,
      "EVIPA": 5787,
      "HAC": 5788,
      "Jimmy": 5789,
      "Lion": 5790,
      "Miam": 5791,
      "Nak": 5792,
      "Pi": 5793,
      "Six": 5794,
      "Tensor": 5795,
      "Xiang": 5796,
      "biz": 5797,
      "case": 5798,
      "dis": 5799,
      "hit": 5800,
      "mad": 5801,
      "onic": 5802,
      "enp": 5803,
      "stat": 5804,
      "VNPay": 5805,
      "Sah": 5806,
      "Fair": 5807,
      "Mary": 5808,
      "inko": 5809,
      "ograph": 5810,
      "Conference": 5811,
      "VinaPhone": 5812,
      "verter": 5813,
      "attan": 5814,
      "GSO": 5815,
      "DRAM": 5816,
      "Peterson": 5817,
      "Schw": 5818,
      "FOX": 5819,
      "Game": 5820,
      "Suites": 5821,
      "Macquar": 5822,
      "TDH": 5823,
      "EPR": 5824,
      "Voice": 5825,
      "MicroStrategy": 5826,
      "Freder": 5827,
      "Slovak": 5828,
      "Obama": 5829,
      "Lagarde": 5830,
      "KAMERE": 5831,
      "ACTIV": 5832,
      "Sequoia": 5833,
      "Kremlin": 5834,
      "Miami": 5835,
      "Macquarie": 5836,
      "Slovakia": 5837,
      "KAMEREO": 5838,
      "3x": 5839,
      "DAP": 5840,
      "Eu": 5841,
      "Fei": 5842,
      "Heng": 5843,
      "Koo": 5844,
      "LAS": 5845,
      "Love": 5846,
      "MPC": 5847,
      "Nat": 5848,
      "Oliv": 5849,
      "Pin": 5850,
      "PHAN": 5851,
      "Slogan": 5852,
      "WW": 5853,
      "Woo": 5854,
      "Yok": 5855,
      "cen": 5856,
      "dt": 5857,
      "fram": 5858,
      "hong": 5859,
      "hinh": 5860,
      "pect": 5861,
      "wen": 5862,
      "eno": 5863,
      "itech": 5864,
      "elect": 5865,
      "True": 5866,
      "gao": 5867,
      "rib": 5868,
      "Mah": 5869,
      "Malach": 5870,
      "PVT": 5871,
      "VF3": 5872,
      "FinTech": 5873,
      "supe": 5874,
      "Commer": 5875,
      "Lev": 5876,
      "avan": 5877,
      "baum": 5878,
      "Traffic": 5879,
      "eurozone": 5880,
      "Amb": 5881,
      "kins": 5882,
      "Schul": 5883,
      "Billion": 5884,
      "VNeTraffic": 5885,
      "Orb": 5886,
      "Berlin": 5887,
      "Berjaya": 5888,
      "LVMH": 5889,
      "HUD": 5890,
      "Grai": 5891,
      "VTG": 5892,
      "Siem": 5893,
      "Akari": 5894,
      "Activ": 5895,
      "structure": 5896,
      "owsky": 5897,
      "canxi": 5898,
      "A2Z": 5899,
      "Charlie": 5900,
      "proptech": 5901,
      "talk": 5902,
      "Beverage": 5903,
      "Taiwan": 5904,
      "NARIME": 5905,
      "Rasberry": 5906,
      "ethanol": 5907,
      "brochure": 5908,
      "Arizona": 5909,
      "electron": 5910,
      "Malachowsky": 5911,
      "2h": 5912,
      "3h": 5913,
      "900": 5914,
      "ABC": 5915,
      "CCP": 5916,
      "Cast": 5917,
      "Hand": 5918,
      "ICP": 5919,
      "Jen": 5920,
      "Mem": 5921,
      "NRC": 5922,
      "Pala": 5923,
      "Patt": 5924,
      "Ric": 5925,
      "Sens": 5926,
      "Vant": 5927,
      "Wil": 5928,
      "affiliate": 5929,
      "bat": 5930,
      "menu": 5931,
      "ru": 5932,
      "rem": 5933,
      "tim": 5934,
      "aman": 5935,
      "iton": 5936,
      "TTCP": 5937,
      "VNTT": 5938,
      "Story": 5939,
      "irm": 5940,
      "Faulk": 5941,
      "oss": 5942,
      "ANV": 5943,
      "ards": 5944,
      "SIA": 5945,
      "Element": 5946,
      "VFF": 5947,
      "Johor": 5948,
      "rise": 5949,
      "Bruss": 5950,
      "STCN": 5951,
      "Australis": 5952,
      "Syria": 5953,
      "Ismail": 5954,
      "Hann": 5955,
      "cloud": 5956,
      "tract": 5957,
      "TokyoLife": 5958,
      "CHF": 5959,
      "ecki": 5960,
      "Tae": 5961,
      "SPMB": 5962,
      "Rose": 5963,
      "NSND": 5964,
      "Flash": 5965,
      "CFD": 5966,
      "Azure": 5967,
      "Ern": 5968,
      "Copilot": 5969,
      "Surreal": 5970,
      "Kost": 5971,
      "Snapdra": 5972,
      "laser": 5973,
      "Reliability": 5974,
      "music": 5975,
      "Scanlan": 5976,
      "VCBNeo": 5977,
      "Schulz": 5978,
      "Faulkner": 5979,
      "Brussels": 5980,
      "Snapdragon": 5981,
      "2D": 5982,
      "6A": 5983,
      "ACE": 5984,
      "Bun": 5985,
      "Better": 5986,
      "Dery": 5987,
      "Jay": 5988,
      "KV": 5989,
      "Kra": 5990,
      "Km2": 5991,
      "KFC": 5992,
      "Kayak": 5993,
      "MCK": 5994,
      "Nag": 5995,
      "OK": 5996,
      "OTC": 5997,
      "Over": 5998,
      "Ridge": 5999,
      "Sut": 6000,
      "Santa": 6001,
      "Saylor": 6002,
      "Yah": 6003,
      "__": 6004,
      "bie": 6005,
      "dem": 6006,
      "ius": 6007,
      "ten": 6008,
      "ulo": 6009,
      "wha": 6010,
      "iao": 6011,
      "Vietsov": 6012,
      "reco": 6013,
      "Shir": 6014,
      "Shiger": 6015,
      "CBO": 6016,
      "uni": 6017,
      "DIVI": 6018,
      "Saint": 6019,
      "VIET": 6020,
      "Plinh": 6021,
      "Seal": 6022,
      "devel": 6023,
      "Arb": 6024,
      "martech": 6025,
      "iley": 6026,
      "Spo": 6027,
      "Hanwha": 6028,
      "Hyder": 6029,
      "click": 6030,
      "eva": 6031,
      "CADIVI": 6032,
      "Genet": 6033,
      "block": 6034,
      "LiveSpo": 6035,
      "Palm": 6036,
      "TowerCo": 6037,
      "Sales": 6038,
      "Laur": 6039,
      "Tyler": 6040,
      "Ives": 6041,
      "Soho": 6042,
      "Changpeng": 6043,
      "Sofia": 6044,
      "Infrastructure": 6045,
      "Vantage": 6046,
      "Deryng": 6047,
      "Vietsovpetro": 6048,
      "Shigeru": 6049,
      "Hyderabad": 6050,
      "435": 6051,
      "9ha": 6052,
      "A7": 6053,
      "BVTV": 6054,
      "Deg": 6055,
      "H100": 6056,
      "IJ": 6057,
      "Jinko": 6058,
      "KC": 6059,
      "Kyo": 6060,
      "QTT": 6061,
      "Qwen": 6062,
      "SVEAM": 6063,
      "Wed": 6064,
      "Wynd": 6065,
      "Xp": 6066,
      "dry": 6067,
      "fam": 6068,
      "hattan": 6069,
      "km2": 6070,
      "nat": 6071,
      "pi": 6072,
      "sat": 6073,
      "soon": 6074,
      "time": 6075,
      "wi": 6076,
      "zalo": 6077,
      "esas": 6078,
      "alari": 6079,
      "etel": 6080,
      "TTG": 6081,
      "entum": 6082,
      "VinGroup": 6083,
      "Shen": 6084,
      "ustain": 6085,
      "Reg": 6086,
      "Agency": 6087,
      "rowind": 6088,
      "Manhattan": 6089,
      "Lei": 6090,
      "tainment": 6091,
      "BVSC": 6092,
      "VEPR": 6093,
      "ixel": 6094,
      "GenZ": 6095,
      "asep": 6096,
      "Sunrise": 6097,
      "ansa": 6098,
      "Later": 6099,
      "Datab": 6100,
      "Drew": 6101,
      "module": 6102,
      "Evans": 6103,
      "Entertainment": 6104,
      "methan": 6105,
      "Esther": 6106,
      "Azer": 6107,
      "KQKD": 6108,
      "Renesas": 6109,
      "Double": 6110,
      "Talentnet": 6111,
      "Kokalari": 6112,
      "jean": 6113,
      "Employment": 6114,
      "Efishery": 6115,
      "Eurowind": 6116,
      "Kostecki": 6117,
      "Wyndham": 6118,
      "Eurowindow": 6119,
      "46": 6120,
      "Audi": 6121,
      "B4": 6122,
      "Down": 6123,
      "EY": 6124,
      "Earth": 6125,
      "Has": 6126,
      "HAM": 6127,
      "Hieu": 6128,
      "JSV": 6129,
      "Kent": 6130,
      "Kang": 6131,
      "Kings": 6132,
      "Lin": 6133,
      "Ooi": 6134,
      "Set": 6135,
      "Sul": 6136,
      "Test": 6137,
      "Um": 6138,
      "U30": 6139,
      "VM": 6140,
      "Yo": 6141,
      "Zone": 6142,
      "cul": 6143,
      "hap": 6144,
      "mult": 6145,
      "nga": 6146,
      "pin": 6147,
      "sub": 6148,
      "watch": 6149,
      "stics": 6150,
      "umin": 6151,
      "unity": 6152,
      "Sax": 6153,
      "ivin": 6154,
      "angu": 6155,
      "Donetsk": 6156,
      "TCR": 6157,
      "BHS": 6158,
      "ancer": 6159,
      "Spark": 6160,
      "Three": 6161,
      "PAY": 6162,
      "phaha": 6163,
      "Edward": 6164,
      "Busan": 6165,
      "UNI": 6166,
      "22M": 6167,
      "Melek": 6168,
      "Milan": 6169,
      "60km": 6170,
      "13h": 6171,
      "200ha": 6172,
      "Abivin": 6173,
      "CRF": 6174,
      "clean": 6175,
      "Neural": 6176,
      "Workshop": 6177,
      "system": 6178,
      "Accor": 6179,
      "Sanvin": 6180,
      "lux": 6181,
      "buff": 6182,
      "Crunch": 6183,
      "postenp": 6184,
      "Grant": 6185,
      "baijan": 6186,
      "VIISA": 6187,
      "Decision": 6188,
      "Anthropic": 6189,
      "WAAS": 6190,
      "UKVFTA": 6191,
      "PROFIT": 6192,
      "Jonathan": 6193,
      "Evergrand": 6194,
      "ISAWAAS": 6195,
      "Dhabi": 6196,
      "Orbital": 6197,
      "drylin": 6198,
      "Azerbaijan": 6199,
      "Sanvinest": 6200,
      "PROFIT500": 6201,
      "826": 6202,
      "A5": 6203,
      "ACM": 6204,
      "CJ": 6205,
      "C06": 6206,
      "Dell": 6207,
      "Gat": 6208,
      "Hz": 6209,
      "Honey": 6210,
      "LN": 6211,
      "Loun": 6212,
      "MVN": 6213,
      "NCSC": 6214,
      "Pika": 6215,
      "Rom": 6216,
      "Sl": 6217,
      "Wis": 6218,
      "cil": 6219,
      "cera": 6220,
      "font": 6221,
      "pizza": 6222,
      "vay": 6223,
      "yen": 6224,
      "zer": 6225,
      "ankyo": 6226,
      "exit": 6227,
      "aph": 6228,
      "adam": 6229,
      "Chap": 6230,
      "SEM": 6231,
      "opia": 6232,
      "thansa": 6233,
      "ersen": 6234,
      "Dony": 6235,
      "htag": 6236,
      "Meger": 6237,
      "hynix": 6238,
      "Mobility": 6239,
      "Carib": 6240,
      "RIKAI": 6241,
      "TCBS": 6242,
      "ansen": 6243,
      "workshop": 6244,
      "Orch": 6245,
      "60m": 6246,
      "ification": 6247,
      "Monsoon": 6248,
      "Nextrans": 6249,
      "FiinRatings": 6250,
      "Basis": 6251,
      "café": 6252,
      "PVCFC": 6253,
      "Citig": 6254,
      "Mansion": 6255,
      "JTBC": 6256,
      "Hidankyo": 6257,
      "Dolph": 6258,
      "Reflect": 6259,
      "Medicare": 6260,
      "Lufthansa": 6261,
      "TensorFlow": 6262,
      "Genetica": 6263,
      "JSVOF": 6264,
      "ACMECS": 6265,
      "78": 6266,
      "8X": 6267,
      "AL": 6268,
      "ART": 6269,
      "BPO": 6270,
      "FBI": 6271,
      "GCC": 6272,
      "Hospitality": 6273,
      "Icel": 6274,
      "JP": 6275,
      "JU": 6276,
      "Lul": 6277,
      "PSH": 6278,
      "Sip": 6279,
      "S22M": 6280,
      "VSC": 6281,
      "Vasep": 6282,
      "fr": 6283,
      "kara": 6284,
      "light": 6285,
      "oai": 6286,
      "ping": 6287,
      "sofa": 6288,
      "wat": 6289,
      "TPS": 6290,
      "ela": 6291,
      "idol": 6292,
      "ader": 6293,
      "Chin": 6294,
      "udog": 6295,
      "Main": 6296,
      "Agent": 6297,
      "30m": 6298,
      "20km": 6299,
      "Ark": 6300,
      "Aria": 6301,
      "MoC": 6302,
      "teg": 6303,
      "AMA": 6304,
      "Bea": 6305,
      "ending": 6306,
      "vietstock": 6307,
      "LPBS": 6308,
      "PayLater": 6309,
      "BVS": 6310,
      "Scot": 6311,
      "WinEco": 6312,
      "prom": 6313,
      "adezi": 6314,
      "Match": 6315,
      "IROnline": 6316,
      "GBP": 6317,
      "FOMO": 6318,
      "blu": 6319,
      "Sonadezi": 6320,
      "aspx": 6321,
      "Empire": 6322,
      "Holiday": 6323,
      "Oreal": 6324,
      "Bulgar": 6325,
      "Fold6": 6326,
      "Shoppertainment": 6327,
      "Planet": 6328,
      "EWEC": 6329,
      "creator": 6330,
      "Asean": 6331,
      "PrintPack": 6332,
      "Tianhong": 6333,
      "Assistant": 6334,
      "Vegas": 6335,
      "Yahoo": 6336,
      "bieudog": 6337,
      "luxury": 6338,
      "Evergrande": 6339,
      "Iceland": 6340,
      "bieudogiavang": 6341,
      "8x": 6342,
      "Cine": 6343,
      "Epic": 6344,
      "Gal": 6345,
      "IBC": 6346,
      "Mord": 6347,
      "Nit": 6348,
      "Night": 6349,
      "OPP": 6350,
      "P2": 6351,
      "Q3": 6352,
      "Rachel": 6353,
      "Tier": 6354,
      "TDG": 6355,
      "VKSND": 6356,
      "bill": 6357,
      "cell": 6358,
      "gel": 6359,
      "tre": 6360,
      "vare": 6361,
      "alu": 6362,
      "CMA": 6363,
      "atform": 6364,
      "emp": 6365,
      "cos": 6366,
      "Shink": 6367,
      "utra": 6368,
      "30K": 6369,
      "Seine": 6370,
      "SIBA": 6371,
      "depot": 6372,
      "AGES": 6373,
      "Serey": 6374,
      "Class": 6375,
      "XVII": 6376,
      "TBR": 6377,
      "Instrum": 6378,
      "bridge": 6379,
      "Party": 6380,
      "19h": 6381,
      "Deuts": 6382,
      "itsu": 6383,
      "ynh": 6384,
      "70m2": 6385,
      "Franch": 6386,
      "Yuen": 6387,
      "Artificial": 6388,
      "Luxshare": 6389,
      "HANSIBA": 6390,
      "ception": 6391,
      "Gazprom": 6392,
      "Jared": 6393,
      "Lumi": 6394,
      "Steven": 6395,
      "Middle": 6396,
      "prefunding": 6397,
      "Pavilon": 6398,
      "Birkin": 6399,
      "Opport": 6400,
      "Architects": 6401,
      "Zhuhai": 6402,
      "hashtag": 6403,
      "Scope": 6404,
      "Elementary": 6405,
      "Gateway": 6406,
      "Lounge": 6407,
      "Dolphin": 6408,
      "OPPO": 6409,
      "Pavilonis": 6410,
      "1B": 6411,
      "Aid": 6412,
      "Bow": 6413,
      "Bio": 6414,
      "Dj": 6415,
      "HL": 6416,
      "Linda": 6417,
      "Nast": 6418,
      "Om": 6419,
      "Omod": 6420,
      "Pass": 6421,
      "PHEV": 6422,
      "Ra": 6423,
      "Skin": 6424,
      "Tas": 6425,
      "iams": 6426,
      "rit": 6427,
      "try": 6428,
      "USPTO": 6429,
      "elle": 6430,
      "icetel": 6431,
      "unic": 6432,
      "SEK": 6433,
      "SET": 6434,
      "SaaS": 6435,
      "Rees": 6436,
      "ungsten": 6437,
      "manuel": 6438,
      "DeepMind": 6439,
      "Manet": 6440,
      "Isk": 6441,
      "Greg": 6442,
      "ekip": 6443,
      "Parad": 6444,
      "bancansurace": 6445,
      "bush": 6446,
      "Accent": 6447,
      "Orig": 6448,
      "VCRE": 6449,
      "22kV": 6450,
      "Modern": 6451,
      "Barron": 6452,
      "FTZ": 6453,
      "Ramos": 6454,
      "HUB": 6455,
      "ecoin": 6456,
      "EEP": 6457,
      "Control": 6458,
      "80m2": 6459,
      "Mosk": 6460,
      "Fuj": 6461,
      "Dyal": 6462,
      "pallet": 6463,
      "Counter": 6464,
      "Williams": 6465,
      "MML": 6466,
      "Cooper": 6467,
      "Jennie": 6468,
      "EVNGENCO1": 6469,
      "C2T": 6470,
      "Susan": 6471,
      "Vitas": 6472,
      "Broadcom": 6473,
      "Kenya": 6474,
      "Nelson": 6475,
      "Analytics": 6476,
      "Apollo": 6477,
      "freelancer": 6478,
      "Momentum": 6479,
      "bluech": 6480,
      "Mordor": 6481,
      "Omoda": 6482,
      "3m2": 6483,
      "Ale": 6484,
      "ATI": 6485,
      "Bou": 6486,
      "BBC": 6487,
      "BET": 6488,
      "Dai": 6489,
      "DLG": 6490,
      "FU": 6491,
      "GMC": 6492,
      "HI": 6493,
      "HIV": 6494,
      "H20": 6495,
      "HPA": 6496,
      "Mt": 6497,
      "Mul": 6498,
      "Mina": 6499,
      "Mib": 6500,
      "NTP": 6501,
      "Nard": 6502,
      "OO": 6503,
      "Peg": 6504,
      "PUF": 6505,
      "RBC": 6506,
      "RIM": 6507,
      "UR": 6508,
      "Wag": 6509,
      "Ya": 6510,
      "e34": 6511,
      "ior": 6512,
      "lon": 6513,
      "ling": 6514,
      "nom": 6515,
      "rence": 6516,
      "ting": 6517,
      "ination": 6518,
      "orm": 6519,
      "CMSC": 6520,
      "stay": 6521,
      "TTY": 6522,
      "eder": 6523,
      "Chery": 6524,
      "Stra": 6525,
      "State": 6526,
      "echan": 6527,
      "TCKT": 6528,
      "ANR": 6529,
      "overs": 6530,
      "Recy": 6531,
      "Hoiana": 6532,
      "10ha": 6533,
      "GlobalGAP": 6534,
      "BOK": 6535,
      "Trader": 6536,
      "GETTY": 6537,
      "sons": 6538,
      "marathon": 6539,
      "Quest": 6540,
      "Starship": 6541,
      "hoa": 6542,
      "aniore": 6543,
      "BTU": 6544,
      "anner": 6545,
      "anyan": 6546,
      "Place": 6547,
      "Nasun": 6548,
      "capital": 6549,
      "plex": 6550,
      "FTECH": 6551,
      "Putro": 6552,
      "Geely": 6553,
      "basmati": 6554,
      "OpenView": 6555,
      "MITI": 6556,
      "98B3": 6557,
      "polyester": 6558,
      "CXMT": 6559,
      "Country": 6560,
      "Everest": 6561,
      "Naadam": 6562,
      "Safari": 6563,
      "payment": 6564,
      "ratio": 6565,
      "Wells": 6566,
      "Oxfam": 6567,
      "EVNGENCO3": 6568,
      "Sungrow": 6569,
      "allenges": 6570,
      "Ranger": 6571,
      "Ronaldo": 6572,
      "QuickPack": 6573,
      "IJV": 6574,
      "Kyocera": 6575,
      "HieuTV": 6576,
      "multi": 6577,
      "Bulgaria": 6578,
      "BETRIM": 6579,
      "PUFFTECH": 6580,
      "BETRIMEX": 6581,
      "5kg": 6582,
      "8m": 6583,
      "Banyan": 6584,
      "Cash": 6585,
      "D2C": 6586,
      "FSI": 6587,
      "Foster": 6588,
      "Glor": 6589,
      "Juan": 6590,
      "PF": 6591,
      "PSC": 6592,
      "Pett": 6593,
      "Vert": 6594,
      "Zie": 6595,
      "ahi": 6596,
      "dn": 6597,
      "gh": 6598,
      "him": 6599,
      "jun": 6600,
      "mot": 6601,
      "ues": 6602,
      "wifi": 6603,
      "eter": 6604,
      "anke": 6605,
      "VietQR": 6606,
      "eman": 6607,
      "Vinac": 6608,
      "Phnom": 6609,
      "Stop": 6610,
      "iron": 6611,
      "osco": 6612,
      "ovi": 6613,
      "Vietnamnet": 6614,
      "ction": 6615,
      "Alban": 6616,
      "Ende": 6617,
      "CSKH": 6618,
      "500km": 6619,
      "Spring": 6620,
      "The": 6621,
      "ocus": 6622,
      "160": 6623,
      "MEAT": 6624,
      "José": 6625,
      "FOC": 6626,
      "arner": 6627,
      "HURC": 6628,
      "Imperia": 6629,
      "Small": 6630,
      "metics": 6631,
      "Lumen": 6632,
      "VNR500": 6633,
      "Wonders": 6634,
      "Shopping": 6635,
      "feet": 6636,
      "Mondel": 6637,
      "Hiroshima": 6638,
      "natri": 6639,
      "methane": 6640,
      "Shinkansen": 6641,
      "Opportunity": 6642,
      "ANRPC": 6643,
      "Endeav": 6644,
      "47": 6645,
      "850ha": 6646,
      "Ara": 6647,
      "Beng": 6648,
      "Dh": 6649,
      "Fra": 6650,
      "Fusion": 6651,
      "Gels": 6652,
      "H5": 6653,
      "Hark": 6654,
      "Heb": 6655,
      "OCH": 6656,
      "Rio": 6657,
      "Soo": 6658,
      "Sig": 6659,
      "SAI": 6660,
      "Tar": 6661,
      "VCS": 6662,
      "cial": 6663,
      "kayak": 6664,
      "mix": 6665,
      "power": 6666,
      "sri": 6667,
      "road": 6668,
      "itel": 6669,
      "VNREA": 6670,
      "idi": 6671,
      "Trend": 6672,
      "enter": 6673,
      "Shell": 6674,
      "obi": 6675,
      "Rep": 6676,
      "30km": 6677,
      "carbonate": 6678,
      "Joon": 6679,
      "10h30": 6680,
      "SML": 6681,
      "SCA": 6682,
      "IMAGES": 6683,
      "Gram": 6684,
      "lys": 6685,
      "HSX": 6686,
      "http": 6687,
      "ONE": 6688,
      "BlackRock": 6689,
      "Megastory": 6690,
      "Depot": 6691,
      "Sailing": 6692,
      "platform": 6693,
      "200m": 6694,
      "Suan": 6695,
      "Christmas": 6696,
      "tual": 6697,
      "wait": 6698,
      "brand": 6699,
      "Krung": 6700,
      "ricks": 6701,
      "UBTVQH": 6702,
      "Naver": 6703,
      "Hitachi": 6704,
      "Liberty": 6705,
      "Lilama": 6706,
      "Technik": 6707,
      "Ballmer": 6708,
      "Ciputra": 6709,
      "Cornell": 6710,
      "Pharmaceuticals": 6711,
      "Hannah": 6712,
      "Shirley": 6713,
      "Neuralink": 6714,
      "Counterpoint": 6715,
      "Endeavor": 6716,
      "Gelsinger": 6717,
      "2A": 6718,
      "Amp": 6719,
      "EK": 6720,
      "Giv": 6721,
      "Gmb": 6722,
      "Hod": 6723,
      "Hack": 6724,
      "HEA": 6725,
      "IRA": 6726,
      "LPTB": 6727,
      "MTPA": 6728,
      "NE": 6729,
      "Nano": 6730,
      "Penh": 6731,
      "QP": 6732,
      "SBV": 6733,
      "Sund": 6734,
      "SSV": 6735,
      "Semb": 6736,
      "VSA": 6737,
      "cal": 6738,
      "from": 6739,
      "git": 6740,
      "g00": 6741,
      "nt": 6742,
      "sv": 6743,
      "women": 6744,
      "yers": 6745,
      "influencer": 6746,
      "anol": 6747,
      "aric": 6748,
      "alink": 6749,
      "stream": 6750,
      "TTE": 6751,
      "Viber": 6752,
      "olution": 6753,
      "otech": 6754,
      "VinWonders": 6755,
      "Shi": 6756,
      "adon": 6757,
      "adow": 6758,
      "imate": 6759,
      "utan": 6760,
      "ople": 6761,
      "CNCH": 6762,
      "Cosm": 6763,
      "Alph": 6764,
      "Maers": 6765,
      "htm": 6766,
      "ipro": 6767,
      "neg": 6768,
      "MSR": 6769,
      "Anpha": 6770,
      "Arsen": 6771,
      "Manor": 6772,
      "Huat": 6773,
      "10kg": 6774,
      "Contract": 6775,
      "50K": 6776,
      "2400": 6777,
      "IMP": 6778,
      "cents": 6779,
      "ecoo": 6780,
      "etti": 6781,
      "Khal": 6782,
      "CATL": 6783,
      "RAR": 6784,
      "Sunhouse": 6785,
      "Merino": 6786,
      "anye": 6787,
      "UNIDO": 6788,
      "KDF": 6789,
      "Stefan": 6790,
      "LOTTE": 6791,
      "Christie": 6792,
      "Km0": 6793,
      "Mitsui": 6794,
      "Clubhouse": 6795,
      "Council": 6796,
      "FIE": 6797,
      "F2503": 6798,
      "Ethere": 6799,
      "XSMB": 6800,
      "Alexandar": 6801,
      "Praha": 6802,
      "Leaders": 6803,
      "Agritech": 6804,
      "suite": 6805,
      "Brunei": 6806,
      "Select": 6807,
      "Munich": 6808,
      "120km": 6809,
      "Platforms": 6810,
      "Penang": 6811,
      "Celebration": 6812,
      "Palace": 6813,
      "Databricks": 6814,
      "Orchard": 6815,
      "Scotland": 6816,
      "Instrument": 6817,
      "Mibrand": 6818,
      "Petterson": 6819,
      "Ziehe": 6820,
      "Krungsri": 6821,
      "Sembcorp": 6822,
      "Ethereum": 6823,
      "Aw": 6824,
      "ADX": 6825,
      "Affiliate": 6826,
      "Bell": 6827,
      "CAND": 6828,
      "Die": 6829,
      "EQ": 6830,
      "FM": 6831,
      "Gard": 6832,
      "GDA": 6833,
      "HII": 6834,
      "Hap": 6835,
      "Houth": 6836,
      "KNH": 6837,
      "Kun": 6838,
      "KLC": 6839,
      "Lif": 6840,
      "Mist": 6841,
      "Mechan": 6842,
      "NDC": 6843,
      "OR": 6844,
      "OEM": 6845,
      "Pom": 6846,
      "Pizza": 6847,
      "Q1": 6848,
      "Rover": 6849,
      "Sik": 6850,
      "SCS": 6851,
      "Side": 6852,
      "Tot": 6853,
      "Ulys": 6854,
      "VDC": 6855,
      "Vita": 6856,
      "Wan": 6857,
      "Wav": 6858,
      "X8": 6859,
      "XSM": 6860,
      "XXIV": 6861,
      "gmail": 6862,
      "kat": 6863,
      "led": 6864,
      "sch": 6865,
      "sus": 6866,
      "vet": 6867,
      "erre": 6868,
      "esco": 6869,
      "change": 6870,
      "TTECH": 6871,
      "upfront": 6872,
      "Insp": 6873,
      "Vietfood": 6874,
      "oly": 6875,
      "exay": 6876,
      "loo": 6877,
      "reg": 6878,
      "reit": 6879,
      "oop": 6880,
      "andi": 6881,
      "VinBus": 6882,
      "She": 6883,
      "adline": 6884,
      "imer": 6885,
      "estreit": 6886,
      "urn": 6887,
      "CON": 6888,
      "COMEX": 6889,
      "phen": 6890,
      "THILO": 6891,
      "IMA": 6892,
      "Hyun": 6893,
      "stockchart": 6894,
      "Landmark": 6895,
      "OneDeg": 6896,
      "AVSE": 6897,
      "Bulog": 6898,
      "Head": 6899,
      "Wales": 6900,
      "acci": 6901,
      "formance": 6902,
      "QLO": 6903,
      "tax": 6904,
      "KOLs": 6905,
      "Kyodo": 6906,
      "Senique": 6907,
      "Sonexay": 6908,
      "Joshua": 6909,
      "Oakwood": 6910,
      "Rivian": 6911,
      "Dynam": 6912,
      "PouYuen": 6913,
      "Bhutan": 6914,
      "UFJ": 6915,
      "Lavreco": 6916,
      "Bluet": 6917,
      "Satra": 6918,
      "Orion": 6919,
      "Destination": 6920,
      "Lawrence": 6921,
      "megawatt": 6922,
      "aguerre": 6923,
      "panel": 6924,
      "Whitney": 6925,
      "Yonhap": 6926,
      "Bunny": 6927,
      "UNIQLO": 6928,
      "LNST": 6929,
      "Caribe": 6930,
      "Minawa": 6931,
      "Nardin": 6932,
      "Wagner": 6933,
      "Hebestreit": 6934,
      "GmbH": 6935,
      "HEATTECH": 6936,
      "svck": 6937,
      "Maersk": 6938,
      "Houthi": 6939,
      "KNHTTT": 6940,
      "Ulysse": 6941,
      "XSMN": 6942,
      "THILOGI": 6943,
      "OneDegree": 6944,
      "0h": 6945,
      "2PN": 6946,
      "4h": 6947,
      "536": 6948,
      "Ath": 6949,
      "Bla": 6950,
      "Bros": 6951,
      "Bett": 6952,
      "Biss": 6953,
      "Dam": 6954,
      "Duk": 6955,
      "Eats": 6956,
      "IND": 6957,
      "Java": 6958,
      "Kan": 6959,
      "Ket": 6960,
      "Kom": 6961,
      "Kant": 6962,
      "Ni": 6963,
      "Nim": 6964,
      "Niger": 6965,
      "PII": 6966,
      "Pers": 6967,
      "Rena": 6968,
      "Sue": 6969,
      "Tap": 6970,
      "Tod": 6971,
      "Xinh": 6972,
      "cong": 6973,
      "cry": 6974,
      "carton": 6975,
      "dich": 6976,
      "hotel": 6977,
      "money": 6978,
      "tik": 6979,
      "tennis": 6980,
      "voss": 6981,
      "alam": 6982,
      "roy": 6983,
      "chet": 6984,
      "ilk": 6985,
      "ume": 6986,
      "asy": 6987,
      "Sharma": 6988,
      "usk": 6989,
      "user": 6990,
      "IDH": 6991,
      "COD": 6992,
      "CNG": 6993,
      "oki": 6994,
      "aker": 6995,
      "Techday": 6996,
      "ubu": 6997,
      "Capella": 6998,
      "ProPak": 6999,
      "TBKTSG": 7000,
      "CAHN": 7001,
      "ramen": 7002,
      "Quant": 7003,
      "Petri": 7004,
      "Heus": 7005,
      "curity": 7006,
      "ector": 7007,
      "Zhou": 7008,
      "Sheinbaum": 7009,
      "Att": 7010,
      "Moreno": 7011,
      "rency": 7012,
      "Upcom": 7013,
      "Kuwait": 7014,
      "SVD": 7015,
      "micron": 7016,
      "Arnault": 7017,
      "Terne": 7018,
      "monitor": 7019,
      "Ethi": 7020,
      "Jaecoo": 7021,
      "compound": 7022,
      "Antler": 7023,
      "BluSaigon": 7024,
      "solo": 7025,
      "Veloz": 7026,
      "pdf": 7027,
      "Emerald": 7028,
      "Winklevoss": 7029,
      "Izumi": 7030,
      "HAMEE": 7031,
      "buffet": 7032,
      "Bengal": 7033,
      "phenol": 7034,
      "Bat": 7035,
      "Dmit": 7036,
      "DQS": 7037,
      "FSB": 7038,
      "Hass": 7039,
      "Ito": 7040,
      "Ju": 7041,
      "MK": 7042,
      "MR": 7043,
      "MFast": 7044,
      "Nev": 7045,
      "OC": 7046,
      "QNS": 7047,
      "Rog": 7048,
      "Tit": 7049,
      "Verg": 7050,
      "WAS": 7051,
      "dale": 7052,
      "fen": 7053,
      "fly": 7054,
      "gt": 7055,
      "just": 7056,
      "mel": 7057,
      "o1": 7058,
      "pack": 7059,
      "sn": 7060,
      "soan": 7061,
      "inom": 7062,
      "information": 7063,
      "anu": 7064,
      "onto": 7065,
      "aru": 7066,
      "arin": 7067,
      "ety": 7068,
      "oro": 7069,
      "Vivo": 7070,
      "Inception": 7071,
      "ente": 7072,
      "asia": 7073,
      "isson": 7074,
      "TSA": 7075,
      "look": 7076,
      "PTBV": 7077,
      "ays": 7078,
      "Chev": 7079,
      "haha": 7080,
      "Stry": 7081,
      "ived": 7082,
      "Fah": 7083,
      "agh": 7084,
      "max": 7085,
      "ovich": 7086,
      "care": 7087,
      "Music": 7088,
      "livan": 7089,
      "VFM": 7090,
      "aculture": 7091,
      "Leung": 7092,
      "Leav": 7093,
      "izon": 7094,
      "tec": 7095,
      "hyun": 7096,
      "LCD": 7097,
      "Block": 7098,
      "inder": 7099,
      "Blank": 7100,
      "gaming": 7101,
      "RICE": 7102,
      "Silva": 7103,
      "officetel": 7104,
      "Meriton": 7105,
      "25m": 7106,
      "Ort": 7107,
      "KTXH": 7108,
      "Hercul": 7109,
      "Labubu": 7110,
      "LK02": 7111,
      "NO1": 7112,
      "Aquaculture": 7113,
      "OIDIRE": 7114,
      "Rapid": 7115,
      "ServiceNow": 7116,
      "Telegraph": 7117,
      "Ether": 7118,
      "encourt": 7119,
      "Renew": 7120,
      "Freda": 7121,
      "Oriental": 7122,
      "Toronto": 7123,
      "Claude": 7124,
      "Anthony": 7125,
      "Lynn": 7126,
      "Associates": 7127,
      "Fibonacci": 7128,
      "Pichai": 7129,
      "Siemens": 7130,
      "435mm": 7131,
      "karaoke": 7132,
      "Mondelez": 7133,
      "Bettencourt": 7134,
      "Nigeria": 7135,
      "Stryker": 7136,
      "Leavitt": 7137,
      "Hercules": 7138,
      "68": 7139,
      "7m": 7140,
      "9x": 7141,
      "Bri": 7142,
      "Det": 7143,
      "GMS": 7144,
      "GDC": 7145,
      "Ghost": 7146,
      "H3": 7147,
      "Jian": 7148,
      "Kal": 7149,
      "Kenn": 7150,
      "Lon": 7151,
      "Mi": 7152,
      "Nhan": 7153,
      "NEX": 7154,
      "Ole": 7155,
      "Pok": 7156,
      "PHP": 7157,
      "Rail": 7158,
      "Rick": 7159,
      "V6": 7160,
      "Wir": 7161,
      "Week": 7162,
      "Warner": 7163,
      "cơ": 7164,
      "coop": 7165,
      "human": 7166,
      "jeta": 7167,
      "like": 7168,
      "lish": 7169,
      "mo": 7170,
      "penny": 7171,
      "xcơ": 7172,
      "ality": 7173,
      "eline": 7174,
      "VNPost": 7175,
      "Tran": 7176,
      "load": 7177,
      "refour": 7178,
      "ager": 7179,
      "ifone": 7180,
      "obe": 7181,
      "Airport": 7182,
      "ardo": 7183,
      "30Shine": 7184,
      "VATA": 7185,
      "IVB": 7186,
      "manga": 7187,
      "ession": 7188,
      "Moore": 7189,
      "Unic": 7190,
      "vietjeta": 7191,
      "earing": 7192,
      "uge": 7193,
      "AGG": 7194,
      "Adolf": 7195,
      "quid": 7196,
      "Marketer": 7197,
      "club": 7198,
      "Carrefour": 7199,
      "ETRO": 7200,
      "ShopeePay": 7201,
      "TLG": 7202,
      "intelligence": 7203,
      "Waller": 7204,
      "Winmart": 7205,
      "icons": 7206,
      "Markus": 7207,
      "formaldehyde": 7208,
      "Baht": 7209,
      "Fargo": 7210,
      "organization": 7211,
      "FORB": 7212,
      "Suite": 7213,
      "LOG": 7214,
      "Franco": 7215,
      "medi": 7216,
      "Casino": 7217,
      "Celadon": 7218,
      "OMNI": 7219,
      "Showroom": 7220,
      "RBI": 7221,
      "Kazuo": 7222,
      "Virtual": 7223,
      "Packer": 7224,
      "Amanotes": 7225,
      "Bulga": 7226,
      "Oxford": 7227,
      "Chae": 7228,
      "ringgit": 7229,
      "Tether": 7230,
      "Millennials": 7231,
      "START": 7232,
      "Jobs": 7233,
      "effective": 7234,
      "handone": 7235,
      "Ajinom": 7236,
      "holm": 7237,
      "Ambani": 7238,
      "Wedbush": 7239,
      "Sullivan": 7240,
      "Siphandone": 7241,
      "Kantar": 7242,
      "xcơva": 7243,
      "vietjetair": 7244,
      "FORBES": 7245,
      "Ajinomoto": 7246,
      "4o": 7247,
      "5MW": 7248,
      "99": 7249,
      "Aus": 7250,
      "Bran": 7251,
      "Den": 7252,
      "FX": 7253,
      "GAB": 7254,
      "Gary": 7255,
      "Hun": 7256,
      "IJC": 7257,
      "KSB": 7258,
      "Kitch": 7259,
      "Lop": 7260,
      "Letter": 7261,
      "Mes": 7262,
      "OND": 7263,
      "PAC": 7264,
      "PHR": 7265,
      "Wid": 7266,
      "YS": 7267,
      "banner": 7268,
      "cord": 7269,
      "cross": 7270,
      "dot": 7271,
      "gram": 7272,
      "gdt": 7273,
      "his": 7274,
      "put": 7275,
      "si": 7276,
      "side": 7277,
      "yi": 7278,
      "anie": 7279,
      "UScents": 7280,
      "rot": 7281,
      "omon": 7282,
      "umina": 7283,
      "rain": 7284,
      "apt": 7285,
      "ising": 7286,
      "isilk": 7287,
      "Phoen": 7288,
      "Stew": 7289,
      "Stell": 7290,
      "lav": 7291,
      "COO": 7292,
      "okin": 7293,
      "Canva": 7294,
      "DNBH": 7295,
      "vian": 7296,
      "hiem": 7297,
      "assy": 7298,
      "2024": 7299,
      "ACH": 7300,
      "Serena": 7301,
      "TOGO": 7302,
      "GEAPP": 7303,
      "VnIndex": 7304,
      "boxing": 7305,
      "MOF": 7306,
      "anium": 7307,
      "Accel": 7308,
      "Barcel": 7309,
      "Festi": 7310,
      "Webber": 7311,
      "EEMC": 7312,
      "Maybach": 7313,
      "Lucas": 7314,
      "Kazan": 7315,
      "loyd": 7316,
      "Khaisilk": 7317,
      "membership": 7318,
      "Flyer": 7319,
      "Wahaha": 7320,
      "Luckin": 7321,
      "futsal": 7322,
      "value": 7323,
      "Croco": 7324,
      "bluechip": 7325,
      "Recycl": 7326,
      "Awak": 7327,
      "Ethiopia": 7328,
      "Bulgakov": 7329,
      "Phoenix": 7330,
      "0m": 7331,
      "360": 7332,
      "7GW": 7333,
      "BTNMT": 7334,
      "BESS": 7335,
      "CAS": 7336,
      "Crist": 7337,
      "Ding": 7338,
      "Dum": 7339,
      "Dist": 7340,
      "ELC": 7341,
      "FG": 7342,
      "Focus": 7343,
      "Gon": 7344,
      "Giacaphe": 7345,
      "ITS": 7346,
      "IGB": 7347,
      "JAPI": 7348,
      "Jupe": 7349,
      "Kot": 7350,
      "Karl": 7351,
      "Kanye": 7352,
      "LS": 7353,
      "Lov": 7354,
      "Leng": 7355,
      "Naniore": 7356,
      "OH": 7357,
      "ORI": 7358,
      "PTSC": 7359,
      "Qor": 7360,
      "Rh": 7361,
      "RSI": 7362,
      "Rhan": 7363,
      "Roch": 7364,
      "Range": 7365,
      "SBS": 7366,
      "Tub": 7367,
      "TIC": 7368,
      "Tora": 7369,
      "V12": 7370,
      "VOS": 7371,
      "Vedan": 7372,
      "Wave": 7373,
      "Zan": 7374,
      "flag": 7375,
      "mall": 7376,
      "ois": 7377,
      "ruck": 7378,
      "sach": 7379,
      "zal": 7380,
      "UST": 7381,
      "oring": 7382,
      "stein": 7383,
      "rock": 7384,
      "ily": 7385,
      "umann": 7386,
      "olis": 7387,
      "ades": 7388,
      "eech": 7389,
      "utics": 7390,
      "estine": 7391,
      "DPG": 7392,
      "oping": 7393,
      "TCG": 7394,
      "main": 7395,
      "VINASA": 7396,
      "Albat": 7397,
      "Alaric": 7398,
      "illon": 7399,
      "phar": 7400,
      "Princ": 7401,
      "Analysis": 7402,
      "Boho": 7403,
      "APH": 7404,
      "izz": 7405,
      "tega": 7406,
      "BOS": 7407,
      "COP29": 7408,
      "Beck": 7409,
      "Speed": 7410,
      "15km": 7411,
      "Climate": 7412,
      "apper": 7413,
      "Paypal": 7414,
      "Masay": 7415,
      "VEF": 7416,
      "BlueScope": 7417,
      "yscale": 7418,
      "Petersen": 7419,
      "Sunset": 7420,
      "trust": 7421,
      "Amata": 7422,
      "Markovich": 7423,
      "CHIPS": 7424,
      "ADS": 7425,
      "Plastics": 7426,
      "Supra": 7427,
      "Palestine": 7428,
      "Farrow": 7429,
      "DS536": 7430,
      "ought": 7431,
      "Grayscale": 7432,
      "Aviv": 7433,
      "People": 7434,
      "Neumann": 7435,
      "Emerg": 7436,
      "Emmanuel": 7437,
      "CFM": 7438,
      "GeneStory": 7439,
      "Knapper": 7440,
      "KQT": 7441,
      "Morrison": 7442,
      "600m2": 7443,
      "Radisson": 7444,
      "Clinic": 7445,
      "racks": 7446,
      "Gallery": 7447,
      "PewPew": 7448,
      "Augmetics": 7449,
      "Custer": 7450,
      "STEAM": 7451,
      "FRD": 7452,
      "Metropole": 7453,
      "Citigroup": 7454,
      "OOPA": 7455,
      "Glory": 7456,
      "Arsenal": 7457,
      "Bissel": 7458,
      "Xinhua": 7459,
      "Dmitry": 7460,
      "JAPIFoods": 7461,
      "Qorvo": 7462,
      "Albatross": 7463,
      "1C": 7464,
      "49": 7465,
      "4E": 7466,
      "4Innovation": 7467,
      "5h00": 7468,
      "APT": 7469,
      "AIDS": 7470,
      "BGE": 7471,
      "Dut": 7472,
      "ETS": 7473,
      "Erik": 7474,
      "FBNV": 7475,
      "Glo": 7476,
      "Gera": 7477,
      "JICA": 7478,
      "Koch": 7479,
      "Mir": 7480,
      "OTT": 7481,
      "Pas": 7482,
      "Pixel": 7483,
      "RN": 7484,
      "Rome": 7485,
      "SVR": 7486,
      "V3": 7487,
      "Vuit": 7488,
      "With": 7489,
      "family": 7490,
      "ghan": 7491,
      "gearing": 7492,
      "luc": 7493,
      "mass": 7494,
      "run": 7495,
      "tion": 7496,
      "vert": 7497,
      "inf": 7498,
      "inson": 7499,
      "esia": 7500,
      "ether": 7501,
      "stell": 7502,
      "atom": 7503,
      "ape": 7504,
      "apest": 7505,
      "cop": 7506,
      "SJF": 7507,
      "Sag": 7508,
      "Cox": 7509,
      "osph": 7510,
      "osys": 7511,
      "VILOG": 7512,
      "logg": 7513,
      "VAR": 7514,
      "PVB": 7515,
      "odia": 7516,
      "ASF": 7517,
      "security": 7518,
      "forest": 7519,
      "TNDN": 7520,
      "Leyen": 7521,
      "Conn": 7522,
      "Hansen": 7523,
      "GEM": 7524,
      "VnDirect": 7525,
      "12m": 7526,
      "Merry": 7527,
      "Edtech": 7528,
      "CHIN": 7529,
      "394": 7530,
      "Value": 7531,
      "cape": 7532,
      "200km": 7533,
      "35kV": 7534,
      "Minas": 7535,
      "viron": 7536,
      "DongABank": 7537,
      "NPMB": 7538,
      "Chrissy": 7539,
      "800m2": 7540,
      "Lakeview": 7541,
      "Infosys": 7542,
      "idget": 7543,
      "Friend": 7544,
      "blogger": 7545,
      "Prec": 7546,
      "Leader": 7547,
      "Vinataba": 7548,
      "Gaemi": 7549,
      "BLDS": 7550,
      "Sharp": 7551,
      "Shares": 7552,
      "Claud": 7553,
      "Mailand": 7554,
      "350km": 7555,
      "townhouse": 7556,
      "Brighton": 7557,
      "Antonio": 7558,
      "Digi": 7559,
      "Explor": 7560,
      "Budapest": 7561,
      "Albertsons": 7562,
      "Hallmark": 7563,
      "Chainalysis": 7564,
      "Uptown": 7565,
      "HACCP": 7566,
      "Frederic": 7567,
      "CBOT": 7568,
      "Franchise": 7569,
      "Paradise": 7570,
      "Moskva": 7571,
      "Aus4Innovation": 7572,
      "Barcelona": 7573,
      "Awaken": 7574,
      "Toraji": 7575,
      "Gerais": 7576,
      "Vuitton": 7577,
      "31": 7578,
      "6G": 7579,
      "AK": 7580,
      "AQ": 7581,
      "Adec": 7582,
      "Bent": 7583,
      "Bag": 7584,
      "BIT": 7585,
      "Cav": 7586,
      "DTH": 7587,
      "Dog": 7588,
      "Et": 7589,
      "Etax": 7590,
      "F0": 7591,
      "FFA": 7592,
      "Handa": 7593,
      "H800": 7594,
      "IEE": 7595,
      "JETRO": 7596,
      "Koh": 7597,
      "KITA": 7598,
      "Let": 7599,
      "List": 7600,
      "Mig": 7601,
      "N2": 7602,
      "Nad": 7603,
      "PD": 7604,
      "Pang": 7605,
      "Rico": 7606,
      "Say": 7607,
      "Sok": 7608,
      "SSC": 7609,
      "U19": 7610,
      "V8": 7611,
      "Via": 7612,
      "Zen": 7613,
      "Zhi": 7614,
      "aur": 7615,
      "core": 7616,
      "full": 7617,
      "moit": 7618,
      "ye": 7619,
      "zyn": 7620,
      "anza": 7621,
      "eni": 7622,
      "itage": 7623,
      "icy": 7624,
      "chen": 7625,
      "Infor": 7626,
      "Pham": 7627,
      "Chen": 7628,
      "oper": 7629,
      "connect": 7630,
      "agui": 7631,
      "BCH": 7632,
      "obel": 7633,
      "CC2": 7634,
      "aint": 7635,
      "Mali": 7636,
      "phot": 7637,
      "Elli": 7638,
      "XHCN": 7639,
      "IVE": 7640,
      "MSH": 7641,
      "hiu": 7642,
      "Meyers": 7643,
      "Optim": 7644,
      "SMIC": 7645,
      "avy": 7646,
      "EDC": 7647,
      "Spade": 7648,
      "indust": 7649,
      "quan": 7650,
      "quang": 7651,
      "mpt": 7652,
      "Click": 7653,
      "Think": 7654,
      "Halle": 7655,
      "RAL": 7656,
      "MIG": 7657,
      "financial": 7658,
      "100K": 7659,
      "current": 7660,
      "athe": 7661,
      "Ortega": 7662,
      "Bailey": 7663,
      "meet": 7664,
      "Barack": 7665,
      "Perf": 7666,
      "Gemalink": 7667,
      "Benj": 7668,
      "Economist": 7669,
      "Macron": 7670,
      "Imper": 7671,
      "Kyle": 7672,
      "Volvo": 7673,
      "Even": 7674,
      "Angels": 7675,
      "insula": 7676,
      "SVVN": 7677,
      "Madagui": 7678,
      "Nghinh": 7679,
      "Corporate": 7680,
      "HPX": 7681,
      "UBKT": 7682,
      "400m": 7683,
      "voice": 7684,
      "Vikoda": 7685,
      "AUTO": 7686,
      "Victory": 7687,
      "Atlant": 7688,
      "Afghan": 7689,
      "BIG": 7690,
      "Bolat": 7691,
      "Karoline": 7692,
      "Subaru": 7693,
      "Border": 7694,
      "Champions": 7695,
      "UBTVQH15": 7696,
      "Products": 7697,
      "Hitech": 7698,
      "Bakong": 7699,
      "Kelvin": 7700,
      "Dominica": 7701,
      "hiep": 7702,
      "Antony": 7703,
      "Bahrain": 7704,
      "VN30F2502": 7705,
      "SWI": 7706,
      "Stockholm": 7707,
      "Govern": 7708,
      "Yinxing": 7709,
      "Alaba": 7710,
      "Senses": 7711,
      "Overview": 7712,
      "Deutsche": 7713,
      "Iskander": 7714,
      "enterpris": 7715,
      "Ketut": 7716,
      "Suez": 7717,
      "vironment": 7718,
      "Claudia": 7719,
      "Adecco": 7720,
      "zynski": 7721,
      "Informa": 7722,
      "Elliott": 7723,
      "1h": 7724,
      "BE": 7725,
      "Bof": 7726,
      "Cies": 7727,
      "Dia": 7728,
      "Dak": 7729,
      "EFE": 7730,
      "Fenn": 7731,
      "GK": 7732,
      "Gil": 7733,
      "Gab": 7734,
      "GREE": 7735,
      "Human": 7736,
      "IPA": 7737,
      "Jassy": 7738,
      "Kah": 7739,
      "LDR": 7740,
      "Lady": 7741,
      "Lloyd": 7742,
      "Ming": 7743,
      "MPV": 7744,
      "Nation": 7745,
      "NTH": 7746,
      "Pous": 7747,
      "QA": 7748,
      "RM": 7749,
      "RR": 7750,
      "VGS": 7751,
      "WIT": 7752,
      "beta": 7753,
      "fact": 7754,
      "mony": 7755,
      "ple": 7756,
      "ply": 7757,
      "public": 7758,
      "ress": 7759,
      "sin": 7760,
      "sdale": 7761,
      "zz": 7762,
      "USTR": 7763,
      "amant": 7764,
      "rov": 7765,
      "olingo": 7766,
      "exel": 7767,
      "Sha": 7768,
      "gain": 7769,
      "name": 7770,
      "master": 7771,
      "ifa": 7772,
      "ANVI": 7773,
      "ovan": 7774,
      "bons": 7775,
      "VAB": 7776,
      "Yours": 7777,
      "Philippe": 7778,
      "Container": 7779,
      "CKS": 7780,
      "Harmony": 7781,
      "Beans": 7782,
      "BeYours": 7783,
      "quochoi": 7784,
      "SaigonBank": 7785,
      "sana": 7786,
      "aho": 7787,
      "Mobifone": 7788,
      "etta": 7789,
      "awn": 7790,
      "ucell": 7791,
      "VEA": 7792,
      "Hallow": 7793,
      "Sila": 7794,
      "Silbert": 7795,
      "eshow": 7796,
      "BigC": 7797,
      "Thaih": 7798,
      "BYT": 7799,
      "plus": 7800,
      "Perplex": 7801,
      "11h30": 7802,
      "Ramen": 7803,
      "Assets": 7804,
      "LK01": 7805,
      "CloudEats": 7806,
      "Cybert": 7807,
      "steel": 7808,
      "ceptance": 7809,
      "400ha": 7810,
      "uflin": 7811,
      "Universal": 7812,
      "VBI": 7813,
      "Chees": 7814,
      "TradingView": 7815,
      "Simon": 7816,
      "ThaiSquare": 7817,
      "Atlas": 7818,
      "Stephanie": 7819,
      "Scottsdale": 7820,
      "iety": 7821,
      "Organic": 7822,
      "Sandbox": 7823,
      "Kusuma": 7824,
      "Champion": 7825,
      "Birla": 7826,
      "Okura": 7827,
      "Queens": 7828,
      "LIFE": 7829,
      "Backbase": 7830,
      "Duolingo": 7831,
      "Kauflin": 7832,
      "Peninsula": 7833,
      "vanadi": 7834,
      "VN30F2411": 7835,
      "Fibonan": 7836,
      "CZI": 7837,
      "Hydrogen": 7838,
      "Yoshino": 7839,
      "Ascend": 7840,
      "Film": 7841,
      "Horta": 7842,
      "ographic": 7843,
      "talkshow": 7844,
      "Lulucell": 7845,
      "Ariadi": 7846,
      "Beacon": 7847,
      "Matchroom": 7848,
      "Hodeco": 7849,
      "Anphabe": 7850,
      "Quantum": 7851,
      "Nevada": 7852,
      "STARTUP": 7853,
      "Lopez": 7854,
      "Globe": 7855,
      "Precision": 7856,
      "Imperial": 7857,
      "SWIFT": 7858,
      "BofA": 7859,
      "Cieszynski": 7860,
      "GREEN": 7861,
      "NTHI": 7862,
      "Pousung": 7863,
      "Halloween": 7864,
      "Thaiholdings": 7865,
      "Perplexity": 7866,
      "Cybertruck": 7867,
      "3K": 7868,
      "4K": 7869,
      "7h30": 7870,
      "Aff": 7871,
      "Ca": 7872,
      "Cus": 7873,
      "Eb": 7874,
      "Ek": 7875,
      "FASO": 7876,
      "Garm": 7877,
      "GLAS": 7878,
      "HAS": 7879,
      "Iq": 7880,
      "Ir": 7881,
      "ICC": 7882,
      "Jac": 7883,
      "Kris": 7884,
      "Lip": 7885,
      "LMM": 7886,
      "MF": 7887,
      "Meng": 7888,
      "Neuro": 7889,
      "Pesk": 7890,
      "Ran": 7891,
      "S4": 7892,
      "SID": 7893,
      "UMP": 7894,
      "bell": 7895,
      "fu": 7896,
      "kit": 7897,
      "mang": 7898,
      "new": 7899,
      "nival": 7900,
      "you": 7901,
      "zan": 7902,
      "araman": 7903,
      "endo": 7904,
      "chill": 7905,
      "Inverter": 7906,
      "VietABank": 7907,
      "CPF": 7908,
      "CPU": 7909,
      "oland": 7910,
      "loanh": 7911,
      "Vinas": 7912,
      "iming": 7913,
      "NNT": 7914,
      "Chop": 7915,
      "Newte": 7916,
      "law": 7917,
      "last": 7918,
      "TCS": 7919,
      "Mack": 7920,
      "Agro": 7921,
      "Campbell": 7922,
      "VF5": 7923,
      "Press": 7924,
      "management": 7925,
      "MST": 7926,
      "Ana": 7927,
      "Find": 7928,
      "Board": 7929,
      "Meir": 7930,
      "Brit": 7931,
      "PM2": 7932,
      "KHQR": 7933,
      "NetZero": 7934,
      "AMES": 7935,
      "Bear": 7936,
      "STG": 7937,
      "kyung": 7938,
      "indra": 7939,
      "15h30": 7940,
      "Hans": 7941,
      "CIRE": 7942,
      "PACCL": 7943,
      "Coli": 7944,
      "forbeswomen": 7945,
      "Starlake": 7946,
      "anni": 7947,
      "anny": 7948,
      "LEFASO": 7949,
      "1900": 7950,
      "IRR": 7951,
      "WeAngels": 7952,
      "ngu": 7953,
      "DNNN": 7954,
      "Heritage": 7955,
      "Avanza": 7956,
      "Cambridge": 7957,
      "VSD": 7958,
      "Brands": 7959,
      "Kuvare": 7960,
      "ICT1": 7961,
      "FiinTrade": 7962,
      "Douglas": 7963,
      "Account": 7964,
      "800MW": 7965,
      "TRUMP": 7966,
      "Venkat": 7967,
      "teambuilding": 7968,
      "CyberAgent": 7969,
      "Cements": 7970,
      "Kienlongbank": 7971,
      "UBTVQH14": 7972,
      "TASS": 7973,
      "generative": 7974,
      "Command": 7975,
      "Spotify": 7976,
      "Millennia": 7977,
      "Horizon": 7978,
      "Lukas": 7979,
      "Funiki": 7980,
      "Keywords": 7981,
      "Nicholas": 7982,
      "Ohio": 7983,
      "Engineering": 7984,
      "Restaur": 7985,
      "LINK": 7986,
      "Sakura": 7987,
      "Secure": 7988,
      "OKX": 7989,
      "Xpander": 7990,
      "Origin": 7991,
      "Giving": 7992,
      "Diego": 7993,
      "Mistral": 7994,
      "VDCA": 7995,
      "sushi": 7996,
      "WASDE": 7997,
      "snack": 7998,
      "RICEGLAS": 7999,
      "Rapidus": 8000,
      "Branson": 8001,
      "Bentley": 8002,
      "Benjamin": 8003,
      "Afghanistan": 8004,
      "Alabaster": 8005,
      "Iqvia": 8006,
      "LMMs": 8007,
      "Peskov": 8008,
      "Newtecons": 8009,
      "Restaurant": 8010,
      "RICEGLASS": 8011,
      "3F": 8012,
      "4F": 8013,
      "58": 8014,
      "95": 8015,
      "Aud": 8016,
      "BSH": 8017,
      "Bav": 8018,
      "Danny": 8019,
      "Free": 8020,
      "FUE": 8021,
      "Gord": 8022,
      "Hin": 8023,
      "Hog": 8024,
      "HIDS": 8025,
      "HKQT": 8026,
      "Kup": 8027,
      "Kol": 8028,
      "Loh": 8029,
      "Mov": 8030,
      "N1": 8031,
      "Nu": 8032,
      "PET": 8033,
      "Paper": 8034,
      "UX": 8035,
      "Vosco": 8036,
      "Wist": 8037,
      "XNK": 8038,
      "Xuan": 8039,
      "best": 8040,
      "cs": 8041,
      "fol": 8042,
      "hen": 8043,
      "jour": 8044,
      "mAh": 8045,
      "ni": 8046,
      "nic": 8047,
      "oom": 8048,
      "pent": 8049,
      "wah": 8050,
      "xin": 8051,
      "invest": 8052,
      "anam": 8053,
      "elsea": 8054,
      "cho": 8055,
      "illac": 8056,
      "ceived": 8057,
      "ido": 8058,
      "Trami": 8059,
      "ema": 8060,
      "cob": 8061,
      "cover": 8062,
      "CT1": 8063,
      "igo": 8064,
      "comment": 8065,
      "Chelsea": 8066,
      "SJS": 8067,
      "estyle": 8068,
      "rier": 8069,
      "Studi": 8070,
      "GPS": 8071,
      "GPDP": 8072,
      "GDPR": 8073,
      "SGN": 8074,
      "Newsom": 8075,
      "Rev": 8076,
      "Regal": 8077,
      "VPG": 8078,
      "VAC": 8079,
      "Sean": 8080,
      "pham": 8081,
      "vier": 8082,
      "Gox": 8083,
      "Goert": 8084,
      "TAL": 8085,
      "Exchange": 8086,
      "deadline": 8087,
      "Meit": 8088,
      "Constell": 8089,
      "COP28": 8090,
      "Travell": 8091,
      "GSK": 8092,
      "Solvay": 8093,
      "Edition": 8094,
      "Mete": 8095,
      "Legal": 8096,
      "Latin": 8097,
      "Redmi": 8098,
      "Motorola": 8099,
      "Zhong": 8100,
      "Innovations": 8101,
      "Abr": 8102,
      "Kyber": 8103,
      "Peuge": 8104,
      "Km7": 8105,
      "300m2": 8106,
      "Waterer": 8107,
      "network": 8108,
      "400m2": 8109,
      "Action": 8110,
      "Himal": 8111,
      "oshih": 8112,
      "Mount": 8113,
      "Jaime": 8114,
      "Jacob": 8115,
      "strade": 8116,
      "European": 8117,
      "Cadillac": 8118,
      "Illino": 8119,
      "Olam": 8120,
      "Kellogg": 8121,
      "aires": 8122,
      "Kiat": 8123,
      "Thiet": 8124,
      "StoneX": 8125,
      "Fisher": 8126,
      "Yoshida": 8127,
      "Therape": 8128,
      "self": 8129,
      "Mixue": 8130,
      "Resource": 8131,
      "Chandler": 8132,
      "Marubeni": 8133,
      "Alterno": 8134,
      "Ernst": 8135,
      "Salesforce": 8136,
      "Saxo": 8137,
      "Harker": 8138,
      "Zaner": 8139,
      "Masayoshi": 8140,
      "Studios": 8141,
      "Goertek": 8142,
      "Constellation": 8143,
      "Peugeot": 8144,
      "Illinois": 8145,
      "Therapeutics": 8146,
      "3nm": 8147,
      "65": 8148,
      "9m": 8149,
      "ATP": 8150,
      "Ast": 8151,
      "BMC": 8152,
      "BAB": 8153,
      "Bull": 8154,
      "Cand": 8155,
      "Cert": 8156,
      "DB": 8157,
      "Deb": 8158,
      "DRI": 8159,
      "DFC": 8160,
      "EMA": 8161,
      "Fid": 8162,
      "Fire": 8163,
      "Hem": 8164,
      "Haf": 8165,
      "Hao": 8166,
      "Jord": 8167,
      "Jasp": 8168,
      "KCM": 8169,
      "Kos": 8170,
      "LFL": 8171,
      "Lane": 8172,
      "Mini": 8173,
      "MUF": 8174,
      "NC": 8175,
      "NZ": 8176,
      "Nc": 8177,
      "Note": 8178,
      "OLED": 8179,
      "OKR": 8180,
      "PE": 8181,
      "Prab": 8182,
      "RTA": 8183,
      "S2": 8184,
      "Scar": 8185,
      "Tungsten": 8186,
      "Ut": 8187,
      "V2": 8188,
      "VTK": 8189,
      "Wes": 8190,
      "XT": 8191,
      "Ying": 8192,
      "aert": 8193,
      "cater": 8194,
      "dung": 8195,
      "eur": 8196,
      "econom": 8197,
      "jitz": 8198,
      "kVA": 8199,
      "nik": 8200,
      "pv": 8201,
      "pra": 8202,
      "right": 8203,
      "rich": 8204,
      "sb": 8205,
      "sour": 8206,
      "tic": 8207,
      "tory": 8208,
      "vs": 8209,
      "yad": 8210,
      "yout": 8211,
      "icial": 8212,
      "atoco": 8213,
      "challenges": 8214,
      "TTDS": 8215,
      "uplex": 8216,
      "Vietdata": 8217,
      "olo": 8218,
      "ention": 8219,
      "edy": 8220,
      "isen": 8221,
      "gaard": 8222,
      "three": 8223,
      "ifer": 8224,
      "ovanni": 8225,
      "AirX": 8226,
      "CSTB": 8227,
      "Philippine": 8228,
      "20g": 8229,
      "20m2": 8230,
      "ized": 8231,
      "teen": 8232,
      "bott": 8233,
      "Vinafood": 8234,
      "140": 8235,
      "14h30": 8236,
      "Blade": 8237,
      "orno": 8238,
      "ucky": 8239,
      "Cara": 8240,
      "18h": 8241,
      "Doctor": 8242,
      "uka": 8243,
      "ISS": 8244,
      "Youth": 8245,
      "office": 8246,
      "Bigdata": 8247,
      "Suntory": 8248,
      "SBIC": 8249,
      "Propack": 8250,
      "shopping": 8251,
      "Guide": 8252,
      "Alexis": 8253,
      "cesstrade": 8254,
      "Accesstrade": 8255,
      "70ha": 8256,
      "Realty": 8257,
      "Liquid": 8258,
      "Foundries": 8259,
      "Monthong": 8260,
      "Abbott": 8261,
      "Kyung": 8262,
      "insur": 8263,
      "Yeol": 8264,
      "Korean": 8265,
      "dress": 8266,
      "Biop": 8267,
      "Bali": 8268,
      "setup": 8269,
      "Janus": 8270,
      "Giovanni": 8271,
      "BLTTDS": 8272,
      "Sojitz": 8273,
      "ified": 8274,
      "Honasa": 8275,
      "Maps": 8276,
      "DHL": 8277,
      "Darin": 8278,
      "Mizuki": 8279,
      "dioxin": 8280,
      "Morningstar": 8281,
      "Olivier": 8282,
      "Billionaires": 8283,
      "development": 8284,
      "MEATLife": 8285,
      "Alphanam": 8286,
      "Dynamic": 8287,
      "Ortberg": 8288,
      "DTHCP": 8289,
      "Perfect": 8290,
      "Wistron": 8291,
      "Traveller": 8292,
      "Meteor": 8293,
      "MUFG": 8294,
      "catering": 8295,
      "54": 8296,
      "6h30": 8297,
      "8h30": 8298,
      "97": 8299,
      "ADP": 8300,
      "Ary": 8301,
      "ADC": 8302,
      "Clo": 8303,
      "Cell": 8304,
      "D1": 8305,
      "DJI": 8306,
      "Duc": 8307,
      "DEEP": 8308,
      "Fo": 8309,
      "Fern": 8310,
      "Got": 8311,
      "Gill": 8312,
      "GVC": 8313,
      "HY": 8314,
      "IRS": 8315,
      "Jur": 8316,
      "KTN": 8317,
      "Kouch": 8318,
      "Lak": 8319,
      "Lidar": 8320,
      "Lusk": 8321,
      "Muk": 8322,
      "NTS": 8323,
      "NEC": 8324,
      "Nature": 8325,
      "Pia": 8326,
      "Pot": 8327,
      "Pub": 8328,
      "Pips": 8329,
      "Paste": 8330,
      "Q4": 8331,
      "Rural": 8332,
      "Ricons": 8333,
      "Sib": 8334,
      "Slim": 8335,
      "Tun": 8336,
      "VME": 8337,
      "Vss": 8338,
      "WCS": 8339,
      "XIX": 8340,
      "Yeo": 8341,
      "bre": 8342,
      "bara": 8343,
      "bodia": 8344,
      "high": 8345,
      "mone": 8346,
      "nac": 8347,
      "sign": 8348,
      "erator": 8349,
      "enburg": 8350,
      "atin": 8351,
      "ating": 8352,
      "VNPAY": 8353,
      "Viram": 8354,
      "Intra": 8355,
      "Tram": 8356,
      "isure": 8357,
      "emen": 8358,
      "Banker": 8359,
      "lop": 8360,
      "PTFE": 8361,
      "CB350": 8362,
      "gawatt": 8363,
      "Cheg": 8364,
      "Station": 8365,
      "iria": 8366,
      "Coupe": 8367,
      "terest": 8368,
      "VIO": 8369,
      "TechCrunch": 8370,
      "logict": 8371,
      "she": 8372,
      "TMDV": 8373,
      "ASX": 8374,
      "MarTech": 8375,
      "Anne": 8376,
      "Anwar": 8377,
      "NTDS": 8378,
      "iece": 8379,
      "Comac": 8380,
      "Leisure": 8381,
      "aii": 8382,
      "Asahi": 8383,
      "SCR": 8384,
      "AMR": 8385,
      "Australian": 8386,
      "eiro": 8387,
      "quero": 8388,
      "quality": 8389,
      "ments": 8390,
      "aze": 8391,
      "ibility": 8392,
      "Payoo": 8393,
      "125": 8394,
      "Carneg": 8395,
      "Carnival": 8396,
      "Caliria": 8397,
      "ShopeeFood": 8398,
      "Heavy": 8399,
      "profit": 8400,
      "CHEM": 8401,
      "spread": 8402,
      "Weave": 8403,
      "Baquero": 8404,
      "Ursu": 8405,
      "IBA": 8406,
      "Jiang": 8407,
      "Drink": 8408,
      "DrAid": 8409,
      "Peak": 8410,
      "outier": 8411,
      "Ross": 8412,
      "CFP": 8413,
      "Richland": 8414,
      "NPL": 8415,
      "burn": 8416,
      "Dyi": 8417,
      "Arnold": 8418,
      "Jungle": 8419,
      "VOF": 8420,
      "Riyad": 8421,
      "Janzer": 8422,
      "Janeiro": 8423,
      "150m2": 8424,
      "yrest": 8425,
      "hormone": 8426,
      "Champs": 8427,
      "Bobby": 8428,
      "Beautyrest": 8429,
      "CoreWeave": 8430,
      "Vars": 8431,
      "allenge": 8432,
      "delay": 8433,
      "Hawaii": 8434,
      "socola": 8435,
      "Ascott": 8436,
      "Craven": 8437,
      "Vega": 8438,
      "Aekyung": 8439,
      "Condotel": 8440,
      "Colorado": 8441,
      "WWF": 8442,
      "ribut": 8443,
      "ustainability": 8444,
      "Soobin": 8445,
      "Total": 8446,
      "tiktok": 8447,
      "organizations": 8448,
      "Mesnac": 8449,
      "FestiHome": 8450,
      "Dumoutier": 8451,
      "Venkatesh": 8452,
      "penthouse": 8453,
      "Meituan": 8454,
      "Jordan": 8455,
      "Jaspaert": 8456,
      "Pasteur": 8457,
      "VssID": 8458,
      "Viramie": 8459,
      "Chegg": 8460,
      "NTDSD": 8461,
      "Carnegie": 8462,
      "Ursula": 8463,
      "Riyadh": 8464,
      "2000": 8465,
      "3kg": 8466,
      "63": 8467,
      "93": 8468,
      "AAE": 8469,
      "Aston": 8470,
      "BM": 8471,
      "BTV": 8472,
      "Bib": 8473,
      "DTT": 8474,
      "FPV": 8475,
      "Gol": 8476,
      "GIS": 8477,
      "Gulf": 8478,
      "Icon": 8479,
      "Ica": 8480,
      "JB": 8481,
      "Kla": 8482,
      "Lith": 8483,
      "NUS": 8484,
      "NYT": 8485,
      "Od": 8486,
      "OAN": 8487,
      "OCR": 8488,
      "Pand": 8489,
      "PMB": 8490,
      "Run": 8491,
      "SDI": 8492,
      "SGP": 8493,
      "Sala": 8494,
      "S600": 8495,
      "TF": 8496,
      "Tire": 8497,
      "Taste": 8498,
      "Ug": 8499,
      "Zobel": 8500,
      "bine": 8501,
      "cing": 8502,
      "dat": 8503,
      "ef": 8504,
      "gu": 8505,
      "hat": 8506,
      "iri": 8507,
      "iance": 8508,
      "iCloud": 8509,
      "iShares": 8510,
      "kid": 8511,
      "lidar": 8512,
      "nie": 8513,
      "sid": 8514,
      "xad": 8515,
      "ông": 8516,
      "anas": 8517,
      "anos": 8518,
      "onfram": 8519,
      "ete": 8520,
      "ilion": 8521,
      "Vie": 8522,
      "upta": 8523,
      "Inax": 8524,
      "oui": 8525,
      "oty": 8526,
      "ework": 8527,
      "CTAD": 8528,
      "Cherry": 8529,
      "Channel": 8530,
      "Storm": 8531,
      "CEA": 8532,
      "IDG": 8533,
      "thers": 8534,
      "Coher": 8535,
      "EVNPMB": 8536,
      "BCI": 8537,
      "ulation": 8538,
      "MWh": 8539,
      "Apps": 8540,
      "phile": 8541,
      "Prat": 8542,
      "Pratt": 8543,
      "20MW": 8544,
      "rys": 8545,
      "ertz": 8546,
      "Commod": 8547,
      "aire": 8548,
      "Concert": 8549,
      "PMC": 8550,
      "SMBC": 8551,
      "2402": 8552,
      "anto": 8553,
      "STK": 8554,
      "Spect": 8555,
      "Adams": 8556,
      "Adjust": 8557,
      "FoodMap": 8558,
      "ahu": 8559,
      "GEFE": 8560,
      "evich": 8561,
      "Khatoco": 8562,
      "perience": 8563,
      "Inno": 8564,
      "Pete": 8565,
      "ansas": 8566,
      "UNICE": 8567,
      "UNCTAD": 8568,
      "Jeong": 8569,
      "Luis": 8570,
      "Lula": 8571,
      "22K": 8572,
      "Legendary": 8573,
      "Databank": 8574,
      "Polaris": 8575,
      "Geoff": 8576,
      "stress": 8577,
      "Premio": 8578,
      "MacBook": 8579,
      "UpCOM": 8580,
      "Paulo": 8581,
      "Workplace": 8582,
      "45m2": 8583,
      "Costa": 8584,
      "Baltic": 8585,
      "barie": 8586,
      "F2412": 8587,
      "Willett": 8588,
      "stract": 8589,
      "Patel": 8590,
      "Every": 8591,
      "Reno": 8592,
      "Burn": 8593,
      "Lavita": 8594,
      "Friedman": 8595,
      "Healthcare": 8596,
      "IFRS": 8597,
      "Puech": 8598,
      "Sofitel": 8599,
      "Idaho": 8600,
      "service": 8601,
      "social": 8602,
      "Charoen": 8603,
      "Kirin": 8604,
      "Nichol": 8605,
      "memecoin": 8606,
      "Botan": 8607,
      "HURC1": 8608,
      "Sigma": 8609,
      "Grammy": 8610,
      "Mechanism": 8611,
      "crypto": 8612,
      "Bengaluru": 8613,
      "Lonely": 8614,
      "journey": 8615,
      "pract": 8616,
      "Icahn": 8617,
      "OANDA": 8618,
      "Adjustment": 8619,
      "UNICEF": 8620,
      "230": 8621,
      "59": 8622,
      "87": 8623,
      "ALC": 8624,
      "Bug": 8625,
      "Cath": 8626,
      "CCTV": 8627,
      "Diesel": 8628,
      "Dawn": 8629,
      "GWh": 8630,
      "Gens": 8631,
      "Giavang": 8632,
      "Gupta": 8633,
      "H6": 8634,
      "Hang": 8635,
      "KWh": 8636,
      "Kansas": 8637,
      "LM": 8638,
      "Ment": 8639,
      "Mik": 8640,
      "Mate": 8641,
      "Nong": 8642,
      "NAV": 8643,
      "OG": 8644,
      "Pun": 8645,
      "PRI": 8646,
      "Pickleball": 8647,
      "Rav": 8648,
      "S9": 8649,
      "SVF": 8650,
      "SAP": 8651,
      "Suth": 8652,
      "Tbps": 8653,
      "Tourist": 8654,
      "VW": 8655,
      "Wel": 8656,
      "Xa": 8657,
      "Yun": 8658,
      "baby": 8659,
      "cra": 8660,
      "hu": 8661,
      "hatch": 8662,
      "kn": 8663,
      "mess": 8664,
      "pco": 8665,
      "rity": 8666,
      "tz": 8667,
      "yin": 8668,
      "yarn": 8669,
      "zbank": 8670,
      "aron": 8671,
      "eton": 8672,
      "enberg": 8673,
      "ories": 8674,
      "amine": 8675,
      "amori": 8676,
      "elet": 8677,
      "chand": 8678,
      "TTF": 8679,
      "VNpay": 8680,
      "Intech": 8681,
      "umpun": 8682,
      "edge": 8683,
      "andina": 8684,
      "ayman": 8685,
      "cose": 8686,
      "CT6": 8687,
      "Phot": 8688,
      "Chrys": 8689,
      "SELEX": 8690,
      "opedia": 8691,
      "thanh": 8692,
      "udd": 8693,
      "ikoku": 8694,
      "TCC": 8695,
      "mac": 8696,
      "ANA": 8697,
      "ustomer": 8698,
      "Airshow": 8699,
      "abeth": 8700,
      "Malib": 8701,
      "PVTrans": 8702,
      "phal": 8703,
      "Musang": 8704,
      "NGGA": 8705,
      "Environment": 8706,
      "ogo": 8707,
      "DOOH": 8708,
      "Prote": 8709,
      "20m": 8710,
      "erto": 8711,
      "Aslam": 8712,
      "KHR": 8713,
      "Facepay": 8714,
      "Moz": 8715,
      "ICD": 8716,
      "Netany": 8717,
      "ensa": 8718,
      "baovan": 8719,
      "mentor": 8720,
      "MyCC": 8721,
      "TOP": 8722,
      "CIS": 8723,
      "eca": 8724,
      "Euromonitor": 8725,
      "Blooming": 8726,
      "Harrison": 8727,
      "Greenyarn": 8728,
      "Propzy": 8729,
      "DGW": 8730,
      "Amway": 8731,
      "Amati": 8732,
      "lective": 8733,
      "SkyBre": 8734,
      "190": 8735,
      "tourism": 8736,
      "2275": 8737,
      "Weather": 8738,
      "Baut": 8739,
      "Permate": 8740,
      "382275": 8741,
      "Abd": 8742,
      "CRCC": 8743,
      "IUCN": 8744,
      "ajima": 8745,
      "Economica": 8746,
      "tdown": 8747,
      "Nikko": 8748,
      "Kyoto": 8749,
      "models": 8750,
      "LK06": 8751,
      "Arts": 8752,
      "Jeffrey": 8753,
      "Angsana": 8754,
      "Mayo": 8755,
      "Lucy": 8756,
      "02XL": 8757,
      "Travelife": 8758,
      "Society": 8759,
      "polyphenol": 8760,
      "Southgate": 8761,
      "EPRI": 8762,
      "Keynes": 8763,
      "ggio": 8764,
      "silk": 8765,
      "Topix": 8766,
      "Giorno": 8767,
      "Bharat": 8768,
      "Bernina": 8769,
      "Samten": 8770,
      "Safe": 8771,
      "sales": 8772,
      "Sorento": 8773,
      "IOSA": 8774,
      "JONGGA": 8775,
      "Crypto": 8776,
      "Flyn": 8777,
      "Puerto": 8778,
      "Ferd": 8779,
      "osterone": 8780,
      "Customer": 8781,
      "Mandarin": 8782,
      "services": 8783,
      "Resources": 8784,
      "Commerzbank": 8785,
      "Kentucky": 8786,
      "Linde": 8787,
      "anguage": 8788,
      "Straits": 8789,
      "oversold": 8790,
      "CashBack": 8791,
      "Sundar": 8792,
      "Wavelet": 8793,
      "Fahasa": 8794,
      "YSVN": 8795,
      "flagship": 8796,
      "massage": 8797,
      "Miguel": 8798,
      "Kahlo": 8799,
      "HASD": 8800,
      "Jacqu": 8801,
      "Vinasun": 8802,
      "Commanders": 8803,
      "Kolk": 8804,
      "Uganda": 8805,
      "sideway": 8806,
      "Botanic": 8807,
      "Gensler": 8808,
      "Suthumpun": 8809,
      "hatchback": 8810,
      "Malibu": 8811,
      "Netanyahu": 8812,
      "baovanhoa": 8813,
      "SkyBreathe": 8814,
      "370": 8815,
      "4kg": 8816,
      "56": 8817,
      "Ban": 8818,
      "Bann": 8819,
      "Bcons": 8820,
      "CDI": 8821,
      "Duma": 8822,
      "Fn": 8823,
      "Fans": 8824,
      "Gav": 8825,
      "Gross": 8826,
      "Grover": 8827,
      "Hard": 8828,
      "HBO": 8829,
      "HHS": 8830,
      "HCA": 8831,
      "Jol": 8832,
      "JSC": 8833,
      "KW": 8834,
      "Kb": 8835,
      "LTS": 8836,
      "MG": 8837,
      "Ned": 8838,
      "Nest": 8839,
      "Nash": 8840,
      "PVP": 8841,
      "Pyn": 8842,
      "PEE": 8843,
      "Pors": 8844,
      "Rica": 8845,
      "SFC": 8846,
      "Sray": 8847,
      "Sdn": 8848,
      "WE": 8849,
      "Zay": 8850,
      "Zara": 8851,
      "ZEN": 8852,
      "bor": 8853,
      "bul": 8854,
      "fi": 8855,
      "free": 8856,
      "feed": 8857,
      "firm": 8858,
      "gia": 8859,
      "gical": 8860,
      "hop": 8861,
      "js": 8862,
      "jarat": 8863,
      "tab": 8864,
      "uce": 8865,
      "anies": 8866,
      "USCO": 8867,
      "aria": 8868,
      "arov": 8869,
      "ette": 8870,
      "CMO": 8871,
      "oma": 8872,
      "VNFOC": 8873,
      "VNLIFE": 8874,
      "ced": 8875,
      "artner": 8876,
      "repo": 8877,
      "ayan": 8878,
      "Vincent": 8879,
      "Shou": 8880,
      "Shadow": 8881,
      "CBS": 8882,
      "esta": 8883,
      "ript": 8884,
      "iry": 8885,
      "Alam": 8886,
      "balo": 8887,
      "2020": 8888,
      "risk": 8889,
      "erton": 8890,
      "ances": 8891,
      "Hugo": 8892,
      "Lean": 8893,
      "Level": 8894,
      "RSS3": 8895,
      "Trapha": 8896,
      "AFA": 8897,
      "evalu": 8898,
      "Oneida": 8899,
      "XVIII": 8900,
      "enness": 8901,
      "orges": 8902,
      "Script": 8903,
      "acea": 8904,
      "Ambi": 8905,
      "spam": 8906,
      "ska": 8907,
      "pler": 8908,
      "Thompson": 8909,
      "INO": 8910,
      "8h50": 8911,
      "Teikoku": 8912,
      "Insurance": 8913,
      "Web3": 8914,
      "Pep": 8915,
      "Wars": 8916,
      "Volume": 8917,
      "blatt": 8918,
      "Maxim": 8919,
      "KPF": 8920,
      "riven": 8921,
      "testosterone": 8922,
      "BacABank": 8923,
      "KLB": 8924,
      "Forester": 8925,
      "Janelle": 8926,
      "Cheong": 8927,
      "protect": 8928,
      "Talkshow": 8929,
      "Naoki": 8930,
      "Leading": 8931,
      "halal": 8932,
      "Turbo": 8933,
      "Ivy": 8934,
      "Boris": 8935,
      "Wellington": 8936,
      "PRU": 8937,
      "IFS": 8938,
      "wealth": 8939,
      "Decor": 8940,
      "Duisen": 8941,
      "STADA": 8942,
      "Sukh": 8943,
      "cacbon": 8944,
      "Seasons": 8945,
      "malt": 8946,
      "Pinterest": 8947,
      "Pattana": 8948,
      "Slip": 8949,
      "Bowl": 8950,
      "Vertex": 8951,
      "Kennedy": 8952,
      "Widodo": 8953,
      "vertible": 8954,
      "meeting": 8955,
      "Affinity": 8956,
      "British": 8957,
      "Piaggio": 8958,
      "Intracom": 8959,
      "Geoffrey": 8960,
      "Nicholson": 8961,
      "Bautista": 8962,
      "Kolkata": 8963,
      "Nashville": 8964,
      "Porsche": 8965,
      "VNFOCUS": 8966,
      "Traphaco": 8967,
      "Ambiente": 8968,
      "Duisenov": 8969,
      "1mm": 8970,
      "1Team": 8971,
      "51": 8972,
      "6T": 8973,
      "Ave": 8974,
      "AJC": 8975,
      "Bon": 8976,
      "Bapt": 8977,
      "D2": 8978,
      "DDo": 8979,
      "Daguerre": 8980,
      "Emart": 8981,
      "FB": 8982,
      "Fro": 8983,
      "Full": 8984,
      "GLP": 8985,
      "Ig": 8986,
      "Iron": 8987,
      "Kovi": 8988,
      "Lang": 8989,
      "LTD": 8990,
      "Lending": 8991,
      "Mis": 8992,
      "Nin": 8993,
      "Ning": 8994,
      "Neg": 8995,
      "PW": 8996,
      "Pit": 8997,
      "Ping": 8998,
      "Pall": 8999,
      "Paint": 9000,
      "RF": 9001,
      "Rew": 9002,
      "Roth": 9003,
      "SDN": 9004,
      "SDS": 9005,
      "Tob": 9006,
      "Tenness": 9007,
      "Vine": 9008,
      "Vanke": 9009,
      "XForce": 9010,
      "Yoon": 9011,
      "aqu": 9012,
      "daily": 9013,
      "ep": 9014,
      "fran": 9015,
      "glu": 9016,
      "hang": 9017,
      "hard": 9018,
      "ios": 9019,
      "jin": 9020,
      "kim": 9021,
      "keng": 9022,
      "rate": 9023,
      "tex": 9024,
      "uff": 9025,
      "ylo": 9026,
      "zania": 9027,
      "etch": 9028,
      "stri": 9029,
      "ches": 9030,
      "chol": 9031,
      "Initi": 9032,
      "oute": 9033,
      "VietA": 9034,
      "cephal": 9035,
      "emus": 9036,
      "Vinic": 9037,
      "Vinaph": 9038,
      "CBC": 9039,
      "CBD": 9040,
      "CBRN": 9041,
      "ige": 9042,
      "Challenge": 9043,
      "riq": 9044,
      "Stella": 9045,
      "CEBR": 9046,
      "angnam": 9047,
      "ourg": 9048,
      "hta": 9049,
      "Regent": 9050,
      "Captain": 9051,
      "VPCHEM": 9052,
      "ods": 9053,
      "odai": 9054,
      "phosph": 9055,
      "AIC": 9056,
      "Mars": 9057,
      "Marsh": 9058,
      "VFVND": 9059,
      "Goh": 9060,
      "Prof": 9061,
      "Deepfake": 9062,
      "Meat": 9063,
      "Maniece": 9064,
      "500K": 9065,
      "SMA": 9066,
      "240": 9067,
      "ockburn": 9068,
      "AMRO": 9069,
      "ender": 9070,
      "Adib": 9071,
      "Adela": 9072,
      "14h00": 9073,
      "SSIP": 9074,
      "ashion": 9075,
      "Clark": 9076,
      "apping": 9077,
      "icks": 9078,
      "Khoo": 9079,
      "Eurostat": 9080,
      "CARB": 9081,
      "poster": 9082,
      "eship": 9083,
      "CLOS": 9084,
      "showbiz": 9085,
      "Eddie": 9086,
      "Gujarat": 9087,
      "CHLB": 9088,
      "Fiato": 9089,
      "Motion": 9090,
      "Davidson": 9091,
      "UNCLOS": 9092,
      "Panacea": 9093,
      "Formaldehyde": 9094,
      "FECON": 9095,
      "nguyen": 9096,
      "17h00": 9097,
      "mephar": 9098,
      "Nobi": 9099,
      "8h45": 9100,
      "Hae": 9101,
      "380": 9102,
      "CRM": 9103,
      "CRII": 9104,
      "Cambodia": 9105,
      "Minim": 9106,
      "Two": 9107,
      "Rosatom": 9108,
      "Luxemb": 9109,
      "Emily": 9110,
      "Upd": 9111,
      "HANSSIP": 9112,
      "Living": 9113,
      "Japfa": 9114,
      "Biotec": 9115,
      "nyder": 9116,
      "Sanj": 9117,
      "Southern": 9118,
      "Know": 9119,
      "Strategies": 9120,
      "F2506": 9121,
      "Machi": 9122,
      "Rijs": 9123,
      "Cru": 9124,
      "MHz": 9125,
      "GACC": 9126,
      "Snow": 9127,
      "English": 9128,
      "Prad": 9129,
      "Ghana": 9130,
      "Keller": 9131,
      "PLS": 9132,
      "rating": 9133,
      "H2MOF": 9134,
      "Portal": 9135,
      "Pavilion": 9136,
      "Dieder": 9137,
      "festival": 9138,
      "ospi": 9139,
      "Allen": 9140,
      "FactSet": 9141,
      "losure": 9142,
      "DTG": 9143,
      "Badge": 9144,
      "Lyriq": 9145,
      "Communic": 9146,
      "Kiwi": 9147,
      "WiN": 9148,
      "HKMA": 9149,
      "Thiel": 9150,
      "Unitree": 9151,
      "Currency": 9152,
      "cotton": 9153,
      "Henry": 9154,
      "NielsenIQ": 9155,
      "LTG": 9156,
      "Fabric": 9157,
      "Tanzania": 9158,
      "Pymephar": 9159,
      "Mohammed": 9160,
      "Raymond": 9161,
      "Sahm": 9162,
      "Activision": 9163,
      "Umrah": 9164,
      "Accenture": 9165,
      "Nimul": 9166,
      "Recycling": 9167,
      "Roche": 9168,
      "Championship": 9169,
      "Cusami": 9170,
      "CaraWorld": 9171,
      "otype": 9172,
      "Pratama": 9173,
      "Cathay": 9174,
      "ChrysCapital": 9175,
      "WeatherGard": 9176,
      "Bannockburn": 9177,
      "Slipform": 9178,
      "Baptist": 9179,
      "DDoS": 9180,
      "Tennessee": 9181,
      "Adelaide": 9182,
      "Luxembourg": 9183,
      "Rijsemus": 9184,
      "Diederik": 9185,
      "Pymepharco": 9186,
      "2TB": 9187,
      "4x": 9188,
      "5h30": 9189,
      "5mm": 9190,
      "64": 9191,
      "77": 9192,
      "7B": 9193,
      "Bub": 9194,
      "BRA": 9195,
      "BFC": 9196,
      "Body": 9197,
      "Bomb": 9198,
      "Cai": 9199,
      "Court": 9200,
      "DDC": 9201,
      "Dana": 9202,
      "Fum": 9203,
      "FVTP": 9204,
      "GG": 9205,
      "Gum": 9206,
      "Gast": 9207,
      "Hart": 9208,
      "Hay": 9209,
      "HTV": 9210,
      "Hag": 9211,
      "Ich": 9212,
      "ISE": 9213,
      "IRE": 9214,
      "IOS": 9215,
      "Jess": 9216,
      "K5": 9217,
      "KK": 9218,
      "Kl": 9219,
      "KCB": 9220,
      "Kerry": 9221,
      "Kospi": 9222,
      "Len": 9223,
      "LAC": 9224,
      "LFP": 9225,
      "Men": 9226,
      "Mut": 9227,
      "MRL": 9228,
      "Norges": 9229,
      "Oma": 9230,
      "ODM": 9231,
      "Rum": 9232,
      "Row": 9233,
      "Rapp": 9234,
      "R72": 9235,
      "SU": 9236,
      "S24": 9237,
      "Sith": 9238,
      "S300": 9239,
      "Tick": 9240,
      "Vers": 9241,
      "Vog": 9242,
      "Voy": 9243,
      "WG": 9244,
      "WEB": 9245,
      "Wipro": 9246,
      "XSTG": 9247,
      "Yak": 9248,
      "Yemen": 9249,
      "Z18": 9250,
      "Z35": 9251,
      "aq": 9252,
      "bak": 9253,
      "ded": 9254,
      "eem": 9255,
      "fri": 9256,
      "hot": 9257,
      "list": 9258,
      "ming": 9259,
      "mill": 9260,
      "rust": 9261,
      "seek": 9262,
      "was": 9263,
      "west": 9264,
      "wind": 9265,
      "water": 9266,
      "zon": 9267,
      "arro": 9268,
      "ame": 9269,
      "itol": 9270,
      "atia": 9271,
      "chant": 9272,
      "ilin": 9273,
      "VietGap": 9274,
      "CPMB": 9275,
      "edu": 9276,
      "aport": 9277,
      "lege": 9278,
      "Indiana": 9279,
      "PTC1": 9280,
      "VinAI": 9281,
      "Vinmart": 9282,
      "CTO": 9283,
      "unovo": 9284,
      "Stein": 9285,
      "ird": 9286,
      "COIN": 9287,
      "ikin": 9288,
      "EVNHCMC": 9289,
      "ANG": 9290,
      "EURO": 9291,
      "Alf": 9292,
      "Alumin": 9293,
      "Cany": 9294,
      "Read": 9295,
      "abis": 9296,
      "Agoda": 9297,
      "Capitol": 9298,
      "BHX": 9299,
      "Plant": 9300,
      "phcm": 9301,
      "ECLAC": 9302,
      "doan": 9303,
      "forward": 9304,
      "CSS": 9305,
      "Mehta": 9306,
      "Opera": 9307,
      "242": 9308,
      "Mylan": 9309,
      "gameshow": 9310,
      "atti": 9311,
      "College": 9312,
      "Telem": 9313,
      "afer": 9314,
      "ishank": 9315,
      "ishou": 9316,
      "AmCham": 9317,
      "process": 9318,
      "MA200": 9319,
      "SmartPay": 9320,
      "Mcredit": 9321,
      "Links": 9322,
      "Joshi": 9323,
      "Partner": 9324,
      "ozu": 9325,
      "ngoai": 9326,
      "17m": 9327,
      "Perth": 9328,
      "Salomon": 9329,
      "Taj": 9330,
      "Reality": 9331,
      "phui": 9332,
      "Keith": 9333,
      "Talgo": 9334,
      "Devendra": 9335,
      "Volt": 9336,
      "Caspi": 9337,
      "NSO": 9338,
      "Km5": 9339,
      "Booking": 9340,
      "ATR72": 9341,
      "OpenAirlines": 9342,
      "Brochet": 9343,
      "Brothers": 9344,
      "NPTS": 9345,
      "Glen": 9346,
      "CSIRO": 9347,
      "Infographic": 9348,
      "Rooney": 9349,
      "KQXS": 9350,
      "Murray": 9351,
      "Tourism": 9352,
      "Archdaily": 9353,
      "Simone": 9354,
      "Simpson": 9355,
      "composite": 9356,
      "Naeem": 9357,
      "salon": 9358,
      "salad": 9359,
      "SearchGPT": 9360,
      "esterol": 9361,
      "scale": 9362,
      "Boring": 9363,
      "Production": 9364,
      "propyl": 9365,
      "Jennifer": 9366,
      "local": 9367,
      "Beverly": 9368,
      "BQLNT": 9369,
      "HongKong": 9370,
      "DFK": 9371,
      "VN30F2408": 9372,
      "Luke": 9373,
      "MLD": 9374,
      "AstraZen": 9375,
      "Staunovo": 9376,
      "Concepts": 9377,
      "Marubozu": 9378,
      "TrueData": 9379,
      "Mahindra": 9380,
      "Commercial": 9381,
      "826E": 9382,
      "Daiwa": 9383,
      "Fraser": 9384,
      "Blair": 9385,
      "Renault": 9386,
      "Francois": 9387,
      "enterprises": 9388,
      "MiniMax": 9389,
      "Nclosure": 9390,
      "VMEEF": 9391,
      "CFPB": 9392,
      "Spectre": 9393,
      "Bugatti": 9394,
      "messenger": 9395,
      "protected": 9396,
      "Vinexad": 9397,
      "glucose": 9398,
      "FVTPL": 9399,
      "Sitharaman": 9400,
      "AstraZeneca": 9401,
      "3A": 9402,
      "8W": 9403,
      "Again": 9404,
      "BSA": 9405,
      "BQT": 9406,
      "BGK": 9407,
      "Cang": 9408,
      "CHPG": 9409,
      "DAC": 9410,
      "Eug": 9411,
      "FCN": 9412,
      "Fif": 9413,
      "GV": 9414,
      "Gel": 9415,
      "GCN": 9416,
      "God": 9417,
      "Hue": 9418,
      "Ita": 9419,
      "Koute": 9420,
      "Last": 9421,
      "M1": 9422,
      "Mitch": 9423,
      "Members": 9424,
      "MFS": 9425,
      "NBS": 9426,
      "Nint": 9427,
      "Omega": 9428,
      "Omicron": 9429,
      "PAS": 9430,
      "QPP": 9431,
      "Rup": 9432,
      "Ryo": 9433,
      "RFID": 9434,
      "S500": 9435,
      "S400": 9436,
      "Snyder": 9437,
      "T19": 9438,
      "UT": 9439,
      "UTE": 9440,
      "UDIC": 9441,
      "Vas": 9442,
      "VGT": 9443,
      "Wol": 9444,
      "X7": 9445,
      "Xing": 9446,
      "Yel": 9447,
      "Year": 9448,
      "Yiming": 9449,
      "Z38": 9450,
      "aan": 9451,
      "bek": 9452,
      "bought": 9453,
      "cad": 9454,
      "dile": 9455,
      "duplex": 9456,
      "fil": 9457,
      "hon": 9458,
      "iola": 9459,
      "kt": 9460,
      "ksand": 9461,
      "match": 9462,
      "ning": 9463,
      "nica": 9464,
      "par": 9465,
      "pons": 9466,
      "pound": 9467,
      "tos": 9468,
      "uoka": 9469,
      "vuc": 9470,
      "inion": 9471,
      "analy": 9472,
      "ets": 9473,
      "enet": 9474,
      "CMWG": 9475,
      "amoto": 9476,
      "HCMUTE": 9477,
      "TTN": 9478,
      "VNSTE": 9479,
      "raya": 9480,
      "Tri": 9481,
      "Tronic": 9482,
      "Banks": 9483,
      "andan": 9484,
      "CT5": 9485,
      "adv": 9486,
      "Chuan": 9487,
      "Chodai": 9488,
      "hagen": 9489,
      "urer": 9490,
      "these": 9491,
      "ersin": 9492,
      "CoV": 9493,
      "Coach": 9494,
      "osay": 9495,
      "make": 9496,
      "CC3": 9497,
      "Alm": 9498,
      "Alle": 9499,
      "shoring": 9500,
      "Maur": 9501,
      "SeAM": 9502,
      "iper": 9503,
      "serial": 9504,
      "ieson": 9505,
      "doc": 9506,
      "ASEM": 9507,
      "Maria": 9508,
      "Excell": 9509,
      "hiro": 9510,
      "PNE": 9511,
      "TNS": 9512,
      "20h30": 9513,
      "APK": 9514,
      "Manpower": 9515,
      "Hugh": 9516,
      "Confinity": 9517,
      "Convers": 9518,
      "24ha": 9519,
      "sterdam": 9520,
      "Most": 9521,
      "Unle": 9522,
      "Beam": 9523,
      "endran": 9524,
      "EDF": 9525,
      "Spades": 9526,
      "Syre": 9527,
      "15ha": 9528,
      "15m2": 9529,
      "Blizz": 9530,
      "Goldwind": 9531,
      "Clar": 9532,
      "ahashi": 9533,
      "trading": 9534,
      "otti": 9535,
      "Khark": 9536,
      "Khun": 9537,
      "Grepin": 9538,
      "SHBFinance": 9539,
      "RIES": 9540,
      "BlueC": 9541,
      "SBB": 9542,
      "ishida": 9543,
      "Proptech": 9544,
      "CLSA": 9545,
      "Heights": 9546,
      "Starmer": 9547,
      "truong": 9548,
      "Amsterdam": 9549,
      "Merc": 9550,
      "product": 9551,
      "Guer": 9552,
      "BYJU": 9553,
      "CHXHCN": 9554,
      "anyang": 9555,
      "MECO": 9556,
      "Lego": 9557,
      "Jeju": 9558,
      "Melinda": 9559,
      "plug": 9560,
      "40ft": 9561,
      "Taek": 9562,
      "VVS": 9563,
      "tact": 9564,
      "BRL": 9565,
      "Label": 9566,
      "Kyr": 9567,
      "Nepal": 9568,
      "letree": 9569,
      "Luxstay": 9570,
      "300K": 9571,
      "300km": 9572,
      "80mm": 9573,
      "Autocar": 9574,
      "Sanest": 9575,
      "TRIMA": 9576,
      "VOCIS": 9577,
      "Knox": 9578,
      "luat": 9579,
      "sworth": 9580,
      "Rohan": 9581,
      "overbought": 9582,
      "Cheol": 9583,
      "DailyMail": 9584,
      "BMWK": 9585,
      "BIZ": 9586,
      "Corona": 9587,
      "Hopfield": 9588,
      "Guardiola": 9589,
      "science": 9590,
      "Freund": 9591,
      "Selah": 9592,
      "backlog": 9593,
      "Mapletree": 9594,
      "DHG": 9595,
      "Michelin": 9596,
      "Michelle": 9597,
      "FPTS": 9598,
      "VNEID": 9599,
      "Marcos": 9600,
      "VGU": 9601,
      "Korseries": 9602,
      "hosting": 9603,
      "ClipTV": 9604,
      "karian": 9605,
      "76ers": 9606,
      "Tuynh": 9607,
      "Aristo": 9608,
      "Ariston": 9609,
      "SemiAnalysis": 9610,
      "Lauren": 9611,
      "EQB": 9612,
      "Pomina": 9613,
      "VitaJean": 9614,
      "Bluetec": 9615,
      "INDUST": 9616,
      "Today": 9617,
      "clubhouse": 9618,
      "ONDER": 9619,
      "crossover": 9620,
      "Crocodile": 9621,
      "Baglino": 9622,
      "Evenflow": 9623,
      "HarmonyOS": 9624,
      "Queensland": 9625,
      "nguoi": 9626,
      "FUEVFVND": 9627,
      "Hinton": 9628,
      "Hemsworth": 9629,
      "Hafner": 9630,
      "thanhuy": 9631,
      "LendingClub": 9632,
      "franc": 9633,
      "cholesterol": 9634,
      "Rappaport": 9635,
      "8WONDER": 9636,
      "Fifth": 9637,
      "Kouteili": 9638,
      "Membership": 9639,
      "Nintendo": 9640,
      "QPPL": 9641,
      "VNSTEEL": 9642,
      "SeAMobile": 9643,
      "Excellence": 9644,
      "Hughes": 9645,
      "Conversation": 9646,
      "Blizzard": 9647,
      "INDUSTRIES": 9648,
      "2cm": 9649,
      "79": 9650,
      "7x": 9651,
      "AJ": 9652,
      "ADR": 9653,
      "Aaron": 9654,
      "CU": 9655,
      "Cul": 9656,
      "CVT": 9657,
      "CVD": 9658,
      "Dil": 9659,
      "Dot": 9660,
      "Egroup": 9661,
      "Fig": 9662,
      "Fashion": 9663,
      "Gust": 9664,
      "Hir": 9665,
      "Hok": 9666,
      "HGM": 9667,
      "Ily": 9668,
      "IRC": 9669,
      "Ign": 9670,
      "Kend": 9671,
      "Lan": 9672,
      "LIVE": 9673,
      "Menu": 9674,
      "Pitch": 9675,
      "QG": 9676,
      "Rot": 9677,
      "Rox": 9678,
      "Seb": 9679,
      "TDC": 9680,
      "TRC": 9681,
      "Troy": 9682,
      "Wool": 9683,
      "Yan": 9684,
      "aishou": 9685,
      "du": 9686,
      "ever": 9687,
      "find": 9688,
      "ij": 9689,
      "iTrader": 9690,
      "lett": 9691,
      "lich": 9692,
      "ludd": 9693,
      "rus": 9694,
      "suit": 9695,
      "tag": 9696,
      "tienphong": 9697,
      "tphcm": 9698,
      "uwat": 9699,
      "vey": 9700,
      "zhe": 9701,
      "iner": 9702,
      "integ": 9703,
      "eras": 9704,
      "alty": 9705,
      "enhagen": 9706,
      "rous": 9707,
      "eless": 9708,
      "Only": 9709,
      "asone": 9710,
      "iso": 9711,
      "emon": 9712,
      "andro": 9713,
      "PTE": 9714,
      "TVC": 9715,
      "TVHub": 9716,
      "Phosay": 9717,
      "Chick": 9718,
      "uron": 9719,
      "open": 9720,
      "Cosp": 9721,
      "aging": 9722,
      "osi": 9723,
      "osla": 9724,
      "Alzhe": 9725,
      "ells": 9726,
      "uchin": 9727,
      "SIK": 9728,
      "SIAC": 9729,
      "Eliz": 9730,
      "Marie": 9731,
      "Ext": 9732,
      "essen": 9733,
      "Asp": 9734,
      "24k": 9735,
      "AMG": 9736,
      "anti": 9737,
      "engers": 9738,
      "quoc": 9739,
      "14D": 9740,
      "GoldPrice": 9741,
      "TORS": 9742,
      "Hyper": 9743,
      "AFC": 9744,
      "appa": 9745,
      "Novo": 9746,
      "12kg": 9747,
      "Khosla": 9748,
      "Paragon": 9749,
      "attle": 9750,
      "ucci": 9751,
      "GSP": 9752,
      "Genesia": 9753,
      "Scale": 9754,
      "Scandina": 9755,
      "Amee": 9756,
      "Ambu": 9757,
      "ultan": 9758,
      "16h00": 9759,
      "Edens": 9760,
      "Schol": 9761,
      "MATIC": 9762,
      "ADV": 9763,
      "ADAS": 9764,
      "Homeb": 9765,
      "format": 9766,
      "Deli": 9767,
      "19km": 9768,
      "Melange": 9769,
      "VNMID": 9770,
      "Barchart": 9771,
      "Performance": 9772,
      "organic": 9773,
      "CoinDesk": 9774,
      "Polo": 9775,
      "uyuki": 9776,
      "Herald": 9777,
      "Herbert": 9778,
      "Streible": 9779,
      "Graph": 9780,
      "Avengers": 9781,
      "Minist": 9782,
      "VTIS": 9783,
[...]
